{"<Lua heritage>": 0, "<pad>": 1, "</s>": 2, "<unk>": 3, ".": 4, "I": 5, ",": 6, "to": 7, "the": 8, "a": 9, "and": 10, "is": 11, "of": 12, "in": 13, "my": 14, "it": 15, "that": 16, "\"": 17, "was": 18, "for": 19, "have": 20, "n't": 21, "!": 22, "'s": 23, "you": 24, "me": 25, "with": 26, "are": 27, "this": 28, "so": 29, "on": 30, "do": 31, "not": 32, "but": 33, "It": 34, "English": 35, "be": 36, "at": 37, "?": 38, "can": 39, "we": 40, "time": 41, "like": 42, "The": 43, "about": 44, "very": 45, "as": 46, "will": 47, "from": 48, ")": 49, "'m": 50, "people": 51, "because": 52, "by": 53, "(": 54, "had": 55, "there": 56, "want": 57, "think": 58, "or": 59, "one": 60, "they": 61, "go": 62, "Japanese": 63, "But": 64, "he": 65, "some": 66, "good": 67, "i": 68, "when": 69, "more": 70, "many": 71, "which": 72, "know": 73, "day": 74, "am": 75, "them": 76, "an": 77, "all": 78, "who": 79, "has": 80, "My": 81, "her": 82, "Japan": 83, "could": 84, "In": 85, "went": 86, "So": 87, "their": 88, "she": 89, "up": 90, "if": 91, "were": 92, "get": 93, "other": 94, ":": 95, "what": 96, "been": 97, "did": 98, "We": 99, "his": 100, "now": 101, "first": 102, "make": 103, "would": 104, "just": 105, "today": 106, "also": 107, "And": 108, "school": 109, "This": 110, "work": 111, "our": 112, "only": 113, "much": 114, "than": 115, "friends": 116, "really": 117, "your": 118, "lot": 119, "study": 120, "said": 121, "When": 122, "If": 123, "out": 124, "friend": 125, "write": 126, "should": 127, "use": 128, "too": 129, "got": 130, "He": 131, "feel": 132, "way": 133, "how": 134, "year": 135, "after": 136, "new": 137, "years": 138, "ca": 139, "take": 140, "see": 141, "Today": 142, "last": 143, "going": 144, "him": 145, "days": 146, "There": 147, "long": 148, "life": 149, "no": 150, "home": 151, "say": 152, "little": 153, "always": 154, "made": 155, ",@@": 156, "two": 157, "most": 158, "well": 159, "'": 160, "'ve": 161, "read": 162, "thought": 163, "back": 164, "'ll": 165, "things": 166, "something": 167, "before": 168, "such": 169, "However": 170, "She": 171, "They": 172, "hard": 173, "need": 174, "even": 175, "us": 176, "here": 177, "learn": 178, "next": 179, "job": 180, "every": 181, "any": 182, "come": 183, "these": 184, "After": 185, "hope": 186, "love": 187, "Because": 188, "then": 189, "A": 190, "help": 191, "since": 192, "world": 193, "still": 194, "old": 195, "same": 196, "try": 197, "house": 198, "speak": 199, "used": 200, "movie": 201, "why": 202, "happy": 203, "language": 204, "live": 205, "high": 206, "understand": 207, "thing": 208, "found": 209, "diary": 210, "What": 211, "into": 212, "came": 213, "eat": 214, "find": 215, "book": 216, "never": 217, "week": 218, "over": 219, "family": 220, "took": 221, "person": 222, "class": 223, "place": 224, "ago": 225, "morning": 226, "country": 227, "kind": 228, "students": 229, "yesterday": 230, "better": 231, "talk": 232, "again": 233, "night": 234, "must": 235, "big": 236, "around": 237, "difficult": 238, "each": 239, "That": 240, "As": 241, "able": 242, "english": 243, "\\": 244, "words": 245, "company": 246, "best": 247, "though": 248, "different": 249, "bad": 250, "buy": 251, "^": 252, "writing": 253, "money": 254, "important": 255, "teacher": 256, "felt": 257, "while": 258, "tell": 259, "give": 260, "food": 261, "name": 262, "does": 263, "Now": 264, "watch": 265, "often": 266, "2": 267, "university": 268, "where": 269, "You": 270, "For": 271, "started": 272, "student": 273, "may": 274, "few": 275, "another": 276, "called": 277, "myself": 278, "man": 279, "play": 280, "At": 281, "keep": 282, "become": 283, ";": 284, "Do": 285, ",I": 286, "without": 287, "month": 288, "studying": 289, "music": 290, "bought": 291, "course": 292, "Then": 293, "cold": 294, "summer": 295, "someone": 296, "three": 297, "sometimes": 298, "Chinese": 299, "put": 300, "reading": 301, "told": 302, "children": 303, "great": 304, "Tokyo": 305, "wanted": 306, "saw": 307, "its": 308, "TV": 309, "3": 310, "right": 311, "story": 312, "working": 313, "almost": 314, "ate": 315, "room": 316, "One": 317, "word": 318, "learning": 319, "tomorrow": 320, "city": 321, "soon": 322, "enjoy": 323, "heard": 324, "times": 325, "test": 326, "might": 327, "looking": 328, "How": 329, "look": 330, "interesting": 331, "down": 332, "reason": 333, "books": 334, "nice": 335, "~": 336, "asked": 337, "start": 338, "beautiful": 339, "game": 340, "those": 341, "improve": 342, "hot": 343, "-@@": 344, "meet": 345, "mother": 346, "problem": 347, "end": 348, "'@@": 349, "site": 350, "part": 351, "foreign": 352, "off": 353, "decided": 354, "correct": 355, "-": 356, "example": 357, "famous": 358, "enough": 359, "between": 360, "To": 361, "already": 362, "means": 363, "car": 364, "usually": 365, "hours": 366, "using": 367, "'d": 368, "please": 369, "party": 370, "change": 371, "countries": 372, "small": 373, "getting": 374, "until": 375, "watched": 376, "parents": 377, "sleep": 378, "during": 379, "future": 380, "shop": 381, "being": 382, "office": 383, "1": 384, "own": 385, "through": 386, "thinking": 387, "easy": 388, "On": 389, "fun": 390, "Please": 391, "Lang-8": 392, "girl": 393, "mind": 394, "favorite": 395, "seems": 396, "near": 397, "tired": 398, "na": 399, "water": 400, "American": 401, "..": 402, "makes": 403, "speaking": 404, "bit": 405, "feeling": 406, "watching": 407, "care": 408, "let": 409, "became": 410, "met": 411, ",and": 412, "tried": 413, "busy": 414, "news": 415, "By": 416, "Although": 417, ",but": 418, "living": 419, "train": 420, "picture": 421, "stay": 422, "especially": 423, "sure": 424, "doing": 425, "early": 426, "trip": 427, "second": 428, "song": 429, "lunch": 430, "business": 431, "5": 432, "Yesterday": 433, "believe": 434, "son": 435, "Korean": 436, "show": 437, "un@@": 438, "Some": 439, "gave": 440, "weather": 441, "exam": 442, "drink": 443, "recently": 444, "re@@": 445, "listen": 446, "free": 447, "everyday": 448, "Anyway": 449, "left": 450, "together": 451, "experience": 452, "written": 453, "interested": 454, "4": 455, "entry": 456, "finished": 457, "order": 458, "restaurant": 459, "others": 460, "practice": 461, "hand": 462, "wrote": 463, "young": 464, "away": 465, "wife": 466, "ask": 467, "popular": 468, "call": 469, "wish": 470, "dinner": 471, "listening": 472, "anything": 473, "season": 474, "forward": 475, "10": 476, "situation": 477, "sentence": 478, "daughter": 479, "Actually": 480, "fact": 481, "skill": 482, "power": 483, "China": 484, "spend": 485, "idea": 486, "maybe": 487, "looked": 488, "First": 489, "body": 490, "having": 491, "far": 492, "point": 493, "yet": 494, "talked": 495, "both": 496, "phone": 497, "er": 498, "ed": 499, "Is": 500, "months": 501, "Of": 502, "once": 503, "everyone": 504, "culture": 505, "making": 506, "Since": 507, "possible": 508, "age": 509, "area": 510, "plan": 511, "face": 512, "Maybe": 513, "mean": 514, "Recently": 515, "system": 516, "dream": 517, "visit": 518, "father": 519, "talking": 520, "in@@": 521, "short": 522, "minutes": 523, "holiday": 524, "Korea": 525, "taking": 526, "New": 527, "hear": 528, "abroad": 529, "chance": 530, "coming": 531, "e@@": 532, "computer": 533, "half": 534, "rain": 535, "Even": 536, "hair": 537, "late": 538, "Therefore": 539, "nothing": 540, "teach": 541, "information": 542, "weekend": 543, "result": 544, "shopping": 545, "ever": 546, "enjoyed": 547, "s@@": 548, "real": 549, "surprised": 550, "bed": 551, "several": 552, "child": 553, "These": 554, "number": 555, "remember": 556, "vacation": 557, "team": 558, "30": 559, "college": 560, "full": 561, "woman": 562, "women": 563, "government": 564, "playing": 565, "Last": 566, "husband": 567, "native": 568, "quite": 569, "case": 570, "wan": 571, "special": 572, "town": 573, "travel": 574, "ing": 575, "changed": 576, "poor": 577, "front": 578, "everything": 579, "seen": 580, "less": 581, "played": 582, "stop": 583, "learned": 584, "s": 585, "internet": 586, "movies": 587, "lots": 588, "o@@": 589, "wonder": 590, "*": 591, "rice": 592, "conversation": 593, "winter": 594, "whether": 595, "human": 596, "lost": 597, "spring": 598, "Many": 599, "sentences": 600, "store": 601, "o": 602, "works": 603, "Why": 604, "program": 605, "check": 606, "skills": 607, "problems": 608, "strong": 609, "All": 610, "whole": 611, "e": 612, "later": 613, "side": 614, "hour": 615, "public": 616, "pay": 617, "knew": 618, "run": 619, "wrong": 620, "lesson": 621, "eating": 622, "6": 623, "japanese": 624, "sad": 625, "answer": 626, "walk": 627, "S@@": 628, "bus": 629, "a@@": 630, "studied": 631, "clothes": 632, "actually": 633, "s,@@": 634, "meaning": 635, "true": 636, "t@@": 637, "earthquake": 638, "question": 639, "club": 640, "de@@": 641, ",so": 642, "weeks": 643, "happened": 644, "finish": 645, "easily": 646, "done": 647, "guess": 648, "men": 649, "meeting": 650, "past": 651, "looks": 652, "health": 653, "i@@": 654, "leave": 655, "society": 656, "held": 657, "journal": 658, "heart": 659, "price": 660, "various": 661, "station": 662, "difference": 663, "nuclear": 664, "Also": 665, "snow": 666, "foods": 667, "level": 668, "least": 669, "languages": 670, "under": 671, "coffee": 672, "present": 673, "four": 674, "funny": 675, "air": 676, "introduce": 677, "'re": 678, "lives": 679, "worked": 680, "songs": 681, "en@@": 682, "sound": 683, "es": 684, "alone": 685, "finally": 686, "pictures": 687, "ability": 688, "y": 689, "cool": 690, "festival": 691, "style": 692, "d@@": 693, "sister": 694, "birthday": 695, "however": 696, "dog": 697, "taste": 698, "baby": 699, "/@@": 700, "America": 701, "passed": 702, "due": 703, "glad": 704, "strange": 705, "website": 706, "delicious": 707, "...": 708, "choose": 709, "group": 710, "known": 711, "20": 712, ">": 713, "A@@": 714, "outside": 715, "main": 716, "ly": 717, "boy": 718, "m": 719, "energy": 720, "cause": 721, "cost": 722, "rest": 723, "set": 724, "trying": 725, "k@@": 726, "spent": 727, "score": 728, "move": 729, "education": 730, "pass": 731, "wear": 732, "comes": 733, "opinion": 734, "Internet": 735, "kinds": 736, "8": 737, "eyes": 738, "7": 739, "g@@": 740, "sorry": 741, "video": 742, "afraid": 743, "t": 744, "paper": 745, "u@@": 746, "article": 747, "addition": 748, "y@@": 749, "%": 750, "usual": 751, "wait": 752, "expensive": 753, "/": 754, "park": 755, "Though": 756, "bring": 757, "cut": 758, "seemed": 759, "US": 760, "send": 761, "se@@": 762, "service": 763, "takes": 764, "moment": 765, "although": 766, "matter": 767, "voice": 768, "li@@": 769, "open": 770, "fast": 771, "Well": 772, "l@@": 773, "arrived": 774, "T@@": 775, "be@@": 776, "five": 777, "web": 778, "close": 779, "hospital": 780, "sea": 781, "fine": 782, "lived": 783, "From": 784, "continue": 785, "daily": 786, "Thank": 787, "O@@": 788, "Most": 789, "says": 790, "view": 791, "saying": 792, "wo": 793, "K@@": 794, "Sometimes": 795, "head": 796, "event": 797, "afternoon": 798, "si@@": 799, "members": 800, "decide": 801, "drinking": 802, "guy": 803, "traditional": 804, "line": 805, "realized": 806, "c@@": 807, "useful": 808, "instead": 809, "n@@": 810, "born": 811, "common": 812, "His": 813, "knowledge": 814, "cute": 815, "rainy": 816, "forget": 817, "history": 818, "al": 819, "teachers": 820, "cook": 821, "I@@": 822, "mistakes": 823, "me@@": 824, "l": 825, "yen": 826, "E@@": 827, ",it": 828, "00": 829, "major": 830, "tea": 831, "B@@": 832, "brother": 833, "games": 834, "gone": 835, "prepare": 836, "m@@": 837, "turn": 838, "C@@": 839, "express": 840, "communicate": 841, "waiting": 842, "di@@": 843, "sounds": 844, "rather": 845, "D": 846, "red": 847, "white": 848, "taken": 849, "excited": 850, "technology": 851, "ti@@": 852, "D@@": 853, "M@@": 854, "ma@@": 855, "wonderful": 856, "b@@": 857, "People": 858, "explain": 859, "warm": 860, "places": 861, "join": 862, "Especially": 863, "character": 864, "r@@": 865, "girls": 866, "kids": 867, "classes": 868, "Kyoto": 869, "sense": 870, "pretty": 871, "low": 872, "natural": 873, "lang-8": 874, "trouble": 875, "research": 876, "drama": 877, "U": 878, "reasons": 879, "Next": 880, "Finally": 881, "University": 882, "heavy": 883, ",the": 884, "bicycle": 885, "design": 886, "an@@": 887, "sent": 888, "al@@": 889, "boss": 890, "road": 891, "it@@": 892, "ted": 893, "moved": 894, "large": 895, "u": 896, "Every": 897, "serious": 898, "type": 899, "junior": 900, "No": 901, "sing": 902, "building": 903, "suddenly": 904, "p@@": 905, "Sunday": 906, "began": 907, "speaker": 908, "simple": 909, "visited": 910, "grammar": 911, "light": 912, "wa@@": 913, "running": 914, "evening": 915, "questions": 916, "development": 917, "P@@": 918, "happen": 919, "companies": 920, "G@@": 921, "named": 922, "color": 923, "worried": 924, "fall": 925, "sports": 926, "worry": 927, "Before": 928, "PC": 929, "hotel": 930, "except": 931, "training": 932, "er@@": 933, "<": 934, "H@@": 935, "ri@@": 936, "anyone": 937, "walking": 938, "sky": 939, "ar@@": 940, "catch": 941, "May": 942, "weight": 943, "top": 944, "mistake": 945, "According": 946, "photo": 947, "middle": 948, "member": 949, "thank": 950, "condition": 951, "Our": 952, "film": 953, "con@@": 954, "noticed": 955, "pain": 956, "temperature": 957, "ten": 958, "above": 959, "Taiwan": 960, ",i": 961, "following": 962, "se": 963, "seem": 964, "hate": 965, "Just": 966, "d": 967, "including": 968, "stayed": 969, "terrible": 970, "process": 971, "ers": 972, "against": 973, "Christmas": 974, "f@@": 975, "ting": 976, "nervous": 977, "expected": 978, "goal": 979, "market": 980, "beer": 981, "ones": 982, "elderly": 983, "seeing": 984, "While": 985, "grade": 986, "comfortable": 987, "examination": 988, "couple": 989, "social": 990, "card": 991, "le": 992, "9": 993, "N@@": 994, "married": 995, "lose": 996, ",we": 997, "pe@@": 998, "Let": 999, "etc": 1000, "le@@": 1001, "art": 1002, "among": 1003, "cake": 1004, "topic": 1005, "post": 1006, "hold": 1007, "similar": 1008, "Have": 1009, "ways": 1010, "doctor": 1011, "g": 1012, "TOEIC": 1013, "on@@": 1014, "probably": 1015, "fish": 1016, "message": 1017, "ab@@": 1018, "local": 1019, "Australia": 1020, "st@@": 1021, "share": 1022, "green": 1023, "April": 1024, "library": 1025, "dance": 1026, "h@@": 1027, "exciting": 1028, "street": 1029, "goes": 1030, "mine": 1031, "Saturday": 1032, "japan": 1033, "support": 1034, "cat": 1035, "Osaka": 1036, "recommend": 1037, "clean": 1038, "international": 1039, "su@@": 1040, "quickly": 1041, "cooking": 1042, "sleeping": 1043, "ha@@": 1044, "break": 1045, "y,@@": 1046, "beginning": 1047, "along": 1048, "sweet": 1049, "th": 1050, "third": 1051, "enter": 1052, "th@@": 1053, "save": 1054, "period": 1055, "graduate": 1056, "ch@@": 1057, "cherry": 1058, "dictionary": 1059, "form": 1060, "amount": 1061, "clear": 1062, "needs": 1063, "expression": 1064, "mom": 1065, "guys": 1066, "Canada": 1067, "black": 1068, "blog": 1069, "exchange": 1070, "F@@": 1071, "L@@": 1072, "older": 1073, "tonight": 1074, "products": 1075, "band": 1076, "center": 1077, "communication": 1078, "boring": 1079, "holidays": 1080, "needed": 1081, "stopped": 1082, "likes": 1083, "]": 1084, "relationship": 1085, "k": 1086, "te@@": 1087, "accident": 1088, "[": 1089, "return": 1090, "huge": 1091, "environment": 1092, "Can": 1093, "wake": 1094, "French": 1095, "brought": 1096, "R@@": 1097, "bath": 1098, "points": 1099, "forgot": 1100, "tend": 1101, "stand": 1102, "ca@@": 1103, "exercise": 1104, "title": 1105, "boyfriend": 1106, "necessary": 1107, "text": 1108, "en": 1109, "co@@": 1110, "=": 1111, "foreigners": 1112, "entries": 1113, "to@@": 1114, "taught": 1115, "final": 1116, "gon": 1117, "completely": 1118, "table": 1119, "wedding": 1120, "player": 1121, "teaching": 1122, "realize": 1123, "national": 1124, "meal": 1125, "ts": 1126, "interview": 1127, "staff": 1128, "hit": 1129, "inside": 1130, "totally": 1131, "Moreover": 1132, "tion": 1133, "mountain": 1134, "soccer": 1135, "prefer": 1136, "sa@@": 1137, "ice": 1138, "attention": 1139, "grow": 1140, "J@@": 1141, "miss": 1142, "touch": 1143, "woke": 1144, "sh@@": 1145, "at@@": 1146, "spending": 1147, "Day": 1148, "homework": 1149, "la@@": 1150, "hometown": 1151, "cup": 1152, "drive": 1153, "ked": 1154, "chinese": 1155, "broken": 1156, "given": 1157, "stuff": 1158, "15": 1159, "pronunciation": 1160, "turned": 1161, "letter": 1162, "Year": 1163, "ated": 1164, "till": 1165, "wind": 1166, "te": 1167, "Oh": 1168, "concert": 1169, "subject": 1170, "wants": 1171, "thanks": 1172, "ded": 1173, "presentation": 1174, "themselves": 1175, "entrance": 1176, "Singapore": 1177, "worse": 1178, "Tomorrow": 1179, "normal": 1180, "received": 1181, "expect": 1182, "ride": 1183, "smile": 1184, "term": 1185, "choice": 1186, "population": 1187, "Her": 1188, "hobby": 1189, "begin": 1190, "speakers": 1191, "increase": 1192, "truth": 1193, "During": 1194, "shows": 1195, "memory": 1196, "foreigner": 1197, "field": 1198, "ter": 1199, "contact": 1200, "liked": 1201, "or@@": 1202, "n": 1203, "floor": 1204, "elementary": 1205, "kept": 1206, "original": 1207, "younger": 1208, "interest": 1209, "cafe": 1210, "lack": 1211, "speech": 1212, "fell": 1213, "online": 1214, "scene": 1215, "sick": 1216, "king": 1217, "$": 1218, "step": 1219, "six": 1220, "March": 1221, "land": 1222, "sold": 1223, "v@@": 1224, "report": 1225, "joined": 1226, "Here": 1227, "driving": 1228, "z@@": 1229, "project": 1230, ",my": 1231, "series": 1232, "apartment": 1233, "Thanks": 1234, "door": 1235, "Friday": 1236, "Are": 1237, "plant": 1238, "nature": 1239, "ta@@": 1240, "shops": 1241, "j@@": 1242, "drunk": 1243, "aged": 1244, "USA": 1245, "lo@@": 1246, "ch": 1247, "mobile": 1248, "ball": 1249, "won": 1250, "effort": 1251, "mo@@": 1252, "imagine": 1253, "hardly": 1254, "Second": 1255, "image": 1256, "Not": 1257, "U@@": 1258, "attend": 1259, "breakfast": 1260, "perfect": 1261, "supposed": 1262, "World": 1263, "space": 1264, "certain": 1265, "everybody": 1266, "mi@@": 1267, "died": 1268, "Besides": 1269, "medical": 1270, "box": 1271, "longer": 1272, "performance": 1273, "100": 1274, "master": 1275, "related": 1276, "ve": 1277, "machine": 1278, "per": 1279, "current": 1280, "B": 1281, "opportunity": 1282, "blue": 1283, "baseball": 1284, "ap@@": 1285, "e-mail": 1286, "st": 1287, "bar": 1288, "angry": 1289, "sun": 1290, "economy": 1291, "agree": 1292, "purpose": 1293, "walked": 1294, "characters": 1295, "・": 1296, "hands": 1297, "phrase": 1298, "located": 1299, "appreciate": 1300, "notice": 1301, "chat": 1302, "flowers": 1303, "higher": 1304, "W@@": 1305, "shoes": 1306, "3@@": 1307, "sleepy": 1308, "feelings": 1309, "ticket": 1310, "ra@@": 1311, "swimming": 1312, "Monday": 1313, "w@@": 1314, "bag": 1315, "ant": 1316, "listened": 1317, "animals": 1318, "stress": 1319, "ceremony": 1320, "planning": 1321, "cars": 1322, "translate": 1323, "fresh": 1324, "beach": 1325, "department": 1326, "win": 1327, "solve": 1328, "harder": 1329, ",because": 1330, "someday": 1331, "raining": 1332, "About": 1333, "helped": 1334, "slept": 1335, "previous": 1336, "dishes": 1337, "add": 1338, "d,@@": 1339, "soup": 1340, "relax": 1341, "issue": 1342, "control": 1343, "below": 1344, "tough": 1345, "opened": 1346, "bi@@": 1347, "12": 1348, "p": 1349, "river": 1350, "blood": 1351, "war": 1352, "&": 1353, "ex@@": 1354, "window": 1355, "deal": 1356, "action": 1357, "jobs": 1358, "activities": 1359, "checked": 1360, "date": 1361, "ac@@": 1362, "pre@@": 1363, "brain": 1364, "senior": 1365, "showed": 1366, "effect": 1367, "somebody": 1368, "crazy": 1369, "Today,I": 1370, "DVD": 1371, "lucky": 1372, "ing,@@": 1373, "Could": 1374, "chocolate": 1375, "quality": 1376, "recent": 1377, "London": 1378, "happiness": 1379, "so@@": 1380, "becomes": 1381, "death": 1382, "aly": 1383, "electric": 1384, "somewhere": 1385, "dont": 1386, "prefecture": 1387, "Y@@": 1388, "economic": 1389, "wearing": 1390, "singing": 1391, "....": 1392, "2@@": 1393, "bike": 1394, "seat": 1395, "per@@": 1396, "ent": 1397, "do@@": 1398, "wondering": 1399, "part-time": 1400, "With": 1401, "drank": 1402, "earth": 1403, "twice": 1404, "garden": 1405, "camera": 1406, "personal": 1407, "dead": 1408, "confidence": 1409, "schools": 1410, "whose": 1411, "private": 1412, "11": 1413, "vocabulary": 1414, "method": 1415, "stories": 1416, "consider": 1417, "50": 1418, "position": 1419, "ary": 1420, "ce@@": 1421, "science": 1422, "healthy": 1423, "novel": 1424, "caused": 1425, "sell": 1426, "girlfriend": 1427, "cooked": 1428, "essay": 1429, "friendly": 1430, "parts": 1431, "caught": 1432, "o'clock": 1433, "sp@@": 1434, "OK": 1435, "staying": 1436, "trees": 1437, "sunny": 1438, "July": 1439, "over@@": 1440, "exactly": 1441, "product": 1442, "satisfied": 1443, "led": 1444, "ad@@": 1445, "activity": 1446, "goods": 1447, "advice": 1448, "keeping": 1449, "August": 1450, "ment": 1451, "prepared": 1452, "tennis": 1453, "stage": 1454, "lessons": 1455, "rich": 1456, "follow": 1457, "law": 1458, "success": 1459, "com@@": 1460, "rate": 1461, "cell": 1462, "ally": 1463, "C": 1464, "amazing": 1465, "based": 1466, "receive": 1467, "cream": 1468, "korean": 1469, "wi@@": 1470, "knows": 1471, "enjoying": 1472, "tree": 1473, "hurt": 1474, "nobody": 1475, "moving": 1476, "medicine": 1477, "God": 1478, "atmosphere": 1479, "ne@@": 1480, "mood": 1481, "Skype": 1482, "size": 1483, "ther": 1484, "page": 1485, "England": 1486, "biggest": 1487, "confused": 1488, "figure": 1489, "island": 1490, "generation": 1491, "lead": 1492, "areas": 1493, "plants": 1494, "helps": 1495, "British": 1496, "ideas": 1497, "waste": 1498, "safety": 1499, "traffic": 1500, "ground": 1501, "sushi": 1502, "classmates": 1503, "gives": 1504, "ation": 1505, "chose": 1506, "avoid": 1507, "impressed": 1508, "cheap": 1509, "de": 1510, "electricity": 1511, "compared": 1512, "corrected": 1513, "easier": 1514, "according": 1515, "ran": 1516, "Which": 1517, "customers": 1518, "bu@@": 1519, "po@@": 1520, "ty": 1521, "search": 1522, "no@@": 1523, "speed": 1524, "charge": 1525, "match": 1526, "loved": 1527, "typhoon": 1528, "account": 1529, "understood": 1530, "ordered": 1531, "starting": 1532, "go@@": 1533, "radio": 1534, "lazy": 1535, "painting": 1536, "ous": 1537, "behind": 1538, "paid": 1539, "within": 1540, "Another": 1541, "dis@@": 1542, "female": 1543, "bread": 1544, "graduated": 1545, "positive": 1546, "pick": 1547, "sit": 1548, "flower": 1549, "introduced": 1550, "gets": 1551, "ar": 1552, "smell": 1553, "German": 1554, "workers": 1555, "piano": 1556, "September": 1557, "yourself": 1558, "Their": 1559, "else": 1560, "dark": 1561, "fe@@": 1562, "anymore": 1563, "_": 1564, "answered": 1565, "key": 1566, "self": 1567, "becoming": 1568, "sed": 1569, "exams": 1570, "aging": 1571, "P": 1572, "earlier": 1573, "version": 1574, "ci@@": 1575, "40": 1576, "ended": 1577, "June": 1578, "meat": 1579, "weak": 1580, "vegetables": 1581, "professor": 1582, "developed": 1583, "himself": 1584, "inter@@": 1585, "Its": 1586, "S": 1587, "In@@": 1588, "leaves": 1589, "milk": 1590, "we@@": 1591, "Everyone": 1592, "fan": 1593, "Does": 1594, "ge": 1595, "familiar": 1596, "increasing": 1597, "smart": 1598, "ro@@": 1599, "entered": 1600, "Spanish": 1601, "results": 1602, "Unfortunately": 1603, "An": 1604, "sh": 1605, "mail": 1606, "alcohol": 1607, "closed": 1608, "die": 1609, "customer": 1610, "progress": 1611, "blossoms": 1612, "quit": 1613, "ce": 1614, "immediately": 1615, "comment": 1616, "crowded": 1617, "anime": 1618, "photos": 1619, "Hi": 1620, "anyway": 1621, "careful": 1622, "changing": 1623, "stupid": 1624, "ing@@": 1625, "2009": 1626, "for@@": 1627, "degree": 1628, "ys": 1629, "UK": 1630, "ds": 1631, "newspaper": 1632, "fire": 1633, "comments": 1634, "deep": 1635, "ence": 1636, "role": 1637, "global": 1638, "accept": 1639, "race": 1640, "Europe": 1641, "single": 1642, "programs": 1643, "op@@": 1644, "Yes": 1645, "dish": 1646, "tions": 1647, "conclusion": 1648, "experiences": 1649, "ki@@": 1650, "Russian": 1651, "ine": 1652, "ning": 1653, "basic": 1654, "general": 1655, "curry": 1656, "lol": 1657, "respect": 1658, "midnight": 1659, "persons": 1660, "1st": 1661, "modern": 1662, "Only": 1663, "sometime": 1664, "hi@@": 1665, "lately": 1666, "singer": 1667, "fee": 1668, "schedule": 1669, "guitar": 1670, "wine": 1671, "sitting": 1672, "expressions": 1673, "autumn": 1674, "disaster": 1675, "heat": 1676, "vi@@": 1677, "ou@@": 1678, "translation": 1679, "O": 1680, "s..": 1681, "Good": 1682, "draw": 1683, "provide": 1684, "par@@": 1685, "ful": 1686, "ating": 1687, "dogs": 1688, "effective": 1689, "piece": 1690, "unique": 1691, "fever": 1692, "Usually": 1693, "Thus": 1694, "ge@@": 1695, "deeply": 1696, "as@@": 1697, "safe": 1698, "x": 1699, "Those": 1700, "car@@": 1701, "rule": 1702, "reach": 1703, "regret": 1704, "ready": 1705, "host": 1706, "fluently": 1707, "helpful": 1708, "semester": 1709, "experienced": 1710, "limited": 1711, "colleagues": 1712, "police": 1713, "comic": 1714, "da@@": 1715, "ve@@": 1716, "T": 1717, "worth": 1718, "ages": 1719, "either": 1720, "4@@": 1721, "V@@": 1722, "bo@@": 1723, "Two": 1724, "theater": 1725, "act": 1726, "5@@": 1727, "fa@@": 1728, "beauty": 1729, "Re@@": 1730, "apply": 1731, "rock": 1732, "mainly": 1733, "reduce": 1734, "lecture": 1735, "build": 1736, "tr@@": 1737, "belong": 1738, "lower": 1739, "der": 1740, "gradually": 1741, "luck": 1742, "impression": 1743, "man@@": 1744, "mouth": 1745, "ur@@": 1746, "families": 1747, "oil": 1748, "create": 1749, "decision": 1750, "improving": 1751, "South": 1752, "develop": 1753, "driver": 1754, "improved": 1755, "definitely": 1756, "dangerous": 1757, "disease": 1758, "January": 1759, "ag@@": 1760, "articles": 1761, "traveling": 1762, "us@@": 1763, "giving": 1764, "laugh": 1765, "Fortunately": 1766, "clearly": 1767, "iPhone": 1768, "pool": 1769, "gift": 1770, "fight": 1771, "mentioned": 1772, "smoking": 1773, "professional": 1774, "boys": 1775, "airport": 1776, "distance": 1777, "chicken": 1778, "pa@@": 1779, "graduation": 1780, "state": 1781, "min@@": 1782, "costs": 1783, "offer": 1784, "pressure": 1785, "skype": 1786, "growing": 1787, "skin": 1788, "tu@@": 1789, "slowly": 1790, "ordinary": 1791, "2010": 1792, "qu@@": 1793, "disappointed": 1794, "cu@@": 1795, "sales": 1796, "instance": 1797, "scared": 1798, "childhood": 1799, "concentrate": 1800, "cor@@": 1801, "habit": 1802, "former": 1803, "media": 1804, "Or": 1805, "starts": 1806, "chi@@": 1807, "ok": 1808, "fat": 1809, "list": 1810, "ga@@": 1811, "temple": 1812, "bank": 1813, "shi@@": 1814, "competition": 1815, "shape": 1816, "negative": 1817, "impossible": 1818, "ings": 1819, "wall": 1820, "kill": 1821, "challenge": 1822, "Once": 1823, "differences": 1824, "board": 1825, "carry": 1826, "So,I": 1827, "therefore": 1828, "Ma@@": 1829, "cities": 1830, "seriously": 1831, "spoke": 1832, "financial": 1833, "animation": 1834, "ding": 1835, "physical": 1836, "tour": 1837, "eye": 1838, "ship": 1839, "ni@@": 1840, "math": 1841, "difficulty": 1842, "marriage": 1843, "dancing": 1844, "rent": 1845, "convenient": 1846, "rec@@": 1847, "Im": 1848, "likely": 1849, "ya": 1850, "h": 1851, "gym": 1852, "lovely": 1853, "celebrate": 1854, "focus": 1855, "software": 1856, "buying": 1857, "ent@@": 1858, "events": 1859, "es@@": 1860, "football": 1861, "worker": 1862, "tra@@": 1863, "Al@@": 1864, "ss": 1865, "contents": 1866, "dairy": 1867, "fashion": 1868, "killed": 1869, "fr@@": 1870, "United": 1871, "volunteer": 1872, "preparing": 1873, "Z@@": 1874, "ic": 1875, "1@@": 1876, "whom": 1877, "custom": 1878, "reply": 1879, "record": 1880, "noodle": 1881, "million": 1882, "industry": 1883, "stores": 1884, "ling": 1885, "moon": 1886, "b": 1887, "Hello": 1888, "across": 1889, "attended": 1890, "December": 1891, "released": 1892, "itself": 1893, "magazine": 1894, "behavior": 1895, "seven": 1896, "teeth": 1897, "memories": 1898, "colleague": 1899, "theme": 1900, "achieve": 1901, "manager": 1902, "changes": 1903, "appeared": 1904, "returned": 1905, "application": 1906, "strongly": 1907, "Who": 1908, "soft": 1909, "mu@@": 1910, "CD": 1911, "basketball": 1912, "shrine": 1913, "attitude": 1914, "understanding": 1915, "ance": 1916, "value": 1917, "career": 1918, "Furthermore": 1919, "cats": 1920, "ring": 1921, "restaurants": 1922, "surprise": 1923, "c": 1924, "ke": 1925, "pleasure": 1926, "haha": 1927, "Almost": 1928, "spoken": 1929, "throw": 1930, "tests": 1931, "whenever": 1932, "fully": 1933, "content": 1934, "houses": 1935, "f": 1936, "correction": 1937, "hearing": 1938, "ness": 1939, "topics": 1940, "toward": 1941, "failed": 1942, "remembered": 1943, "day@@": 1944, "wh@@": 1945, "nose": 1946, "invited": 1947, "considered": 1948, "Nowadays": 1949, "pm": 1950, "museum": 1951, "sport": 1952, "cultures": 1953, "dress": 1954, "om@@": 1955, "adult": 1956, "t,@@": 1957, "total": 1958, "the@@": 1959, "active": 1960, "partner": 1961, "ved": 1962, "ke@@": 1963, "shocked": 1964, "wash": 1965, "yed": 1966, "minute": 1967, "honest": 1968, "foot": 1969, "kid": 1970, "fireworks": 1971, "he@@": 1972, "animal": 1973, "owner": 1974, "author": 1975, ",he": 1976, "birth": 1977, "players": 1978, "ma": 1979, "variety": 1980, "time@@": 1981, "recommended": 1982, "cha@@": 1983, "patient": 1984, "broke": 1985, "stomach": 1986, "Okinawa": 1987, "ze": 1988, "spite": 1989, "drawing": 1990, "dreams": 1991, "salary": 1992, "cry": 1993, "suffering": 1994, "prevent": 1995, "du@@": 1996, "au@@": 1997, "diet": 1998, "data": 1999, "sight": 2000, "function": 2001, "flu": 2002, "buildings": 2003, "rules": 2004, "ry": 2005, "bored": 2006, "fried": 2007, "built": 2008, "influence": 2009, "community": 2010, "il@@": 2011, "hang": 2012, "France": 2013, "overseas": 2014, "sauce": 2015, "shy": 2016, "korea": 2017, "developing": 2018, "Asian": 2019, "dry": 2020, "supermarket": 2021, "shower": 2022, "Italian": 2023, "parent": 2024, "States": 2025, "ter@@": 2026, "Germany": 2027, "dy": 2028, "Did": 2029, "motivation": 2030, "manage": 2031, "eaten": 2032, "email": 2033, "everywhere": 2034, "desk": 2035, "screen": 2036, "materials": 2037, "subjects": 2038, "terms": 2039, "TOEFL": 2040, "nearly": 2041, "convenience": 2042, "loves": 2043, "attractive": 2044, "October": 2045, "im": 2046, "efforts": 2047, "nowadays": 2048, "lonely": 2049, "president": 2050, "grandmother": 2051, "tool": 2052, "work@@": 2053, "el@@": 2054, "ly@@": 2055, "required": 2056, "cards": 2057, "particular": 2058, "18": 2059, "swim": 2060, "employees": 2061, "studies": 2062, "Where": 2063, "somehow": 2064, "bigger": 2065, "ten@@": 2066, "continued": 2067, "ye@@": 2068, "carefully": 2069, "is@@": 2070, "personality": 2071, "phrases": 2072, "engineering": 2073, "ans": 2074, "whatever": 2075, "Japan@@": 2076, "ates": 2077, ",you": 2078, "tive": 2079, "E": 2080, "asleep": 2081, "directly": 2082, "fi@@": 2083, "star": 2084, "nearby": 2085, "flight": 2086, "growth": 2087, "ll": 2088, "further": 2089, "chatting": 2090, "lady": 2091, "pro@@": 2092, "created": 2093, "treat": 2094, "che@@": 2095, "calm": 2096, "accent": 2097, "letters": 2098, "mon@@": 2099, "god": 2100, "policy": 2101, "headache": 2102, "actor": 2103, "ses": 2104, "lie": 2105, "fear": 2106, "learners": 2107, "thousand": 2108, "missed": 2109, "anywhere": 2110, "risk": 2111, "average": 2112, "plans": 2113, "forever": 2114, "suppose": 2115, "protect": 2116, "war@@": 2117, "allowed": 2118, "glasses": 2119, "individual": 2120, "suitable": 2121, "x@@": 2122, "standing": 2123, "happens": 2124, "ir@@": 2125, "Both": 2126, "na@@": 2127, "uses": 2128, "earn": 2129, "opposite": 2130, "self-@@": 2131, "glass": 2132, "male": 2133, "s.": 2134, "relatives": 2135, "users": 2136, "material": 2137, "slow": 2138, "elder": 2139, "gi@@": 2140, "filled": 2141, "Probably": 2142, "worst": 2143, "reached": 2144, "region": 2145, "blossom": 2146, "corrections": 2147, "picked": 2148, "cultural": 2149, "ourselves": 2150, "crying": 2151, "welcome": 2152, "rare": 2153, "Mr": 2154, "ki": 2155, "AM": 2156, "sc@@": 2157, "section": 2158, "ho@@": 2159, "ic@@": 2160, "pi@@": 2161, "25": 2162, "10@@": 2163, "menu": 2164, "sign": 2165, "ture": 2166, "Facebook": 2167, "ba@@": 2168, "gotten": 2169, "sale": 2170, "Your": 2171, "Hokkaido": 2172, "discuss": 2173, "frequently": 2174, "leaving": 2175, "York": 2176, "nation": 2177, "thoughts": 2178, "doubt": 2179, "bear": 2180, "memorize": 2181, "task": 2182, "include": 2183, "excellent": 2184, "sweets": 2185, "wondered": 2186, "manga": 2187, "India": 2188, "management": 2189, "s,": 2190, "ver": 2191, "ms": 2192, "cleaning": 2193, "wet": 2194, "hungry": 2195, "suit": 2196, "regular": 2197, "ending": 2198, "absolutely": 2199, "mental": 2200, "ver@@": 2201, "fit": 2202, "sub@@": 2203, "classmate": 2204, "arrive": 2205, "sightseeing": 2206, "Hope": 2207, "Su@@": 2208, "operation": 2209, "complete": 2210, "model": 2211, "depressed": 2212, "cases": 2213, "license": 2214, "meals": 2215, "unfortunately": 2216, "mor@@": 2217, "relaxed": 2218, "advance": 2219, "wor@@": 2220, "shi": 2221, "helping": 2222, "weird": 2223, "translated": 2224, "successful": 2225, "tic": 2226, "ad": 2227, "M": 2228, "sta@@": 2229, "writer": 2230, "et": 2231, "ko": 2232, "names": 2233, "fantastic": 2234, "19@@": 2235, "note": 2236, "quiet": 2237, "covered": 2238, "egg": 2239, "fin@@": 2240, "subway": 2241, "To@@": 2242, ",which": 2243, ".....": 2244, "net": 2245, "cover": 2246, "hundred": 2247, "sort": 2248, "pet": 2249, "ties": 2250, "security": 2251, "ong": 2252, "tri@@": 2253, "church": 2254, "Would": 2255, "round": 2256, "les": 2257, "gu@@": 2258, "review": 2259, "Festival": 2260, "sion": 2261, "china": 2262, "2011": 2263, "yellow": 2264, "raise": 2265, "fix": 2266, "describe": 2267, "available": 2268, "IT": 2269, "specific": 2270, "types": 2271, "Russia": 2272, "home@@": 2273, "am@@": 2274, "w": 2275, ",there": 2276, "wide": 2277, "complicated": 2278, "western": 2279, "source": 2280, "e-@@": 2281, "ul@@": 2282, "dollars": 2283, "gas": 2284, "gain": 2285, "finding": 2286, "journals": 2287, "ou": 2288, "pieces": 2289, "up@@": 2290, "issues": 2291, "items": 2292, "proud": 2293, "mar@@": 2294, "fly": 2295, "writting": 2296, "noon": 2297, "proper": 2298, "riding": 2299, "damage": 2300, "r": 2301, "responsibility": 2302, "ed@@": 2303, "Be@@": 2304, "National": 2305, "explained": 2306, "extremely": 2307, "smoke": 2308, "simply": 2309, "user": 2310, "ght": 2311, "kitchen": 2312, "ji": 2313, "allow": 2314, "als": 2315, "visiting": 2316, "comics": 2317, "degrees": 2318, "musical": 2319, "Someone": 2320, "Seoul": 2321, "lyrics": 2322, "Summer": 2323, "24": 2324, "sex": 2325, "textbook": 2326, "ru@@": 2327, "registered": 2328, "solution": 2329, "latest": 2330, "plays": 2331, "ls": 2332, "waited": 2333, "tasty": 2334, "reality": 2335, "Secondly": 2336, "detail": 2337, "dropped": 2338, "thus": 2339, "2008": 2340, "force": 2341, "concerned": 2342, "participate": 2343, "wore": 2344, "compare": 2345, "opportunities": 2346, "February": 2347, "el": 2348, "practicing": 2349, "mark": 2350, ",a": 2351, "willing": 2352, "pray": 2353, "Spring": 2354, "hunting": 2355, "television": 2356, "opinions": 2357, "ity": 2358, "ka": 2359, "awesome": 2360, "tongue": 2361, "bright": 2362, "can@@": 2363, "fu@@": 2364, "der@@": 2365, "Nagoya": 2366, "trains": 2367, "genetic": 2368, "increased": 2369, "20@@": 2370, "facebook": 2371, "standard": 2372, "Mar@@": 2373, "leader": 2374, "pot": 2375, "album": 2376, "military": 2377, "exhausted": 2378, "pronounce": 2379, "concern": 2380, "spe@@": 2381, "ster": 2382, "13": 2383, "d-@@": 2384, "upset": 2385, "dad": 2386, ",she": 2387, "Time": 2388, "Fukushima": 2389, "cheaper": 2390, "effects": 2391, "groups": 2392, "♪": 2393, "south": 2394, "patients": 2395, "ks": 2396, "+": 2397, "joke": 2398, "Se@@": 2399, "European": 2400, "Thailand": 2401, "mostly": 2402, "appear": 2403, "s,I": 2404, "benefit": 2405, "access": 2406, "aim": 2407, "artist": 2408, "ons": 2409, "peace": 2410, "laptop": 2411, "tion@@": 2412, "kanji": 2413, "reasonable": 2414, ".@@": 2415, "exist": 2416, "importance": 2417, "har@@": 2418, "laughing": 2419, "14": 2420, "lines": 2421, "Sorry": 2422, "6@@": 2423, "beef": 2424, "novels": 2425, "Mi@@": 2426, "diaries": 2427, "umbrella": 2428, "north": 2429, "super": 2430, "putting": 2431, "clock": 2432, "treatment": 2433, "drop": 2434, "feels": 2435, "applied": 2436, "advantage": 2437, "promise": 2438, "yes": 2439, "capital": 2440, "handle": 2441, "rooms": 2442, "ancient": 2443, "fore@@": 2444, "practiced": 2445, "some@@": 2446, "dramas": 2447, "ramen": 2448, "ol@@": 2449, "ments": 2450, "da": 2451, "hu@@": 2452, "2nd": 2453, "resources": 2454, "asking": 2455, "7@@": 2456, "guide": 2457, "herself": 2458, "papers": 2459, "80": 2460, "X": 2461, "tickets": 2462, "benefits": 2463, "faster": 2464, "tourists": 2465, "opening": 2466, "washing": 2467, "extra": 2468, "telling": 2469, "sat": 2470, "falling": 2471, "spread": 2472, "L": 2473, "troubles": 2474, "et@@": 2475, "depends": 2476, "os": 2477, "plane": 2478, "any@@": 2479, "No@@": 2480, "km": 2481, "60": 2482, "16": 2483, "Other": 2484, "it.": 2485, "chair": 2486, "y,I": 2487, "flat": 2488, "thinks": 2489, "ese": 2490, "ang@@": 2491, "y-@@": 2492, "ss@@": 2493, "3D": 2494, "zed": 2495, "announced": 2496, "cakes": 2497, "precious": 2498, "ud@@": 2499, "ta": 2500, "you@@": 2501, "twitter": 2502, "saving": 2503, "century": 2504, "um": 2505, "recognize": 2506, "fail": 2507, "ble": 2508, "ends": 2509, "situations": 2510, "marry": 2511, ",they": 2512, "suggested": 2513, "ease": 2514, "z": 2515, "3rd": 2516, "services": 2517, "thin": 2518, "Each": 2519, "North": 2520, "cancer": 2521, "via": 2522, "An@@": 2523, "golf": 2524, "o-@@": 2525, "Asia": 2526, "reactor": 2527, "pri@@": 2528, "circle": 2529, "Kong": 2530, "correcting": 2531, "noodles": 2532, "Perhaps": 2533, "daughters": 2534, "Firstly": 2535, "International": 2536, "numbers": 2537, "appearance": 2538, "Hong": 2539, "advanced": 2540, "throat": 2541, "salt": 2542, "tax": 2543, "twenty": 2544, "limit": 2545, "More": 2546, "bird": 2547, "address": 2548, "warming": 2549, "desire": 2550, "powerful": 2551, "confident": 2552, "fri@@": 2553, "Thursday": 2554, "lu@@": 2555, "universities": 2556, "boiled": 2557, "City": 2558, "rarely": 2559, "typical": 2560, "chances": 2561, "So@@": 2562, "adults": 2563, "straight": 2564, "noise": 2565, "cou@@": 2566, "ang": 2567, "anybody": 2568, "cheer": 2569, "me.": 2570, "November": 2571, "selling": 2572, "gr@@": 2573, "factory": 2574, "ea@@": 2575, "ku@@": 2576, "searched": 2577, "Wednesday": 2578, "era": 2579, "scary": 2580, "pleased": 2581, "tooth": 2582, "dly": 2583, "sites": 2584, "hello": 2585, "dialy": 2586, "Mo@@": 2587, "village": 2588, "alive": 2589, "ine@@": 2590, "dirty": 2591, "row": 2592, "believed": 2593, "gra@@": 2594, "gh@@": 2595, "sha@@": 2596, "audience": 2597, "jogging": 2598, "book@@": 2599, "scenery": 2600, "ari@@": 2601, "ying": 2602, "bar@@": 2603, "promised": 2604, "school@@": 2605, "tears": 2606, "brand": 2607, "attached": 2608, "messages": 2609, "hall": 2610, "8@@": 2611, "nap": 2612, "year@@": 2613, "Three": 2614, "birds": 2615, "highly": 2616, "difficulties": 2617, "dislike": 2618, "Until": 2619, "Like": 2620, "friendship": 2621, "passing": 2622, "Americans": 2623, "academic": 2624, "spot": 2625, "overcome": 2626, "surfing": 2627, "explanation": 2628, "mixed": 2629, "legs": 2630, "seminar": 2631, "occurred": 2632, "17": 2633, "crisis": 2634, "eng@@": 2635, "0": 2636, "connect": 2637, "exhibition": 2638, "nor": 2639, "strict": 2640, "telephone": 2641, "De@@": 2642, "ker": 2643, "religion": 2644, "correctly": 2645, "literature": 2646, "Thai": 2647, "ner": 2648, "pair": 2649, "ty@@": 2650, "Whenever": 2651, "peoples": 2652, "bottom": 2653, "drove": 2654, "stars": 2655, "rode": 2656, "mall": 2657, "planned": 2658, "perfectly": 2659, "background": 2660, "brush": 2661, "suffered": 2662, "Shi@@": 2663, "conversations": 2664, "highest": 2665, "thesis": 2666, "studing": 2667, "mouse": 2668, "pork": 2669, "recover": 2670, "one@@": 2671, "managed": 2672, "star@@": 2673, "taxi": 2674, "construction": 2675, "mi": 2676, "co-worker": 2677, "official": 2678, "ot": 2679, "missing": 2680, "hobbies": 2681, "sang": 2682, "suffer": 2683, "painful": 2684, "bottle": 2685, "soy": 2686, "transportation": 2687, "encourage": 2688, "stick": 2689, "films": 2690, "Harry": 2691, "spirit": 2692, "sur@@": 2693, "drinks": 2694, "Indian": 2695, "col@@": 2696, "curious": 2697, "meanings": 2698, "ec@@": 2699, "eight": 2700, "Beijing": 2701, "y..": 2702, "knowing": 2703, "out@@": 2704, "grammer": 2705, "courses": 2706, "vegetable": 2707, "thier": 2708, "Tuesday": 2709, "under@@": 2710, "sti@@": 2711, "ents": 2712, "un": 2713, "Yokohama": 2714, "corner": 2715, "percent": 2716, "rea@@": 2717, "impressive": 2718, "eggs": 2719, "finishing": 2720, "Suddenly": 2721, "Google": 2722, "secret": 2723, "videos": 2724, "grew": 2725, "day,@@": 2726, "ali@@": 2727, "http": 2728, "release": 2729, "valuable": 2730, "dentist": 2731, "despite": 2732, "direction": 2733, "loud": 2734, "v": 2735, "all@@": 2736, ",too": 2737, "But,I": 2738, "rise": 2739, "non-@@": 2740, "im@@": 2741, "pages": 2742, "possibility": 2743, "introduction": 2744, "ery": 2745, "tells": 2746, "every@@": 2747, "ors": 2748, "afford": 2749, "tastes": 2750, "cre@@": 2751, "Shanghai": 2752, "Ko@@": 2753, "systems": 2754, "request": 2755, "tor@@": 2756, "gather": 2757, "cried": 2758, "citizens": 2759, "loss": 2760, "serve": 2761, "ev@@": 2762, "sts": 2763, "display": 2764, "ck": 2765, "insurance": 2766, "fruit": 2767, "Di@@": 2768, "feet": 2769, "network": 2770, "hand@@": 2771, "men@@": 2772, "K": 2773, "added": 2774, "day,I": 2775, "examples": 2776, "mat@@": 2777, "a-@@": 2778, "mountains": 2779, "ok@@": 2780, "Ch@@": 2781, "Zealand": 2782, "tasks": 2783, "production": 2784, "sake": 2785, "accepted": 2786, "structure": 2787, "political": 2788, "yo@@": 2789, "pity": 2790, "her@@": 2791, "forecast": 2792, "stone": 2793, "relieved": 2794, "tsunami": 2795, "hero": 2796, "es,@@": 2797, "cal@@": 2798, "e,@@": 2799, "searching": 2800, "School": 2801, "becouse": 2802, "presents": 2803, "ob@@": 2804, "ens": 2805, "ite": 2806, "ai": 2807, "mp@@": 2808, "speaks": 2809, "castle": 2810, "salon": 2811, "details": 2812, "passion": 2813, "advantages": 2814, "fill": 2815, "posted": 2816, "reactors": 2817, "18@@": 2818, "naturally": 2819, "sen@@": 2820, "t-@@": 2821, "shot": 2822, "cellphone": 2823, "replied": 2824, "episode": 2825, "laughed": 2826, "subtitles": 2827, "complex": 2828, "produce": 2829, "electronic": 2830, "grown": 2831, "mention": 2832, "Kanji": 2833, "experiment": 2834, "fruits": 2835, "reported": 2836, "concept": 2837, "Australian": 2838, "appropriate": 2839, "tor": 2840, "digital": 2841, "ny": 2842, "dri@@": 2843, "pop": 2844, "gate": 2845, "employee": 2846, "conditioner": 2847, "ay": 2848, "today@@": 2849, "computers": 2850, "Nevertheless": 2851, "director": 2852, "ing..": 2853, "essential": 2854, "use@@": 2855, "Italy": 2856, "Hi@@": 2857, "sun@@": 2858, "stronger": 2859, "conditions": 2860, "causes": 2861, "holding": 2862, "forest": 2863, "ear@@": 2864, "ator": 2865, "pu@@": 2866, "trust": 2867, "beat": 2868, "cant": 2869, "pizza": 2870, "70": 2871, "don": 2872, "ger": 2873, "Long": 2874, "cat@@": 2875, "escape": 2876, "Cup": 2877, "Happy": 2878, "humid": 2879, "hurry": 2880, "surely": 2881, "Na@@": 2882, "accidents": 2883, "documents": 2884, "polite": 2885, "election": 2886, "ka@@": 2887, "21": 2888, "checking": 2889, "comedy": 2890, "s,and": 2891, "income": 2892, "involved": 2893, "losing": 2894, "base": 2895, "primary": 2896, "my@@": 2897, "Sydney": 2898, "cloudy": 2899, "gh": 2900, "Twitter": 2901, "sal@@": 2902, "En@@": 2903, "stuffs": 2904, "comp@@": 2905, "spare": 2906, "Golden": 2907, "oo@@": 2908, "Speaking": 2909, "prize": 2910, "engineer": 2911, "uncomfortable": 2912, "freedom": 2913, "fixed": 2914, "mate": 2915, "jo@@": 2916, "shock": 2917, "empty": 2918, "bathroom": 2919, "marathon": 2920, "factors": 2921, "besides": 2922, "generally": 2923, "ched": 2924, "int@@": 2925, "sore": 2926, "usage": 2927, "sunday": 2928, "Very": 2929, "transfer": 2930, "Apple": 2931, "considering": 2932, "target": 2933, "Park": 2934, "massage": 2935, "Y": 2936, "affected": 2937, "ko@@": 2938, "sweat": 2939, "wild": 2940, "efficient": 2941, "served": 2942, "balance": 2943, "airplane": 2944, "Th@@": 2945, "historical": 2946, "raw": 2947, "wri@@": 2948, ",It": 2949, "bowl": 2950, "american": 2951, "kin@@": 2952, "ideal": 2953, "Ta@@": 2954, "contest": 2955, "Western": 2956, "stu@@": 2957, "Language": 2958, "laboratory": 2959, "med": 2960, "rid": 2961, "apple": 2962, "pr@@": 2963, "muscle": 2964, "shed": 2965, "fans": 2966, "stud@@": 2967, "way,@@": 2968, "ji@@": 2969, "happening": 2970, "and@@": 2971, "plenty": 2972, "phones": 2973, "fun@@": 2974, "--": 2975, "/her": 2976, "X@@": 2977, "kindergarten": 2978, "d..": 2979, "NY": 2980, "iPad": 2981, "carried": 2982, "decrease": 2983, "well@@": 2984, "ingredients": 2985, "'t": 2986, "staffs": 2987, "sugar": 2988, "id": 2989, "grand": 2990, "Ka@@": 2991, "22": 2992, "perhaps": 2993, "horse": 2994, "cr@@": 2995, "Mt": 2996, "brown": 2997, "theory": 2998, "ai@@": 2999, "90": 3000, "answers": 3001, "ming": 3002, "rain@@": 3003, "sons": 3004, "19": 3005, "flavor": 3006, "Such": 3007, "rained": 3008, "anxious": 3009, "unless": 3010, "shown": 3011, "improvement": 3012, "dormitory": 3013, "untill": 3014, "radiation": 3015, "policies": 3016, "contains": 3017, "toilet": 3018, "colors": 3019, "Disney": 3020, "facilities": 3021, "depend": 3022, "gold": 3023, "sk@@": 3024, "tic@@": 3025, "parking": 3026, ",please": 3027, "kimono": 3028, "currently": 3029, "faces": 3030, "pleasant": 3031, "ser@@": 3032, "Taiwanese": 3033, "cleaned": 3034, "paint": 3035, "lab": 3036, "discussion": 3037, "leading": 3038, "follows": 3039, "mer@@": 3040, "rude": 3041, "significant": 3042, "testing": 3043, "recorded": 3044, "journey": 3045, "ani@@": 3046, "om": 3047, "complain": 3048, "bye": 3049, "thousands": 3050, "potential": 3051, "survive": 3052, "relatively": 3053, "mb@@": 3054, "judge": 3055, "ken": 3056, "conference": 3057, "ard": 3058, "Life": 3059, "Mon@@": 3060, "hi": 3061, "includes": 3062, "ces": 3063, "str@@": 3064, "Instead": 3065, "sted": 3066, "tly": 3067, "touched": 3068, "bor@@": 3069, "cartoon": 3070, "Hawaii": 3071, "freely": 3072, "published": 3073, "br@@": 3074, "properly": 3075, "Everybody": 3076, "bri@@": 3077, "courage": 3078, "er,@@": 3079, "appointment": 3080, "Me@@": 3081, "stor@@": 3082, "ste@@": 3083, "suggest": 3084, "sy@@": 3085, "minister": 3086, "technologies": 3087, "forced": 3088, "unknown": 3089, "Ha@@": 3090, "east": 3091, "su": 3092, "stood": 3093, "co-workers": 3094, "uni@@": 3095, "commercial": 3096, "relaxing": 3097, "strength": 3098, "planed": 3099, "PM": 3100, "iPod": 3101, "fuel": 3102, "severe": 3103, "oral": 3104, "smaller": 3105, "succeed": 3106, "fishing": 3107, "Will": 3108, "camp": 3109, "demand": 3110, "Con@@": 3111, "ski": 3112, "lights": 3113, "surgery": 3114, "prices": 3115, "army": 3116, "ong@@": 3117, "repair": 3118, "cheese": 3119, "relation": 3120, "tools": 3121, "climb": 3122, "Spain": 3123, "finger": 3124, "now@@": 3125, "ies": 3126, "ants": 3127, "raised": 3128, "attack": 3129, "Un@@": 3130, "F": 3131, "tower": 3132, "tense": 3133, "SNS": 3134, "track": 3135, "tes": 3136, "plastic": 3137, "cousin": 3138, "budget": 3139, "Sa@@": 3140, "ear": 3141, "tiny": 3142, "Should": 3143, "oc@@": 3144, "remind": 3145, "interests": 3146, "scale": 3147, "G": 3148, "stock": 3149, "beside": 3150, "pla@@": 3151, "TO@@": 3152, "ps": 3153, "chi": 3154, "Paris": 3155, "shall": 3156, "offered": 3157, "eager": 3158, "streets": 3159, "treated": 3160, "Rec@@": 3161, "classroom": 3162, "ph@@": 3163, "formal": 3164, "leg": 3165, "ill": 3166, "sunshine": 3167, "15@@": 3168, "kindly": 3169, "them@@": 3170, "fishes": 3171, "goals": 3172, "juice": 3173, "you.": 3174, "range": 3175, "victims": 3176, "imp@@": 3177, "ant@@": 3178, "fo@@": 3179, "okay": 3180, "snowing": 3181, "emotion": 3182, "4th": 3183, "learnt": 3184, "lake": 3185, "pl@@": 3186, "enjoyable": 3187, "smoothly": 3188, "ously": 3189, "oh": 3190, "politics": 3191, "west": 3192, "beans": 3193, "Co@@": 3194, "fighting": 3195, "ines": 3196, "karaoke": 3197, "Canadian": 3198, "reminds": 3199, "collect": 3200, "IN@@": 3201, "included": 3202, "ak@@": 3203, "est": 3204, "neighborhood": 3205, "ir": 3206, "bet": 3207, "count": 3208, "windows": 3209, "lly": 3210, "DVDs": 3211, "item": 3212, "connected": 3213, "lover": 3214, "é": 3215, "brings": 3216, "response": 3217, "roll": 3218, "profile": 3219, "clinic": 3220, "remain": 3221, "certainly": 3222, "500": 3223, "sudden": 3224, "hesitate": 3225, "neck": 3226, "maintain": 3227, "Despite": 3228, "lies": 3229, "recognized": 3230, "pan": 3231, "Sh@@": 3232, "tur@@": 3233, "assignment": 3234, "jam": 3235, "workplace": 3236, "climate": 3237, "arm": 3238, "thick": 3239, "admit": 3240, "pink": 3241, "house@@": 3242, "tt@@": 3243, "ought": 3244, "contrary": 3245, "tall": 3246, "meant": 3247, "ow@@": 3248, "unusual": 3249, "favourite": 3250, "rains": 3251, "200": 3252, "gar@@": 3253, "wallet": 3254, "Vancouver": 3255, "aspects": 3256, "ment@@": 3257, "failure": 3258, "showing": 3259, "ow": 3260, ",when": 3261, "fields": 3262, "gs": 3263, "ered": 3264, "anytime": 3265, "boat": 3266, "tourist": 3267, "invite": 3268, "mix": 3269, "farm": 3270, "daytime": 3271, "duty": 3272, "crime": 3273, "Li@@": 3274, "organization": 3275, "climbing": 3276, "campus": 3277, "XD": 3278, "practical": 3279, "Take": 3280, "perform": 3281, "Ro@@": 3282, "advertisement": 3283, "friend@@": 3284, "destination": 3285, "Lately": 3286, "followed": 3287, "horrible": 3288, "calling": 3289, "cloth": 3290, "selected": 3291, "ur": 3292, "ven@@": 3293, "contribute": 3294, "preparation": 3295, "end@@": 3296, "soul": 3297, "toy": 3298, "washed": 3299, "produced": 3300, "basically": 3301, "gained": 3302, "borrow": 3303, "VHTR": 3304, "beings": 3305, "9@@": 3306, "ned": 3307, "actors": 3308, "Ar@@": 3309, "bloom": 3310, "guests": 3311, "discount": 3312, "roommate": 3313, "bookstore": 3314, "latter": 3315, "methods": 3316, "contrast": 3317, "nine": 3318, "il": 3319, "me..": 3320, "Potter": 3321, "fluent": 3322, "Vietnam": 3323, "actions": 3324, "composition": 3325, "select": 3326, "neighbor": 3327, "wan@@": 3328, "Tohoku": 3329, "23": 3330, "ber": 3331, "plate": 3332, "pub": 3333, "ations": 3334, "upon": 3335, "broadcast": 3336, "Car@@": 3337, "connection": 3338, "Taipei": 3339, "intend": 3340, "device": 3341, "lea@@": 3342, "kindness": 3343, "Valentine": 3344, "affect": 3345, "lation": 3346, "register": 3347, "incident": 3348, "advices": 3349, "thirty": 3350, "San": 3351, "wave": 3352, "slightly": 3353, "ber@@": 3354, "arts": 3355, "push": 3356, "discussed": 3357, "den@@": 3358, "s,but": 3359, "movement": 3360, "supply": 3361, "Third": 3362, "pants": 3363, "closer": 3364, "eventually": 3365, "technical": 3366, "awful": 3367, "spicy": 3368, "Kobe": 3369, "designed": 3370, "damaged": 3371, "annoying": 3372, "lish": 3373, "happ@@": 3374, "gre@@": 3375, "Children": 3376, "hole": 3377, "ju@@": 3378, "hell": 3379, "fair": 3380, "noisy": 3381, "ges": 3382, "scenes": 3383, "provided": 3384, "sting": 3385, "But,@@": 3386, "indeed": 3387, "engineers": 3388, "s-@@": 3389, ",if": 3390, "ware": 3391, "reminded": 3392, "beyond": 3393, "functions": 3394, "credit": 3395, "towards": 3396, "facing": 3397, "gin@@": 3398, "Ac@@": 3399, "ters": 3400, "sum": 3401, "ves": 3402, "cho@@": 3403, "jump": 3404, "High": 3405, "prime": 3406, "potato": 3407, "Sushi": 3408, "depression": 3409, "aware": 3410, "excuse": 3411, "parties": 3412, "ure": 3413, "ton@@": 3414, "John": 3415, "Hiroshima": 3416, "pan@@": 3417, "Go": 3418, "Tonight": 3419, "vo@@": 3420, "impact": 3421, "Ki@@": 3422, "e.": 3423, "mama": 3424, "efficiency": 3425, "AM@@": 3426, "weekends": 3427, "ders": 3428, "features": 3429, "fault": 3430, "month@@": 3431, "link": 3432, "traveled": 3433, "manner": 3434, "feature": 3435, "-year-old": 3436, "setting": 3437, "entering": 3438, "Through": 3439, "flying": 3440, "seconds": 3441, "ng": 3442, "life@@": 3443, "Hence": 3444, "injured": 3445, "views": 3446, "abilities": 3447, "ited": 3448, "rapidly": 3449, "seldom": 3450, "borrowed": 3451, "sand": 3452, "sheet": 3453, "Gu@@": 3454, "bicycles": 3455, "back@@": 3456, "copy": 3457, "keeps": 3458, "ate@@": 3459, "@": 3460, "/she": 3461, "absent": 3462, "assistant": 3463, "wood": 3464, "scientific": 3465, "originally": 3466, "talks": 3467, "trial": 3468, "coworker": 3469, "Ex@@": 3470, "bra@@": 3471, "path": 3472, "ore": 3473, "chosen": 3474, "ha": 3475, "Everything": 3476, "tradition": 3477, "ently": 3478, "Be": 3479, "burden": 3480, "ther@@": 3481, "lying": 3482, "loo@@": 3483, "ler": 3484, "begun": 3485, "Love": 3486, "dr@@": 3487, "don@@": 3488, "talent": 3489, "air@@": 3490, "participated": 3491, "guest": 3492, "illness": 3493, "require": 3494, "status": 3495, "pen@@": 3496, "peaceful": 3497, "ly,@@": 3498, "seasons": 3499, "Bo@@": 3500, "2007": 3501, "wa": 3502, "joy": 3503, "cram": 3504, "neither": 3505, "client": 3506, "tries": 3507, "wisdom": 3508, "argue": 3509, "ching": 3510, "ns": 3511, "surprising": 3512, "ina": 3513, "grandfather": 3514, "french": 3515, "Chi@@": 3516, "Ri@@": 3517, "turning": 3518, "bill": 3519, "cutting": 3520, "ton": 3521, "a.m.": 3522, "danger": 3523, "Africa": 3524, "lat@@": 3525, "est@@": 3526, "East": 3527, "quake": 3528, "Without": 3529, "retirement": 3530, "discovered": 3531, "tie": 3532, "ocean": 3533, "notebook": 3534, "Me": 3535, "basket": 3536, "breath": 3537, "recipe": 3538, "arms": 3539, "regard": 3540, "mass": 3541, "ering": 3542, "steps": 3543, "map": 3544, "laundry": 3545, "loudly": 3546, "chatted": 3547, "jazz": 3548, "paying": 3549, "psychology": 3550, "Reading": 3551, "downtown": 3552, "location": 3553, "instant": 3554, "ches": 3555, "miso": 3556, "economics": 3557, "matters": 3558, "gathered": 3559, "educational": 3560, "photograph": 3561, "Hey": 3562, "ical": 3563, "hol@@": 3564, "War": 3565, "AS@@": 3566, "Au@@": 3567, "musician": 3568, "tasted": 3569, "saturday": 3570, "meters": 3571, "ey": 3572, "shoulder": 3573, "y.": 3574, "cure": 3575, "rising": 3576, "ff@@": 3577, "virus": 3578, "visa": 3579, "San@@": 3580, "magic": 3581, "well-@@": 3582, "solved": 3583, "ahead": 3584, "&@@": 3585, "forgotten": 3586, "cinema": 3587, "N": 3588, "char@@": 3589, "Yet": 3590, "Still": 3591, "casual": 3592, "ago@@": 3593, "employment": 3594, "ing-@@": 3595, "attracted": 3596, "bags": 3597, "clerk": 3598, "night@@": 3599, "ei@@": 3600, "bridge": 3601, "uncle": 3602, "ears": 3603, "Po@@": 3604, "normally": 3605, "maker": 3606, "passage": 3607, "see@@": 3608, "envy": 3609, "ins": 3610, "calls": 3611, "Writing": 3612, "youngest": 3613, "that@@": 3614, "quick": 3615, "gifts": 3616, "beginner": 3617, "uniform": 3618, "responsible": 3619, "cli@@": 3620, "badly": 3621, "imagined": 3622, "BBQ": 3623, "requires": 3624, "faced": 3625, "independent": 3626, "teams": 3627, "symbol": 3628, "stuck": 3629, "min": 3630, "occur": 3631, "statement": 3632, "R": 3633, "Ni@@": 3634, "des": 3635, "rental": 3636, "appreciated": 3637, "coat": 3638, "salad": 3639, "classic": 3640, "greeting": 3641, "colder": 3642, "largest": 3643, "rights": 3644, "zing": 3645, "cur@@": 3646, "approach": 3647, "emergency": 3648, "45": 3649, "tomato": 3650, "Having": 3651, "press": 3652, "Olympic": 3653, "ba": 3654, "learner": 3655, "thi@@": 3656, "ward": 3657, "upload": 3658, "tter": 3659, "son@@": 3660, "happily": 3661, "embarrassed": 3662, "ally,@@": 3663, "healthcare": 3664, "completed": 3665, "Mac": 3666, "Mother": 3667, "appears": 3668, "Yu@@": 3669, ",that": 3670, "mates": 3671, "threw": 3672, "ri": 3673, "poem": 3674, "shirt": 3675, "Sendai": 3676, "Le@@": 3677, "pace": 3678, "mum": 3679, "relative": 3680, "dollar": 3681, "iness": 3682, "babies": 3683, "contract": 3684, "bother": 3685, "THE": 3686, "resume": 3687, "machines": 3688, "repeat": 3689, "extent": 3690, "ori@@": 3691, "button": 3692, "Any": 3693, "insist": 3694, "AN@@": 3695, "Obama": 3696, "tournament": 3697, "individuals": 3698, "aspect": 3699, "encouraged": 3700, "bur@@": 3701, "mad": 3702, "district": 3703, "smiling": 3704, "turns": 3705, "Har@@": 3706, "reports": 3707, "unhappy": 3708, "motorcycle": 3709, "ied": 3710, "code": 3711, "Due": 3712, "other@@": 3713, "worrying": 3714, "Ca@@": 3715, "ID": 3716, "awake": 3717, "actress": 3718, "aunt": 3719, "solar": 3720, "room@@": 3721, "s...": 3722, "entire": 3723, "cul@@": 3724, "drew": 3725, "session": 3726, "#": 3727, "diseases": 3728, "California": 3729, "re": 3730, "ya@@": 3731, "rabbit": 3732, "reaction": 3733, "profit": 3734, "youth": 3735, "surface": 3736, "lay": 3737, "court": 3738, "tom@@": 3739, "dose": 3740, "......": 3741, "shortage": 3742, "roads": 3743, "otherwise": 3744, "narrow": 3745, "branch": 3746, "gentle": 3747, "provides": 3748, "Generally": 3749, "ster@@": 3750, "fer@@": 3751, "EN@@": 3752, "expectation": 3753, "agreed": 3754, "ably": 3755, "central": 3756, "classical": 3757, "everytime": 3758, "pointed": 3759, "agency": 3760, "disappeared": 3761, "House": 3762, "bus@@": 3763, "subtitle": 3764, "ality": 3765, "hoped": 3766, "12@@": 3767, "trend": 3768, "double": 3769, "5th": 3770, "TO": 3771, "pasta": 3772, "snack": 3773, "300": 3774, "relationships": 3775, "height": 3776, "anger": 3777, "romantic": 3778, "youtube": 3779, "p.m.": 3780, "teach@@": 3781, "lifestyle": 3782, "pure": 3783, "advise": 3784, "performed": 3785, "document": 3786, "Students": 3787, "tted": 3788, "See": 3789, "Few": 3790, "begins": 3791, "skiing": 3792, "Q@@": 3793, "phenomenon": 3794, "re-@@": 3795, "pen": 3796, "'I": 3797, "Pe@@": 3798, "ex-@@": 3799, "pic@@": 3800, "shame": 3801, "Now,I": 3802, "Party": 3803, "equipment": 3804, "1000": 3805, "magazines": 3806, "ing.": 3807, "Fuji": 3808, "environmental": 3809, "forth": 3810, "particularly": 3811, "ut": 3812, "volume": 3813, "W": 3814, "ky": 3815, "cap@@": 3816, "Great": 3817, "there@@": 3818, "ashamed": 3819, "Sometime": 3820, "yu@@": 3821, "snacks": 3822, "attract": 3823, "cycle": 3824, "greatly": 3825, "Man@@": 3826, "remains": 3827, "Par@@": 3828, "head@@": 3829, "circumstances": 3830, "clo@@": 3831, "silly": 3832, "tutor": 3833, "y,": 3834, "placed": 3835, "passport": 3836, "zoo": 3837, "grass": 3838, "Big": 3839, "factor": 3840, "remove": 3841, "one-@@": 3842, "temporary": 3843, "golden": 3844, "addicted": 3845, "websites": 3846, "Fukuoka": 3847, "earthquakes": 3848, "shing": 3849, "influenced": 3850, "imagination": 3851, "object": 3852, "Lo@@": 3853, "AR@@": 3854, "gap": 3855, "travelling": 3856, "T-shirt": 3857, "bad@@": 3858, "orange": 3859, "upper": 3860, "mis@@": 3861, "cra@@": 3862, "trans@@": 3863, "domestic": 3864, "pack": 3865, "ini@@": 3866, "yoga": 3867, "English@@": 3868, "consideration": 3869, "Being": 3870, "divided": 3871, "nearest": 3872, "ON@@": 3873, "So,@@": 3874, "anniversary": 3875, "Right": 3876, "30@@": 3877, "sing@@": 3878, "feed": 3879, "colorful": 3880, "annoyed": 3881, "stable": 3882, "saved": 3883, "officer": 3884, "ache": 3885, "thr@@": 3886, "lear@@": 3887, "usu@@": 3888, "Recently,I": 3889, "majority": 3890, "res": 3891, "ours": 3892, "fortunately": 3893, "Everyday": 3894, "ct": 3895, "Da@@": 3896, "throughout": 3897, "equal": 3898, "useless": 3899, "apart": 3900, "temp@@": 3901, "grades": 3902, "instrument": 3903, "exact": 3904, "battle": 3905, "clothing": 3906, "recovered": 3907, "friday": 3908, "☆": 3909, "strategy": 3910, "attending": 3911, "expressed": 3912, "sensitive": 3913, "monday": 3914, "King": 3915, "35": 3916, "Michael": 3917, "tal@@": 3918, "ner@@": 3919, "tre@@": 3920, "happend": 3921, "spa": 3922, "direct": 3923, "200@@": 3924, "2000": 3925, "flu@@": 3926, "q@@": 3927, "spelling": 3928, "tru@@": 3929, "existence": 3930, "fac@@": 3931, "welfare": 3932, "prove": 3933, "alarm": 3934, "entertainment": 3935, "handsome": 3936, "supper": 3937, "drug": 3938, "mer": 3939, "sending": 3940, "ans@@": 3941, "tho@@": 3942, "yo": 3943, "snow@@": 3944, ",this": 3945, "IELTS": 3946, "error": 3947, "Bu@@": 3948, "rose": 3949, "images": 3950, "Mexico": 3951, "overtime": 3952, ",in": 3953, "artists": 3954, "ful@@": 3955, "values": 3956, "Ne@@": 3957, "26": 3958, "H": 3959, "mothers": 3960, "greatest": 3961, "rural": 3962, "confirm": 3963, "described": 3964, "por@@": 3965, "off@@": 3966, "whi@@": 3967, "origin": 3968, "Nice": 3969, "i-@@": 3970, "Kansai": 3971, "privacy": 3972, "on-@@": 3973, "00@@": 3974, "bean": 3975, "me,@@": 3976, "reservation": 3977, "Now@@": 3978, "dle": 3979, "priority": 3980, "file": 3981, "effectively": 3982, "acquire": 3983, "Hu@@": 3984, "super@@": 3985, "ites": 3986, "US@@": 3987, "cloud": 3988, "Edo": 3989, "Ramen": 3990, "2005": 3991, "cash": 3992, "presented": 3993, "mathematics": 3994, "internship": 3995, "purchase": 3996, "exercises": 3997, "well-known": 3998, "La@@": 3999, "runs": 4000, "Go@@": 4001, "ld": 4002, "Philippines": 4003, "warmer": 4004, "tv": 4005, "Art": 4006, "Sea": 4007, "distinguish": 4008, "Halloween": 4009, "fied": 4010, "trade": 4011, "consists": 4012, "Fu@@": 4013, "truly": 4014, "musics": 4015, "class@@": 4016, "kg": 4017, "int": 4018, "technique": 4019, "va@@": 4020, ",then": 4021, "oun@@": 4022, "are@@": 4023, "student@@": 4024, "CDs": 4025, "restart": 4026, "2006": 4027, "citizen": 4028, "resort": 4029, "coun@@": 4030, "hill": 4031, "belonged": 4032, "sisters": 4033, "Come": 4034, "boy@@": 4035, "Santa": 4036, "farewell": 4037, "enhance": 4038, "errors": 4039, "somewhat": 4040, "length": 4041, "Com@@": 4042, "kes": 4043, "pull": 4044, "sel@@": 4045, "shop@@": 4046, "ep": 4047, "Japan,@@": 4048, "chemical": 4049, "humans": 4050, "deli@@": 4051, "ving": 4052, "cri@@": 4053, "regularly": 4054, "hot@@": 4055, "hoping": 4056, "ama": 4057, "stranger": 4058, "new@@": 4059, "sence": 4060, "Wow": 4061, "Island": 4062, "delivery": 4063, "leads": 4064, "solutions": 4065, "wise": 4066, "mes": 4067, "pregnant": 4068, "Si@@": 4069, "frustrated": 4070, "depending": 4071, "visitors": 4072, "garbage": 4073, "AK@@": 4074, "English.": 4075, "weekday": 4076, "sharing": 4077, "AL@@": 4078, "bone": 4079, "cross": 4080, "person@@": 4081, "hanging": 4082, "english@@": 4083, "Friends": 4084, "goo@@": 4085, "favor": 4086, "obviously": 4087, "som@@": 4088, "canceled": 4089, "brothers": 4090, "Nobody": 4091, "marketing": 4092, "roof": 4093, "Pre@@": 4094, "ely": 4095, "shoot": 4096, "sent@@": 4097, "baked": 4098, "flour": 4099, "high-@@": 4100, "fourth": 4101, "iphone": 4102, "composed": 4103, "pp@@": 4104, "onion": 4105, "widely": 4106, "hundreds": 4107, "af@@": 4108, "stands": 4109, "here@@": 4110, "anxiety": 4111, "promotion": 4112, "Test": 4113, "obvious": 4114, "Ba@@": 4115, "hated": 4116, "thing@@": 4117, "bitter": 4118, "d,": 4119, "seek": 4120, "ach@@": 4121, "fallen": 4122, "designer": 4123, "springs": 4124, "White": 4125, "texts": 4126, "expenses": 4127, "drugs": 4128, "inc@@": 4129, "alternative": 4130, "people@@": 4131, "painted": 4132, "Han@@": 4133, "pocket": 4134, "ire": 4135, "spanish": 4136, "dolls": 4137, "time,I": 4138, "Black": 4139, "shared": 4140, "tation": 4141, "obtain": 4142, "robot": 4143, "nurse": 4144, "verb": 4145, "play@@": 4146, "Yeah": 4147, "allows": 4148, "unexpected": 4149, "colored": 4150, "update": 4151, "marks": 4152, "age@@": 4153, "ex": 4154, "promote": 4155, "larger": 4156, "struggling": 4157, "succeeded": 4158, "But@@": 4159, "oneself": 4160, "hide": 4161, "ars": 4162, "packed": 4163, "Week": 4164, "furniture": 4165, "states": 4166, "coach": 4167, "newspapers": 4168, "wears": 4169, "nig": 4170, "RFID": 4171, "popularity": 4172, "fed": 4173, "forms": 4174, "dying": 4175, "Ho@@": 4176, "killing": 4177, "firm": 4178, "evil": 4179, "cycling": 4180, "nights": 4181, "IN": 4182, "Earth": 4183, "28": 4184, "established": 4185, "funds": 4186, "silent": 4187, "refrigerator": 4188, "stroke": 4189, "more@@": 4190, "IS@@": 4191, "arranged": 4192, "dried": 4193, "t.": 4194, "univer@@": 4195, "Mandarin": 4196, "chocolates": 4197, "sung": 4198, "mirror": 4199, "square": 4200, "logical": 4201, "disagree": 4202, "Learning": 4203, "ck@@": 4204, "Karaoke": 4205, "rush": 4206, "paste": 4207, "eve": 4208, "accustomed": 4209, "way,I": 4210, "volleyball": 4211, "interval": 4212, "determined": 4213, "sive": 4214, "suicide": 4215, "acting": 4216, "ple@@": 4217, "jokes": 4218, "temples": 4219, "analysis": 4220, "ingly": 4221, "chain": 4222, "block": 4223, "residents": 4224, "toys": 4225, "tips": 4226, "fiction": 4227, "attacked": 4228, "wishes": 4229, "Youtube": 4230, "hat": 4231, "Pi@@": 4232, "ON": 4233, "E-mail": 4234, "know@@": 4235, "though@@": 4236, "ensure": 4237, "governments": 4238, "plan@@": 4239, "Kan@@": 4240, "horror": 4241, "gen@@": 4242, "ged": 4243, "fortune": 4244, "Yesterday,I": 4245, "stadium": 4246, "sse@@": 4247, "ging": 4248, "behave": 4249, "ti": 4250, "CH@@": 4251, "refresh": 4252, "50@@": 4253, "Am": 4254, "dear": 4255, "com": 4256, "McDonald": 4257, "regarding": 4258, "Government": 4259, "Pa@@": 4260, "think@@": 4261, "relations": 4262, "fir@@": 4263, "tone": 4264, "colle@@": 4265, "yu": 4266, "basis": 4267, "doctors": 4268, "cl@@": 4269, "rac@@": 4270, "payment": 4271, "dialect": 4272, "dic@@": 4273, "constantly": 4274, "squ@@": 4275, "bride": 4276, "vote": 4277, "didnt": 4278, "t..": 4279, "coworkers": 4280, "reduced": 4281, "medi@@": 4282, "expecting": 4283, "ory": 4284, "han@@": 4285, "cheerful": 4286, "loving": 4287, "d.": 4288, ".'": 4289, "ening": 4290, "viewing": 4291, "flow": 4292, "low@@": 4293, "barely": 4294, "YouTube": 4295, "printed": 4296, "channel": 4297, "battery": 4298, "surrounded": 4299, "11@@": 4300, "cation": 4301, "11th": 4302, "brave": 4303, "seats": 4304, "fl@@": 4305, "ia": 4306, "cla@@": 4307, "cm": 4308, "Red": 4309, "informations": 4310, "ht": 4311, "thou@@": 4312, "Starbucks": 4313, "←": 4314, "pollution": 4315, "projects": 4316, "actual": 4317, "contain": 4318, "innovation": 4319, "electrical": 4320, "satisfy": 4321, "successfully": 4322, "ately": 4323, "fifth": 4324, "examinations": 4325, "vocabularies": 4326, "customs": 4327, "girl@@": 4328, "dai@@": 4329, "shift": 4330, "falls": 4331, "adjust": 4332, "continues": 4333, "decreasing": 4334, "heavily": 4335, "stressful": 4336, "mission": 4337, "struggle": 4338, "ian": 4339, "hung": 4340, "di": 4341, "titled": 4342, "commute": 4343, "ere": 4344, "den": 4345, "advertising": 4346, "IC@@": 4347, "Sen@@": 4348, "ut@@": 4349, "ll@@": 4350, "ep@@": 4351, "Autumn": 4352, "Something": 4353, "mask": 4354, "ku": 4355, "encounter": 4356, "creative": 4357, "sli@@": 4358, "routine": 4359, "suggestion": 4360, "touching": 4361, "Sun@@": 4362, "OS": 4363, "dor@@": 4364, "pretend": 4365, "bamboo": 4366, "souvenir": 4367, "Brazil": 4368, "league": 4369, "mm@@": 4370, "supported": 4371, "ound": 4372, "stairs": 4373, "stations": 4374, "Cha@@": 4375, "awkward": 4376, "physics": 4377, "chemistry": 4378, "package": 4379, "ater": 4380, "on.": 4381, "planet": 4382, "ap": 4383, "ger@@": 4384, "ble@@": 4385, "Museum": 4386, "time.": 4387, "log": 4388, "sai@@": 4389, "gun": 4390, "highschool": 4391, "measure": 4392, "vision": 4393, "sm": 4394, "shu@@": 4395, "continuing": 4396, "shorter": 4397, "readers": 4398, "motivated": 4399, "days,@@": 4400, "e..": 4401, "spots": 4402, "→": 4403, "scientists": 4404, "rely": 4405, "mysterious": 4406, "arrange": 4407, "celebrated": 4408, "admire": 4409, "windy": 4410, "unable": 4411, "efficiently": 4412, "consumption": 4413, "17@@": 4414, "Pro@@": 4415, "grateful": 4416, "EN": 4417, "bell": 4418, "din@@": 4419, "ley": 4420, "high@@": 4421, "lied": 4422, "christmas": 4423, "troublesome": 4424, "humor": 4425, "storm": 4426, "tele@@": 4427, "couples": 4428, "tics": 4429, "d,I": 4430, "Q": 4431, "mystery": 4432, "measures": 4433, "generations": 4434, "ative": 4435, "sho@@": 4436, "ise": 4437, "sleep@@": 4438, "smiled": 4439, "it..": 4440, "ing,": 4441, "Teacher": 4442, "cigarette": 4443, "belive": 4444, "time..": 4445, "Nuclear": 4446, "habits": 4447, "gla@@": 4448, "tting": 4449, "broadcasting": 4450, "amazed": 4451, "loose": 4452, "programming": 4453, "UR@@": 4454, "etc..": 4455, "Amazon": 4456, "Bhutan": 4457, "replace": 4458, "intended": 4459, "architecture": 4460, "eri@@": 4461, "blind": 4462, "organized": 4463, "mature": 4464, "bunch": 4465, "our@@": 4466, "bl@@": 4467, "burn": 4468, "Green": 4469, "google": 4470, "apologize": 4471, "singers": 4472, "Sapporo": 4473, "Shin@@": 4474, "choosing": 4475, "relief": 4476, "challenging": 4477, "ga": 4478, "annual": 4479, "part@@": 4480, "ing,I": 4481, "did't": 4482, "Chiba": 4483, "leaning": 4484, "★": 4485, "installed": 4486, "pal@@": 4487, "tran@@": 4488, "blame": 4489, "cast": 4490, "Toronto": 4491, "Ah": 4492, "funeral": 4493, "suprised": 4494, "Someday": 4495, "hamburger": 4496, "ats": 4497, "For@@": 4498, "remained": 4499, "port": 4500, "sa": 4501, "sounded": 4502, "ale": 4503, "Jap@@": 4504, "hel@@": 4505, "cough": 4506, "NHK": 4507, "Human": 4508, "tendency": 4509, "too@@": 4510, "pattern": 4511, "ced": 4512, "...@@": 4513, "plain": 4514, "ous@@": 4515, "Prefecture": 4516, "educated": 4517, "unlike": 4518, "fla@@": 4519, "photo@@": 4520, "ology": 4521, "regarded": 4522, "jacket": 4523, "hay": 4524, "acted": 4525, "teaches": 4526, "sle@@": 4527, "grandparents": 4528, "institute": 4529, "week@@": 4530, "sou@@": 4531, "ever@@": 4532, "skating": 4533, "job@@": 4534, "2004": 4535, "survey": 4536, "bomb": 4537, "quantity": 4538, "16@@": 4539, "Look": 4540, "textbooks": 4541, "pe": 4542, "scores": 4543, "homestay": 4544, "eat@@": 4545, "countryside": 4546, "--@@": 4547, "Min@@": 4548, "ori": 4549, "radioactive": 4550, "aid": 4551, "refused": 4552, "focused": 4553, "neighbors": 4554, "UN@@": 4555, "mber": 4556, "confuse": 4557, "paintings": 4558, "kinda": 4559, "cooler": 4560, "banana": 4561, "submit": 4562, "nursery": 4563, "recom@@": 4564, "IV": 4565, "separate": 4566, "jumped": 4567, "speak@@": 4568, "japan@@": 4569, "retired": 4570, "levels": 4571, "studio": 4572, "nations": 4573, "child@@": 4574, "criminal": 4575, "adapt": 4576, "kan@@": 4577, "ler@@": 4578, "asks": 4579, "destroyed": 4580, "ple": 4581, "recall": 4582, "fool": 4583, "fami@@": 4584, "strawberry": 4585, "Nara": 4586, "crowd": 4587, "AN": 4588, "of@@": 4589, "tire": 4590, "Later": 4591, "differ@@": 4592, "enemy": 4593, "foo@@": 4594, "100@@": 4595, "Music": 4596, "participants": 4597, "freshman": 4598, "devices": 4599, "lic@@": 4600, "owing": 4601, "train@@": 4602, "reference": 4603, "approximately": 4604, "comfort": 4605, "concentration": 4606, "san": 4607, "grocery": 4608, "boxes": 4609, "script": 4610, "Shinjuku": 4611, "decades": 4612, "harmful": 4613, "scheduled": 4614, "powder": 4615, "competitive": 4616, "ignore": 4617, "graphic": 4618, "treasure": 4619, "a.": 4620, "Cherry": 4621, "critical": 4622, "core": 4623, "billion": 4624, "gri@@": 4625, "counter": 4626, "choices": 4627, "onto": 4628, "automatically": 4629, "a,@@": 4630, "1,@@": 4631, "win@@": 4632, "TE@@": 4633, "proverb": 4634, "click": 4635, "allergy": 4636, "balls": 4637, "much@@": 4638, "providing": 4639, "ry@@": 4640, "beneficial": 4641, "communicating": 4642, "ide@@": 4643, "oldest": 4644, "patience": 4645, "OK@@": 4646, "However@@": 4647, "tokyo": 4648, "discrimination": 4649, "meter": 4650, "ER@@": 4651, "bodies": 4652, "surrounding": 4653, "sadness": 4654, "Winter": 4655, "'nt": 4656, "Too": 4657, "sickness": 4658, "achieved": 4659, "keyboard": 4660, "pat@@": 4661, "slight": 4662, "Britain": 4663, "0@@": 4664, "tip": 4665, "sides": 4666, "separated": 4667, "ined": 4668, "silence": 4669, "Man": 4670, "graduating": 4671, "Today,@@": 4672, "none": 4673, "ation@@": 4674, "blogs": 4675, "circumstance": 4676, "selfish": 4677, "winner": 4678, "print": 4679, "investment": 4680, "al-@@": 4681, "ouse": 4682, "stri@@": 4683, "ped": 4684, "Yo@@": 4685, "However,@@": 4686, "calendar": 4687, "31": 4688, "claim": 4689, "surveillance": 4690, "tional": 4691, "metal": 4692, "zation": 4693, "IS": 4694, "engine": 4695, "kers": 4696, "far@@": 4697, "instruments": 4698, "lion": 4699, "Honestly": 4700, "occasionally": 4701, "files": 4702, "audio": 4703, "pets": 4704, "stop@@": 4705, "mon": 4706, "grilled": 4707, "could't": 4708, "inform": 4709, "expand": 4710, "resolution": 4711, "27": 4712, "stolen": 4713, "roommates": 4714, "40@@": 4715, "thin@@": 4716, "elevator": 4717, "rhythm": 4718, "Japanese@@": 4719, "Dragon": 4720, "Listening": 4721, "℃": 4722, "dorm": 4723, "ㅠ": 4724, "shaped": 4725, "discover": 4726, "ism": 4727, "tures": 4728, "edge": 4729, "water@@": 4730, "arrested": 4731, "shining": 4732, "pra@@": 4733, "guessed": 4734, "Manga": 4735, "example,@@": 4736, "context": 4737, "1.@@": 4738, "aries": 4739, "poverty": 4740, "mother@@": 4741, "app@@": 4742, "xi@@": 4743, "read@@": 4744, "iron": 4745, "LA": 4746, "download": 4747, "7th": 4748, "vs": 4749, "emotional": 4750, "creating": 4751, "bro@@": 4752, "stream": 4753, "lar@@": 4754, "sol@@": 4755, "V": 4756, "land@@": 4757, "New@@": 4758, "candy": 4759, "delivered": 4760, "Windows": 4761, "shake": 4762, "tought": 4763, "cookies": 4764, "leaf": 4765, "occured": 4766, "long@@": 4767, "perspective": 4768, "Fi@@": 4769, "ining": 4770, "non@@": 4771, "refer": 4772, "fewer": 4773, "passengers": 4774, "sl@@": 4775, "Web": 4776, "ser": 4777, "ue": 4778, "Nothing": 4779, ",is": 4780, "gorgeous": 4781, "philosophy": 4782, "regardless": 4783, "labor": 4784, "personally": 4785, "Eventually": 4786, "ssed": 4787, "aw@@": 4788, "Little": 4789, "J": 4790, "DS": 4791, "down@@": 4792, "volunteers": 4793, "clouds": 4794, "ER": 4795, "breaking": 4796, "disappear": 4797, "Mom": 4798, "unfamiliar": 4799, "argument": 4800, "Jo@@": 4801, "Ad@@": 4802, "Meanwhile": 4803, "emotions": 4804, "St@@": 4805, "ino": 4806, "eg@@": 4807, "oven": 4808, "formed": 4809, "nu@@": 4810, "steak": 4811, "OR@@": 4812, "ghost": 4813, "tommorow": 4814, "Compared": 4815, "superior": 4816, "Koreans": 4817, "Inter@@": 4818, "entr@@": 4819, "ili@@": 4820, "drivers": 4821, "smooth": 4822, "drawn": 4823, "posi@@": 4824, "6th": 4825, "rough": 4826, "13@@": 4827, "command": 4828, "hy@@": 4829, "wr@@": 4830, ",especially": 4831, "I'@@": 4832, "breeze": 4833, "refreshed": 4834, "recession": 4835, "Among": 4836, "raising": 4837, "outdoor": 4838, "clients": 4839, "tight": 4840, "load": 4841, "ics": 4842, "Street": 4843, "characteristic": 4844, "spell": 4845, "Additionally": 4846, "intelligent": 4847, "ssi@@": 4848, "shes": 4849, "confusing": 4850, "suits": 4851, "mess": 4852, "realy": 4853, "him@@": 4854, "day..": 4855, "costume": 4856, "yama": 4857, "sunset": 4858, "ences": 4859, "Do@@": 4860, "Minister": 4861, "sm@@": 4862, "Per@@": 4863, "20th": 4864, "run@@": 4865, "Ra@@": 4866, "Christian": 4867, "deadline": 4868, "place@@": 4869, "Tom": 4870, "lang@@": 4871, "medal": 4872, "handed": 4873, "However,I": 4874, "amusement": 4875, "tai@@": 4876, "blooming": 4877, "greater": 4878, "applications": 4879, "er-@@": 4880, "specially": 4881, "invention": 4882, "exists": 4883, "offers": 4884, "visi@@": 4885, "stic": 4886, "coin": 4887, "recording": 4888, "forgive": 4889, "frozen": 4890, "worries": 4891, "achievement": 4892, "tons": 4893, "opp@@": 4894, "emp@@": 4895, "displayed": 4896, "but@@": 4897, "Poland": 4898, "wing": 4899, "good@@": 4900, "slang": 4901, ",,": 4902, "frist": 4903, "minds": 4904, "mal@@": 4905, "che": 4906, "premium": 4907, "urban": 4908, "reflect": 4909, "op": 4910, "signed": 4911, "Ten@@": 4912, "fond": 4913, "ugly": 4914, "collage": 4915, "landscape": 4916, "badminton": 4917, "first@@": 4918, "Shizuoka": 4919, "monthly": 4920, "in-@@": 4921, "sis": 4922, "conducted": 4923, "ction": 4924, "Education": 4925, "grave": 4926, "swi@@": 4927, "Ti@@": 4928, "cloths": 4929, "ared": 4930, "fre@@": 4931, "ne": 4932, "dreaming": 4933, "instructor": 4934, "bite": 4935, "kilometers": 4936, "meaningful": 4937, "BBC": 4938, "He@@": 4939, "assume": 4940, "15th": 4941, "happier": 4942, "Jackson": 4943, "shima": 4944, "Nor@@": 4945, "literally": 4946, "day.": 4947, "pepper": 4948, "begining": 4949, "boots": 4950, "now.": 4951, "picnic": 4952, "weekdays": 4953, "sentense": 4954, "surf": 4955, "ef@@": 4956, "fake": 4957, "ban": 4958, "PS": 4959, "ess": 4960, "Watching": 4961, "consecutive": 4962, "celebration": 4963, "dressed": 4964, "Shibuya": 4965, "ama@@": 4966, "intention": 4967, "vehicle": 4968, "additional": 4969, "fil@@": 4970, "Looking": 4971, "essays": 4972, "lectures": 4973, "erd": 4974, "hair@@": 4975, "spirits": 4976, "increases": 4977, "objective": 4978, "evidence": 4979, "bs": 4980, "tors": 4981, "unit": 4982, "mag@@": 4983, "mil@@": 4984, "ja@@": 4985, "mid@@": 4986, "moreover": 4987, "friends,@@": 4988, "CNN": 4989, "me,": 4990, "game@@": 4991, "snowboarding": 4992, "supporting": 4993, "val@@": 4994, "lift": 4995, "College": 4996, "Using": 4997, "cooperation": 4998, "fingers": 4999, "uk@@": 5000, "accents": 5001, "goverment": 5002, "tsu@@": 5003, "gn": 5004, "Che@@": 5005, "Prime": 5006, "burned": 5007, "belongs": 5008, "hom@@": 5009, "odd": 5010, "Wi@@": 5011, "safely": 5012, "install": 5013, "sooner": 5014, "bli@@": 5015, "ries": 5016, "twelve": 5017, "-8": 5018, "va": 5019, "broadcasted": 5020, "English,@@": 5021, "Shrine": 5022, "cs": 5023, "ung": 5024, "bun@@": 5025, "parks": 5026, "trained": 5027, "plus": 5028, "ren@@": 5029, "Ku@@": 5030, "incredible": 5031, "web@@": 5032, "collection": 5033, "lovers": 5034, "verbs": 5035, "pig": 5036, "etc.": 5037, "agent": 5038, "refuse": 5039, "admission": 5040, "combination": 5041, "ore@@": 5042, "brilliant": 5043, "dom@@": 5044, "academy": 5045, "800": 5046, "Sho@@": 5047, "Soon": 5048, "insects": 5049, "hour@@": 5050, "Indonesia": 5051, "sufficient": 5052, "worldwide": 5053, "000": 5054, "Science": 5055, "passive": 5056, "tourism": 5057, "exposed": 5058, "Jack": 5059, "tune": 5060, "ano": 5061, "holi@@": 5062, "ze@@": 5063, "clever": 5064, "si": 5065, "ly,I": 5066, ",not": 5067, "skirt": 5068, "Moscow": 5069, "je@@": 5070, "crucial": 5071, "tan@@": 5072, "carrying": 5073, "debate": 5074, "nt": 5075, "exc@@": 5076, "teenagers": 5077, "er.": 5078, "chil@@": 5079, "sofa": 5080, "time,@@": 5081, "stomachache": 5082, "SU@@": 5083, "y...": 5084, "poli@@": 5085, "bands": 5086, "atomic": 5087, "illegal": 5088, "mentally": 5089, "shooting": 5090, "9th": 5091, "joining": 5092, "Luckily": 5093, "appetite": 5094, "doll": 5095, "shouted": 5096, "stiff": 5097, "melody": 5098, "dici@@": 5099, "ageing": 5100, "cru@@": 5101, "Old": 5102, "notes": 5103, "Otherwise": 5104, "posts": 5105, "honey": 5106, "ladies": 5107, "Dear": 5108, "cuisine": 5109, "campaign": 5110, "gathering": 5111, "hur@@": 5112, "ping": 5113, "fancy": 5114, "en-@@": 5115, "pas@@": 5116, "aga@@": 5117, "Mac@@": 5118, "fan@@": 5119, "victory": 5120, "Eve": 5121, "-up": 5122, "logy": 5123, "vice": 5124, "weapons": 5125, "comparing": 5126, "Several": 5127, "absence": 5128, "professors": 5129, "10th": 5130, "gi": 5131, "potatoes": 5132, "langu@@": 5133, "camp@@": 5134, "this@@": 5135, "ipod": 5136, "fu": 5137, "hun@@": 5138, "tends": 5139, "bility": 5140, "waves": 5141, "unnecessary": 5142, "convinced": 5143, "shut": 5144, "possibly": 5145, "practise": 5146, "Eng@@": 5147, "resi@@": 5148, "oversea": 5149, "Basically": 5150, "pur@@": 5151, "microwave": 5152, "switch": 5153, "sample": 5154, "gt": 5155, "ried": 5156, "occasion": 5157, "nickname": 5158, "heared": 5159, "carrier": 5160, "silver": 5161, "que": 5162, "advised": 5163, "Company": 5164, "atory": 5165, "eness": 5166, "household": 5167, "fy": 5168, "nal": 5169, "licence": 5170, "Studying": 5171, "LE@@": 5172, "soap": 5173, "konw": 5174, "e-mails": 5175, "religious": 5176, "resource": 5177, "enable": 5178, "realised": 5179, "assignments": 5180, "pulled": 5181, "14@@": 5182, "lets": 5183, "ara": 5184, "to-@@": 5185, "Kin@@": 5186, "coast": 5187, "cer@@": 5188, "sn@@": 5189, "figures": 5190, "reserved": 5191, "ball@@": 5192, "housework": 5193, "cuz": 5194, "eel": 5195, "uni": 5196, "Shinkansen": 5197, "closely": 5198, "models": 5199, "decreased": 5200, "Center": 5201, ",for": 5202, "tail": 5203, "violence": 5204, "sions": 5205, "ind": 5206, "knife": 5207, "kick": 5208, "grandma": 5209, "fifteen": 5210, "word@@": 5211, "irritated": 5212, "twi@@": 5213, ",,,": 5214, "finance": 5215, "characteristics": 5216, "bars": 5217, "san@@": 5218, "skip": 5219, "Lu@@": 5220, "reputation": 5221, "affairs": 5222, "se,@@": 5223, "Rock": 5224, "dreamed": 5225, "tube": 5226, "facts": 5227, "Technology": 5228, "equipments": 5229, "Bi@@": 5230, "ff": 5231, "ened": 5232, "RE@@": 5233, "humidity": 5234, "pollen": 5235, "Ji@@": 5236, "moral": 5237, "29": 5238, "flies": 5239, "voc@@": 5240, "platform": 5241, "West": 5242, "kin": 5243, "vel": 5244, "attraction": 5245, "complained": 5246, "cups": 5247, "dental": 5248, "housing": 5249, "laws": 5250, "wasted": 5251, "ances": 5252, "400": 5253, "buses": 5254, "II": 5255, "Her@@": 5256, "chorus": 5257, "mas": 5258, "ank@@": 5259, "Jan@@": 5260, "list@@": 5261, "noun": 5262, "endure": 5263, "song@@": 5264, "Nagano": 5265, "operating": 5266, "invented": 5267, "pension": 5268, "harm": 5269, "stressed": 5270, "sin@@": 5271, "proposed": 5272, "deliver": 5273, "property": 5274, "diff@@": 5275, "zu": 5276, "stones": 5277, "pop@@": 5278, "accounting": 5279, "monkey": 5280, "lang8": 5281, ",what": 5282, "strangers": 5283, "gay": 5284, "pose": 5285, "comm@@": 5286, "ES@@": 5287, "meetings": 5288, "Going": 5289, "tied": 5290, "eye@@": 5291, "NZ": 5292, "English..": 5293, "maintenance": 5294, "introducing": 5295, "knee": 5296, "dness": 5297, "millions": 5298, "sexual": 5299, "alism": 5300, "ancestors": 5301, "hire": 5302, "fatigue": 5303, "inner": 5304, "cy": 5305, "dating": 5306, "tely": 5307, "chan@@": 5308, "satisfaction": 5309, "balcony": 5310, "cle@@": 5311, "Tower": 5312, "Always": 5313, "interviews": 5314, "shin@@": 5315, "Especi@@": 5316, "concerning": 5317, "wealth": 5318, "so-called": 5319, "News": 5320, "cruel": 5321, "dare": 5322, "partners": 5323, "reader": 5324, "after@@": 5325, "Sakura": 5326, "oud": 5327, "then@@": 5328, "chopsticks": 5329, "favor@@": 5330, "fund": 5331, "requested": 5332, "iting": 5333, "Tom@@": 5334, "ables": 5335, "show@@": 5336, "hesitated": 5337, "seeds": 5338, "dust": 5339, "on,@@": 5340, "invitation": 5341, "bea@@": 5342, "thankful": 5343, "Murakami": 5344, "now..": 5345, "Tsunami": 5346, "Malaysia": 5347, "existing": 5348, "processes": 5349, "legal": 5350, "tically": 5351, "pushed": 5352, "elements": 5353, "non": 5354, "yard": 5355, "advertisements": 5356, "uneasy": 5357, "mp": 5358, "River": 5359, "capacity": 5360, "delay": 5361, "discovery": 5362, "generate": 5363, "burning": 5364, "penalty": 5365, "Back": 5366, "reserve": 5367, "eing": 5368, "ami": 5369, "grammatical": 5370, "Ok": 5371, "course@@": 5372, "festivals": 5373, "belief": 5374, "rapid": 5375, "ators": 5376, "misunderstanding": 5377, "Power": 5378, "lock": 5379, "typing": 5380, "MSN": 5381, "eldest": 5382, "gue": 5383, "voices": 5384, "chilly": 5385, "bottles": 5386, "honestly": 5387, "affair": 5388, "eats": 5389, "polish": 5390, "dictionaries": 5391, "disorder": 5392, "2003": 5393, "butter": 5394, "cele@@": 5395, "summary": 5396, "by@@": 5397, "Surprisingly": 5398, "bal@@": 5399, "E-@@": 5400, "Col@@": 5401, "Taking": 5402, "shocking": 5403, "tical": 5404, "two-@@": 5405, "hostel": 5406, "EL@@": 5407, "russian": 5408, "Hollywood": 5409, "Kim": 5410, "Ｉ": 5411, "cabbage": 5412, "gloomy": 5413, "transport": 5414, ",000": 5415, "closing": 5416, "proved": 5417, "ths": 5418, "ope": 5419, "inspired": 5420, "clubs": 5421, "styles": 5422, "li": 5423, "ink": 5424, "gg@@": 5425, "sses": 5426, "interest@@": 5427, "idioms": 5428, "spea@@": 5429, "Miyazaki": 5430, "Lang8": 5431, "zu@@": 5432, "mixi": 5433, "protection": 5434, "affects": 5435, "IM@@": 5436, "Wa@@": 5437, "tun@@": 5438, "even@@": 5439, "Qu@@": 5440, "museums": 5441, "pond": 5442, "decorated": 5443, "season@@": 5444, "trash": 5445, "nd": 5446, "lyric": 5447, "an-@@": 5448, "25@@": 5449, "lacking": 5450, ",who": 5451, "cked": 5452, "musicians": 5453, "belt": 5454, "hiking": 5455, "stopping": 5456, "translating": 5457, "xD": 5458, "rainbow": 5459, "Francisco": 5460, "State": 5461, "fossil": 5462, "invest": 5463, "wheel": 5464, "ular": 5465, "serving": 5466, "mit@@": 5467, "behaviors": 5468, "Under": 5469, "representative": 5470, "RO@@": 5471, "gy": 5472, "genius": 5473, "it,@@": 5474, "AG@@": 5475, "episodes": 5476, "diar@@": 5477, "jeans": 5478, "ari": 5479, "IK@@": 5480, "harvest": 5481, "weakness": 5482, "2012": 5483, "Over": 5484, "sophisticated": 5485, "low-@@": 5486, "massive": 5487, "Air": 5488, "unbelievable": 5489, "sets": 5490, "less@@": 5491, "ara@@": 5492, "fifty": 5493, "fascinated": 5494, "writings": 5495, "heaven": 5496, "alot": 5497, "northern": 5498, "climbed": 5499, "planted": 5500, "acquaintance": 5501, "memorial": 5502, "concerns": 5503, "transferred": 5504, "whereas": 5505, "President": 5506, "Father": 5507, "muscles": 5508, "0.@@": 5509, "aside": 5510, "wished": 5511, "shaking": 5512, "vel@@": 5513, "adventure": 5514, "reception": 5515, "hug": 5516, "dessert": 5517, "ONE": 5518, "hon@@": 5519, "rushed": 5520, "Station": 5521, "Anyway,@@": 5522, "fees": 5523, "frame": 5524, "mode": 5525, "removed": 5526, "sec@@": 5527, "Vietnamese": 5528, "respond": 5529, "wasting": 5530, "Tu@@": 5531, "vol@@": 5532, "za": 5533, "regre@@": 5534, "t,": 5535, "ady": 5536, "TV@@": 5537, "waiter": 5538, "smells": 5539, "ano@@": 5540, "idol": 5541, "timing": 5542, "fication": 5543, "signs": 5544, "economical": 5545, "gratitude": 5546, "arr@@": 5547, "Book": 5548, "fellow": 5549, "organize": 5550, "Around": 5551, "Te@@": 5552, "fire@@": 5553, "mid": 5554, "niece": 5555, "Was": 5556, "danced": 5557, "ket": 5558, "Central": 5559, "NO@@": 5560, "highway": 5561, "assigned": 5562, "d...": 5563, "southern": 5564, "Or@@": 5565, "description": 5566, "Buddhist": 5567, "lon@@": 5568, "zz@@": 5569, "dge": 5570, "aquarium": 5571, "Palace": 5572, "samurai": 5573, "Kanto": 5574, "challenges": 5575, "post@@": 5576, "hearts": 5577, "symptoms": 5578, "Sha@@": 5579, "worn": 5580, "energetic": 5581, "receiving": 5582, "rest@@": 5583, "miracle": 5584, "fantasy": 5585, "example@@": 5586, ",just": 5587, "planing": 5588, "IT@@": 5589, "sy": 5590, "idiom": 5591, "YO@@": 5592, "plot": 5593, "nephew": 5594, "Akihabara": 5595, "care@@": 5596, "operate": 5597, "k-@@": 5598, "chief": 5599, "disasters": 5600, "drum": 5601, "informed": 5602, "disadvantages": 5603, "AT@@": 5604, "incorrect": 5605, "ssing": 5606, "-time": 5607, "brief": 5608, "cher": 5609, "pride": 5610, "unpleasant": 5611, "nail": 5612, "t,I": 5613, "firework": 5614, "deff@@": 5615, "parade": 5616, "veg@@": 5617, "percentage": 5618, "chips": 5619, "co-@@": 5620, "risks": 5621, "aring": 5622, "solving": 5623, "Cor@@": 5624, "bringing": 5625, "approaching": 5626, "Foreign": 5627, "Ste@@": 5628, "Fin@@": 5629, "Women": 5630, "cal": 5631, "heart@@": 5632, "uploaded": 5633, "zi@@": 5634, "wont": 5635, "Get": 5636, "side@@": 5637, "ESL": 5638, "diving": 5639, "•": 5640, "stom@@": 5641, "donate": 5642, "＾": 5643, "acts": 5644, "psychological": 5645, "deny": 5646, "2.@@": 5647, "zone": 5648, "boo@@": 5649, "guilty": 5650, "scholarship": 5651, "ban@@": 5652, "cer": 5653, "ust": 5654, "bre@@": 5655, "manners": 5656, "seller": 5657, "champion": 5658, "2-@@": 5659, "Tell": 5660, "comming": 5661, "sour": 5662, "movi@@": 5663, "praised": 5664, "jog": 5665, "Udon": 5666, "talented": 5667, "gasoline": 5668, "soci@@": 5669, "sters": 5670, "Pu@@": 5671, "bul@@": 5672, "with@@": 5673, "medicines": 5674, "oni@@": 5675, "confirmed": 5676, "ere@@": 5677, "ist": 5678, "expert": 5679, "Alice": 5680, "barbecue": 5681, "MY": 5682, "Anyways": 5683, "iced": 5684, "identity": 5685, "Living": 5686, "Lee": 5687, "homes": 5688, "expense": 5689, "producing": 5690, "ignored": 5691, "Family": 5692, "roles": 5693, "route": 5694, "draft": 5695, "tha": 5696, "pre-@@": 5697, "represents": 5698, "catching": 5699, "sen": 5700, "luckily": 5701, "pain@@": 5702, "es..": 5703, "dizzy": 5704, "now,I": 5705, "ng@@": 5706, "soaked": 5707, "procedure": 5708, "heater": 5709, "mini": 5710, "graduates": 5711, "lla": 5712, "wal@@": 5713, "wars": 5714, "TH@@": 5715, "boil": 5716, "Best": 5717, "coo@@": 5718, "hard@@": 5719, "translator": 5720, "ally,I": 5721, "crimes": 5722, "decline": 5723, "leisure": 5724, "Hotel": 5725, "33": 5726, "fashionable": 5727, "attractions": 5728, "half-@@": 5729, "hotter": 5730, "resting": 5731, "fra@@": 5732, "gender": 5733, "Study": 5734, "association": 5735, "sup@@": 5736, "scare": 5737, "co": 5738, "violent": 5739, "apparently": 5740, "yours": 5741, "gy@@": 5742, "non-native": 5743, "listen@@": 5744, "championship": 5745, "province": 5746, "dealing": 5747, "65": 5748, "applying": 5749, "shelf": 5750, "actu@@": 5751, "enthusiastic": 5752, "ben@@": 5753, "server": 5754, "praise": 5755, "apples": 5756, "sea@@": 5757, "bake": 5758, "oka": 5759, "assist": 5760, "administration": 5761, "supports": 5762, "Consequently": 5763, "Vi@@": 5764, "monitor": 5765, "enti@@": 5766, "hopefully": 5767, "tile": 5768, "fitness": 5769, "soldiers": 5770, "lan@@": 5771, "ski@@": 5772, "ould": 5773, "insisted": 5774, "exception": 5775, "HA@@": 5776, "ough": 5777, "childish": 5778, "hardest": 5779, "lively": 5780, "tale": 5781, "runny": 5782, "First@@": 5783, "shrines": 5784, "tragedy": 5785, "demands": 5786, "physically": 5787, "Ministry": 5788, "prison": 5789, "hear@@": 5790, "cing": 5791, "homeless": 5792, "winning": 5793, "nightmare": 5794, "pressed": 5795, "Chicago": 5796, "Working": 5797, "Mc@@": 5798, "keen": 5799, "kiss": 5800, "HO@@": 5801, "NOT": 5802, "comprehension": 5803, "confortable": 5804, "belly": 5805, "food@@": 5806, "Mexican": 5807, "nutrition": 5808, "hospitals": 5809, "sources": 5810, "cent@@": 5811, "sharp": 5812, "Indeed": 5813, "merely": 5814, "detailed": 5815, "dent": 5816, "foundation": 5817, "input": 5818, "destroy": 5819, "mou@@": 5820, "ah": 5821, "Business": 5822, "bay": 5823, "fish@@": 5824, "expe@@": 5825, "wooden": 5826, "ridiculous": 5827, "desi@@": 5828, "lottery": 5829, "snowboard": 5830, "Chernobyl": 5831, "guard": 5832, "tension": 5833, "techniques": 5834, "technological": 5835, "ici@@": 5836, "deci@@": 5837, "soil": 5838, "chest": 5839, "LO@@": 5840, "conscious": 5841, "Mary": 5842, "ana": 5843, "stared": 5844, "Anime": 5845, "majoring": 5846, "quarrel": 5847, "waist": 5848, "seafood": 5849, "shopp@@": 5850, "---": 5851, "lean": 5852, "Kamakura": 5853, "sumo": 5854, "conduct": 5855, "le-@@": 5856, "ination": 5857, "collected": 5858, "damages": 5859, "tuition": 5860, "victim": 5861, "no-@@": 5862, "tat@@": 5863, "false": 5864, "boom": 5865, "murder": 5866, "Talking": 5867, "recommendation": 5868, "thunder": 5869, "roses": 5870, "Seattle": 5871, "hurts": 5872, "Hot": 5873, "fori@@": 5874, ",even": 5875, "that,I": 5876, "ho": 5877, "Native": 5878, "Put": 5879, "Dai@@": 5880, "seniors": 5881, "backed": 5882, "generated": 5883, "partly": 5884, "enormous": 5885, "vehicles": 5886, "numerous": 5887, "Give": 5888, "sty": 5889, "continu@@": 5890, "ranking": 5891, "root": 5892, "sells": 5893, "SH@@": 5894, "money@@": 5895, "atu@@": 5896, "announcement": 5897, "moun@@": 5898, "dan@@": 5899, "grad": 5900, "travel@@": 5901, "od": 5902, "sentenses": 5903, "yummy": 5904, "dull": 5905, "Haruki": 5906, "mo": 5907, "Niigata": 5908, "Kimono": 5909, "Bangkok": 5910, "alization": 5911, "steam": 5912, "claimed": 5913, "determine": 5914, "species": 5915, "cleaner": 5916, "civil": 5917, "compete": 5918, "enthusiasm": 5919, "associate": 5920, "complaining": 5921, "reci@@": 5922, "Sal@@": 5923, "sunlight": 5924, "blow": 5925, "test@@": 5926, "flew": 5927, "farmer": 5928, "fascinating": 5929, "Make": 5930, "hood": 5931, "university@@": 5932, "lit@@": 5933, ",,@@": 5934, "Then@@": 5935, "poster": 5936, "fur@@": 5937, "oo": 5938, "Blue": 5939, "rumor": 5940, "socks": 5941, "2002": 5942, "researches": 5943, "stated": 5944, "inv@@": 5945, "ase": 5946, "motor": 5947, "innocent": 5948, "qui@@": 5949, "150": 5950, "fare": 5951, "occupation": 5952, "ele@@": 5953, "Ru@@": 5954, "beatiful": 5955, "charm": 5956, "Mu@@": 5957, "Becouse": 5958, "summ@@": 5959, "pole": 5960, "rented": 5961, "Japan.": 5962, "Recently@@": 5963, "radi@@": 5964, "reliable": 5965, "vital": 5966, "err@@": 5967, "luxury": 5968, "s'": 5969, "hopes": 5970, "punishment": 5971, "scientist": 5972, "3-@@": 5973, "consist": 5974, "farmers": 5975, "observe": 5976, "Making": 5977, "Typhoon": 5978, "Tai@@": 5979, "waking": 5980, "alphabet": 5981, "ney": 5982, "aloud": 5983, "cartoons": 5984, "shadow": 5985, "grand@@": 5986, "kai": 5987, "beers": 5988, "Kindle": 5989, "exchanged": 5990, "lled": 5991, "Parents": 5992, "alized": 5993, "ft": 5994, "nursing": 5995, "Currently": 5996, "fiscal": 5997, "worthy": 5998, "CEO": 5999, "bit@@": 6000, "opponent": 6001, "curiosity": 6002, "real@@": 6003, "atten@@": 6004, "MA@@": 6005, "goodbye": 6006, "booked": 6007, "scent": 6008, "Anyway,I": 6009, ",000yen": 6010, "Beatles": 6011, "infrastructure": 6012, "researchers": 6013, "injury": 6014, "experiments": 6015, "consumers": 6016, "fle@@": 6017, "delayed": 6018, "quarter": 6019, "hotels": 6020, "cks": 6021, "ads": 6022, "repeated": 6023, "DO": 6024, "shout": 6025, "today.": 6026, "aka": 6027, ",as": 6028, "bath@@": 6029, "Ichiro": 6030, "Narita": 6031, "capable": 6032, "accurate": 6033, "matches": 6034, "continuous": 6035, "crossing": 6036, "requirement": 6037, "firstly": 6038, "industrial": 6039, "lin@@": 6040, "hidden": 6041, "tar@@": 6042, "_@@": 6043, "illustration": 6044, "fast@@": 6045, "publish": 6046, "arriving": 6047, "que@@": 6048, "monster": 6049, "Really": 6050, "Ju@@": 6051, "une": 6052, "ballet": 6053, "productive": 6054, "lens": 6055, "dramatically": 6056, "ST@@": 6057, "interior": 6058, "ingredient": 6059, "Times": 6060, "respected": 6061, "Social": 6062, "Thinking": 6063, "Tak@@": 6064, "lling": 6065, "settled": 6066, "len@@": 6067, "se.": 6068, "'The": 6069, "ature": 6070, "headed": 6071, "tofu": 6072, "burger": 6073, "expressing": 6074, "organic": 6075, "soba": 6076, "extend": 6077, "tender": 6078, "focusing": 6079, "cope": 6080, "assi@@": 6081, "indicates": 6082, "supermarkets": 6083, "conflict": 6084, "2,@@": 6085, "swing": 6086, "yuan": 6087, "ham": 6088, "donation": 6089, "convey": 6090, "charming": 6091, "aple": 6092, "ress": 6093, "bu": 6094, "troubled": 6095, "Never": 6096, "charac@@": 6097, "blu@@": 6098, "couse": 6099, "ceiling": 6100, "Ga@@": 6101, "launched": 6102, "tch": 6103, "cells": 6104, "politicians": 6105, "fired": 6106, "contained": 6107, "attach": 6108, "suggestions": 6109, "bab@@": 6110, "overnight": 6111, "spo@@": 6112, "phi@@": 6113, "heritage": 6114, "att@@": 6115, "mid-@@": 6116, "ata": 6117, "bo": 6118, "bla@@": 6119, "erday": 6120, "throwing": 6121, "Arabic": 6122, "nuts": 6123, "burst": 6124, "picture@@": 6125, "language@@": 6126, "14th": 6127, "vacations": 6128, "jumping": 6129, "these@@": 6130, "division": 6131, "restr@@": 6132, "NYC": 6133, "infected": 6134, "internal": 6135, "controlled": 6136, "supp@@": 6137, "seeking": 6138, "proof": 6139, "remaining": 6140, "lab@@": 6141, "ak": 6142, "memorizing": 6143, "actively": 6144, "absorbed": 6145, "appeal": 6146, "IR@@": 6147, "universe": 6148, "gradu@@": 6149, "posting": 6150, "o.": 6151, "praying": 6152, "fru@@": 6153, "CM": 6154, "statue": 6155, "bowling": 6156, "Because@@": 6157, "ome": 6158, "reducing": 6159, "deeper": 6160, "hence": 6161, "directed": 6162, "Whether": 6163, "Bri@@": 6164, "rep@@": 6165, "admitted": 6166, "break@@": 6167, "mers": 6168, "Sp@@": 6169, "motion": 6170, "visual": 6171, "exp@@": 6172, "Cu@@": 6173, "fairy": 6174, "cking": 6175, "picking": 6176, "border": 6177, "certificate": 6178, "Whatever": 6179, ",or": 6180, "s,so": 6181, "marri@@": 6182, "Buddhism": 6183, "sexy": 6184, "IG@@": 6185, "terribly": 6186, "25th": 6187, "continuously": 6188, "carbon": 6189, "Lastly": 6190, "Star": 6191, "attempt": 6192, "grows": 6193, "insi@@": 6194, "liquid": 6195, "puts": 6196, "Z": 6197, "honor": 6198, "woods": 6199, "8th": 6200, "Things": 6201, "Fri@@": 6202, "biology": 6203, "sings": 6204, "omi@@": 6205, "shine": 6206, "Pacific": 6207, "A-@@": 6208, "worm": 6209, "shoud": 6210, "Emperor": 6211, "carrot": 6212, "shool": 6213, "Weather": 6214, "blackout": 6215, "adopt": 6216, "decent": 6217, "designing": 6218, "folk": 6219, "Sun": 6220, "respectively": 6221, "prop@@": 6222, "slide": 6223, "Ci@@": 6224, "accomplish": 6225, "Hopefully": 6226, "inj@@": 6227, "Can@@": 6228, "makeup": 6229, "pie": 6230, "chin@@": 6231, "tives": 6232, "freind": 6233, "eleven": 6234, "however@@": 6235, "wir@@": 6236, "breads": 6237, "cooker": 6238, "Diary": 6239, "udon": 6240, "short@@": 6241, "emperor": 6242, "recovery": 6243, "tations": 6244, "discussing": 6245, "warning": 6246, "pour": 6247, "fought": 6248, "comfortably": 6249, "ance@@": 6250, "Professor": 6251, "sk": 6252, "Imperial": 6253, "aki": 6254, "Game": 6255, "Anyone": 6256, "tuna": 6257, "wo@@": 6258, "NBA": 6259, "homepage": 6260, "calories": 6261, "guit@@": 6262, "violin": 6263, "JAPAN": 6264, "Earthquake": 6265, "so,I": 6266, "Tokyo@@": 6267, "rank": 6268, "Fe@@": 6269, "qualification": 6270, "adding": 6271, "I-@@": 6272, "nest": 6273, "ach": 6274, "reli@@": 6275, "ws": 6276, "creatures": 6277, "present@@": 6278, "writers": 6279, "bullet": 6280, "haircut": 6281, "regretted": 6282, "SO@@": 6283, "Lady": 6284, "puzzle": 6285, "camping": 6286, "hahaha": 6287, "chapter": 6288, "company@@": 6289, "commit": 6290, "decisions": 6291, "tively": 6292, "History": 6293, "ess@@": 6294, "MO@@": 6295, "tro@@": 6296, "concrete": 6297, "AI": 6298, "granted": 6299, "represent": 6300, "crea@@": 6301, "establish": 6302, "passes": 6303, "gen": 6304, "hers": 6305, "Needless": 6306, "reason@@": 6307, "Try": 6308, "Young": 6309, "ING": 6310, "justice": 6311, "cafeteria": 6312, "Chin@@": 6313, "splendid": 6314, "yeah": 6315, "blanket": 6316, "baggage": 6317, "ake": 6318, "Ueno": 6319, "ky@@": 6320, "Miyagi": 6321, "hangover": 6322, "associated": 6323, "ose": 6324, "There@@": 6325, "necessarily": 6326, "commonly": 6327, "gn@@": 6328, "pursue": 6329, "boiling": 6330, "locked": 6331, "lier": 6332, "option": 6333, "flood": 6334, "extreme": 6335, "founded": 6336, "gur@@": 6337, "Bar@@": 6338, "writes": 6339, "ships": 6340, "lec@@": 6341, "teenager": 6342, "rang": 6343, "sar@@": 6344, "bothered": 6345, "Hon@@": 6346, "misunderstand": 6347, "Holiday": 6348, "exam@@": 6349, "opera": 6350, "caf": 6351, "alway": 6352, "free@@": 6353, "cho": 6354, "unity": 6355, "Gen@@": 6356, "designs": 6357, "conventional": 6358, "600": 6359, "eas@@": 6360, "multiple": 6361, "wherever": 6362, "bonus": 6363, "shapes": 6364, "serves": 6365, "comedian": 6366, "la": 6367, "divide": 6368, "coins": 6369, "tel": 6370, "Men": 6371, "fer": 6372, "Ge@@": 6373, "regi@@": 6374, "beca@@": 6375, "nails": 6376, "freinds": 6377, "sty@@": 6378, "'cause": 6379, "workshop": 6380, "aims": 6381, "chip": 6382, "purposes": 6383, "iled": 6384, "centre": 6385, "conclude": 6386, "criminals": 6387, "flexible": 6388, "zero": 6389, "---@@": 6390, "Egypt": 6391, "tomorrow@@": 6392, "animations": 6393, "Chinese@@": 6394, "pron@@": 6395, "bass": 6396, "poems": 6397, "it,I": 6398, "Polish": 6399, "pc": 6400, "Lake": 6401, "railway": 6402, "portable": 6403, "experts": 6404, "Water": 6405, "sandwich": 6406, "We@@": 6407, "loc@@": 6408, "contribution": 6409, ",000@@": 6410, "stru@@": 6411, "future@@": 6412, "walls": 6413, "AD@@": 6414, "hey": 6415, "NO": 6416, "shirts": 6417, "heroine": 6418, "pal": 6419, "turtle": 6420, "Ryoma": 6421, "stuffed": 6422, "strike": 6423, "dra@@": 6424, "elders": 6425, "awareness": 6426, "banned": 6427, "question@@": 6428, "controversial": 6429, "strictly": 6430, "researcher": 6431, "miles": 6432, "replaced": 6433, "intelligence": 6434, "lend": 6435, "Mer@@": 6436, "shoulders": 6437, "Yoga": 6438, "Fa@@": 6439, "defeated": 6440, "Sy@@": 6441, "complaint": 6442, "pronounciation": 6443, "foolish": 6444, "faith": 6445, "exited": 6446, "enter@@": 6447, "swee@@": 6448, "English,I": 6449, "corn": 6450, "T_T": 6451, "panic": 6452, "rom@@": 6453, "Kou@@": 6454, "identify": 6455, "estate": 6456, "expenditure": 6457, "funding": 6458, "em@@": 6459, "cy@@": 6460, "engaged": 6461, "caring": 6462, "formation": 6463, "300@@": 6464, "Airport": 6465, "sword": 6466, "nationality": 6467, "lunar": 6468, "have@@": 6469, "Girls": 6470, "Oh@@": 6471, "day,": 6472, "mosquito": 6473, "vocal": 6474, "ack": 6475, "assistance": 6476, "minor": 6477, "Job": 6478, "5-@@": 6479, "underground": 6480, "occurs": 6481, "tires": 6482, "Ja@@": 6483, "stra@@": 6484, "graph": 6485, "Paul": 6486, "Miss": 6487, "prince": 6488, "seri@@": 6489, "y,but": 6490, "spaghetti": 6491, "bussiness": 6492, "orchestra": 6493, "swam": 6494, "Buddha": 6495, "output": 6496, "em": 6497, "evaluate": 6498, "accidentally": 6499, "maximum": 6500, "CO@@": 6501, "tables": 6502, "Fr@@": 6503, "hal@@": 6504, "award": 6505, "fist": 6506, "Feb": 6507, "steady": 6508, "manual": 6509, "Latin": 6510, "aggressive": 6511, "like@@": 6512, "logic": 6513, "chan": 6514, "recently@@": 6515, "glance": 6516, "lecturer": 6517, "Roppongi": 6518, "mochi": 6519, "Obon": 6520, "moves": 6521, "Health": 6522, ".com": 6523, "outstanding": 6524, "Four": 6525, "reveal": 6526, "wireless": 6527, "positions": 6528, "driven": 6529, "loneliness": 6530, "minimum": 6531, "forces": 6532, "tap": 6533, "Surely": 6534, "Olympics": 6535, "visitor": 6536, "tiger": 6537, "quietly": 6538, "natives": 6539, "shir@@": 6540, "Sky": 6541, "bag@@": 6542, "pencil": 6543, "before@@": 6544, "supervisor": 6545, "blank": 6546, "oes": 6547, "Wish": 6548, "spr@@": 6549, "○": 6550, "Sumo": 6551, "BO@@": 6552, "proposal": 6553, "heating": 6554, "sticks": 6555, "options": 6556, "analyze": 6557, "Toyota": 6558, "tant": 6559, "fec@@": 6560, "ra": 6561, "st-@@": 6562, "heal": 6563, "laid": 6564, "darkness": 6565, "AL": 6566, ",to": 6567, "cel@@": 6568, "tou@@": 6569, "vivid": 6570, ".......": 6571, "choo@@": 6572, "SE@@": 6573, "DA@@": 6574, "breathe": 6575, "audiences": 6576, "convini@@": 6577, "Samurai": 6578, "acceptable": 6579, "zes": 6580, "SP@@": 6581, "Certainly": 6582, "Rice": 6583, "jun@@": 6584, "launch": 6585, "trips": 6586, "comparison": 6587, "killer": 6588, "Yahoo": 6589, "ture@@": 6590, "desert": 6591, "performances": 6592, "Greek": 6593, "Above": 6594, "returning": 6595, "surpri@@": 6596, "Jesus": 6597, "bat": 6598, "wonder@@": 6599, "SO": 6600, "QQ": 6601, "concerts": 6602, "Snow": 6603, "12th": 6604, "dent@@": 6605, "liquor": 6606, "ago,I": 6607, "Takoyaki": 6608, "cont@@": 6609, "retire": 6610, "UM@@": 6611, "24@@": 6612, "slip": 6613, "comple@@": 6614, "3.@@": 6615, "earned": 6616, "Home": 6617, "jet": 6618, "cap": 6619, "consult": 6620, "relate": 6621, "Keep": 6622, "cow": 6623, "mails": 6624, "lid": 6625, "auction": 6626, "unlucky": 6627, "jealous": 6628, "sadly": 6629, "freezing": 6630, "certification": 6631, "bakery": 6632, "Hiragana": 6633, "Meiji": 6634, "Kanagawa": 6635, "Yen": 6636, "objects": 6637, "bills": 6638, "investigation": 6639, "factories": 6640, "printer": 6641, "lowest": 6642, "fuels": 6643, "Boston": 6644, "cameras": 6645, "decade": 6646, "secondary": 6647, "practices": 6648, "confi@@": 6649, "cared": 6650, "trading": 6651, "zy": 6652, "beauti@@": 6653, "sity": 6654, "colour": 6655, "th,@@": 6656, "Actually,I": 6657, "name@@": 6658, "shit": 6659, "Everytime": 6660, "garlic": 6661, "yogurt": 6662, "er,": 6663, "scor@@": 6664, "snowed": 6665, "bathtub": 6666, "00am": 6667, "implemented": 6668, "safer": 6669, "overall": 6670, "welcomed": 6671, "ils": 6672, "principle": 6673, "harsh": 6674, "anti@@": 6675, "collecting": 6676, "facility": 6677, "mean@@": 6678, "feedback": 6679, "swine": 6680, "principal": 6681, "announce": 6682, "cour@@": 6683, "inconvenient": 6684, "ene@@": 6685, "mins": 6686, "march": 6687, "decorate": 6688, "salty": 6689, "Ok@@": 6690, "Doctor": 6691, "Somebody": 6692, "hehe": 6693, "well..": 6694, "misunderstood": 6695, "impre@@": 6696, "p.m": 6697, "explosion": 6698, "distant": 6699, "AC@@": 6700, "Tri@@": 6701, "2001": 6702, "managers": 6703, "qualified": 6704, "relieve": 6705, "def@@": 6706, "sation": 6707, "therapy": 6708, "Computer": 6709, "ically": 6710, "deserve": 6711, "politician": 6712, "stops": 6713, "mber@@": 6714, "leaders": 6715, "brea@@": 6716, "Getting": 6717, "modify": 6718, "spreading": 6719, "Gi@@": 6720, "Netherlands": 6721, "500@@": 6722, "help@@": 6723, "moments": 6724, "barber": 6725, "sil@@": 6726, "ce,@@": 6727, "minu@@": 6728, "Haha": 6729, "cherish": 6730, "Incidentally": 6731, "naked": 6732, ",Japan": 6733, "Saitama": 6734, "Generation": 6735, "concepts": 6736, "thy": 6737, "import": 6738, "Food": 6739, "nic@@": 6740, "disc@@": 6741, "solid": 6742, "Office": 6743, "ell@@": 6744, "vending": 6745, "60@@": 6746, "offering": 6747, "cancel": 6748, "signal": 6749, "ID@@": 6750, "charity": 6751, "berry": 6752, "harmony": 6753, "eng": 6754, "blo@@": 6755, "adi@@": 6756, "AND": 6757, "exchanging": 6758, "embarrassing": 6759, "breathing": 6760, "careless": 6761, "countr@@": 6762, "that.": 6763, "witch": 6764, "24th": 6765, "priest": 6766, "ly..": 6767, "encouraging": 6768, "El@@": 6769, "fulfill": 6770, "backs": 6771, "Thirdly": 6772, "communications": 6773, "explore": 6774, "ill@@": 6775, "devi@@": 6776, "thrown": 6777, "45@@": 6778, "ol": 6779, "sized": 6780, "repeatedly": 6781, "Microsoft": 6782, "temper@@": 6783, "obey": 6784, "fav@@": 6785, "ily": 6786, "Main": 6787, "tent": 6788, "Okay": 6789, "junk": 6790, "rear": 6791, "enjoyment": 6792, "has@@": 6793, "recieved": 6794, "oko": 6795, "Japanease": 6796, "so,@@": 6797, "productivity": 6798, "rates": 6799, "contributed": 6800, "ES": 6801, "entirely": 6802, "newly": 6803, "appreciation": 6804, "mm": 6805, "tank": 6806, "fairly": 6807, "races": 6808, "ssion": 6809, "breast": 6810, "AB@@": 6811, "Philippine": 6812, "Ya@@": 6813, "propose": 6814, "Los": 6815, "motivate": 6816, "tweet": 6817, "Ireland": 6818, "tan": 6819, "me,I": 6820, "love@@": 6821, "celebrating": 6822, "itchy": 6823, "blowing": 6824, "explanations": 6825, "ako": 6826, "3days": 6827, "Sure": 6828, "cource": 6829, "ichi": 6830, "patterns": 6831, "Public": 6832, "existed": 6833, "presence": 6834, "tory": 6835, "steel": 6836, "permission": 6837, "Beside": 6838, "famili@@": 6839, "fundamental": 6840, "Wikipedia": 6841, "top@@": 6842, "last@@": 6843, "lasted": 6844, "indicate": 6845, "bas@@": 6846, "realistic": 6847, "tiv@@": 6848, "cooperate": 6849, "Je@@": 6850, "mic": 6851, "Final": 6852, "dining": 6853, "princess": 6854, "hairstyle": 6855, "again@@": 6856, "majored": 6857, "Night": 6858, "departure": 6859, "swe@@": 6860, "lent": 6861, "snake": 6862, "chef": 6863, "islands": 6864, "natto": 6865, "workforce": 6866, "symptom": 6867, "examine": 6868, "frequent": 6869, "art@@": 6870, "rolled": 6871, "fli@@": 6872, "90@@": 6873, "escaped": 6874, "truck": 6875, "vent": 6876, "orders": 6877, "ass": 6878, "delighted": 6879, "temper": 6880, "mild": 6881, "LOL": 6882, "awa@@": 6883, "Then,I": 6884, "er..": 6885, "English-@@": 6886, "jo": 6887, "athletic": 6888, "Singaporean": 6889, "resulted": 6890, "employers": 6891, "statistics": 6892, "meets": 6893, "savings": 6894, "ands": 6895, "9.@@": 6896, "colleges": 6897, "angle": 6898, "remarkable": 6899, "broad": 6900, "pped": 6901, "bow": 6902, "corporation": 6903, "Academy": 6904, "gray": 6905, "ort@@": 6906, "m-@@": 6907, "Frankly": 6908, "commuting": 6909, "perfume": 6910, "dar@@": 6911, "flag": 6912, "time,": 6913, "chang@@": 6914, "bears": 6915, "Jazz": 6916, ",maybe": 6917, "fic@@": 6918, "Friend": 6919, "exiting": 6920, "podcast": 6921, "liver": 6922, "flash": 6923, "slim": 6924, "URL": 6925, "Shinto": 6926, "plum": 6927, "year-end": 6928, "English,but": 6929, "physi@@": 6930, "extended": 6931, "doors": 6932, "robots": 6933, "exposure": 6934, "mom@@": 6935, "gener@@": 6936, "bir@@": 6937, "liv@@": 6938, "Unlike": 6939, "smo@@": 6940, "Years": 6941, "Age": 6942, "els": 6943, "wanting": 6944, "itted": 6945, "imported": 6946, "snowy": 6947, "cell-phone": 6948, "Story": 6949, "ginger": 6950, "too.": 6951, "flat@@": 6952, "towel": 6953, "skill@@": 6954, "onions": 6955, "Girl": 6956, "Castle": 6957, "shu": 6958, "Ginza": 6959, "coal": 6960, "CPF": 6961, "abuse": 6962, "passenger": 6963, "vast": 6964, "Tra@@": 6965, "long-term": 6966, "titles": 6967, "cents": 6968, "Department": 6969, "Land": 6970, "ligh@@": 6971, "contemporary": 6972, "AR": 6973, "regions": 6974, "owned": 6975, "revolution": 6976, "IC": 6977, "pains": 6978, "struck": 6979, "arian": 6980, "hitting": 6981, "/www.@@": 6982, "recomm@@": 6983, "beli@@": 6984, "Sud@@": 6985, "Queen": 6986, "Bible": 6987, "dream@@": 6988, "site@@": 6989, "salmon": 6990, "sorrow": 6991, "hip": 6992, "drums": 6993, "13th": 6994, "becasue": 6995, "ju": 6996, "definition": 6997, "causing": 6998, "innovations": 6999, "eli@@": 7000, "necessity": 7001, "Electric": 7002, "enables": 7003, "6.@@": 7004, "holds": 7005, "Mor@@": 7006, "alist": 7007, "creature": 7008, "prohibited": 7009, "direc@@": 7010, "ish": 7011, "Help": 7012, "yc@@": 7013, "Nagasaki": 7014, "records": 7015, "scar@@": 7016, "19th": 7017, "health@@": 7018, "Gar@@": 7019, "surprisingly": 7020, "agreement": 7021, "Moon": 7022, "pho@@": 7023, "miserable": 7024, "nom@@": 7025, "hoo@@": 7026, "explaining": 7027, "study@@": 7028, "consisted": 7029, "cious": 7030, ",one": 7031, "smiles": 7032, "coz": 7033, "peculiar": 7034, "mai@@": 7035, "sigh": 7036, "host@@": 7037, "ura": 7038, "Temple": 7039, "ect": 7040, "yaki": 7041, "sector": 7042, "consequence": 7043, "tal": 7044, "taxes": 7045, "System": 7046, "random": 7047, "anti-@@": 7048, "briefly": 7049, "tag": 7050, "unfair": 7051, "Write": 7052, "Plus": 7053, "specialist": 7054, "han": 7055, "swa@@": 7056, "Up": 7057, "lane": 7058, "Sou@@": 7059, "bon@@": 7060, "longest": 7061, "1-@@": 7062, "calorie": 7063, "uri@@": 7064, "sha": 7065, "mistake@@": 7066, "craft": 7067, "meats": 7068, "eds": 7069, "Turkey": 7070, "today,I": 7071, "feel@@": 7072, "becuase": 7073, "on..": 7074, "disgusting": 7075, "-san": 7076, "dumpling": 7077, "Soba": 7078, "sashimi": 7079, "Du@@": 7080, "young@@": 7081, "makers": 7082, "aps": 7083, "Vegas": 7084, "ude": 7085, "depre@@": 7086, "sor@@": 7087, "concentrated": 7088, "phone@@": 7089, "lenses": 7090, "African": 7091, "opens": 7092, "parent@@": 7093, "AP@@": 7094, "elec@@": 7095, "tual": 7096, "refreshing": 7097, "blew": 7098, "delicate": 7099, "rescue": 7100, "ast@@": 7101, "candidates": 7102, "cit@@": 7103, "Games": 7104, "mony": 7105, "repaired": 7106, "gro@@": 7107, "lun@@": 7108, "dragon": 7109, "could@@": 7110, "divorce": 7111, "greet": 7112, "watermelon": 7113, "toast": 7114, "sheep": 7115, "thai": 7116, "ki-@@": 7117, "Aichi": 7118, "futon": 7119, "ancestor": 7120, "industries": 7121, "roughly": 7122, "shell": 7123, "inspiration": 7124, "explo@@": 7125, "ray": 7126, "700": 7127, "forgetting": 7128, "reward": 7129, "twin": 7130, "elegant": 7131, "Hir@@": 7132, "GO@@": 7133, "Club": 7134, "talkative": 7135, "somethings": 7136, "prayed": 7137, "floating": 7138, "reunion": 7139, "Okonomiyaki": 7140, "non-Japanese": 7141, "year-old": 7142, "ratio": 7143, "wins": 7144, "wed": 7145, "ita": 7146, "owners": 7147, "Las": 7148, "disp@@": 7149, "gran@@": 7150, "excitement": 7151, "ets": 7152, "criticized": 7153, "experi@@": 7154, "duce": 7155, "glo@@": 7156, "18th": 7157, "fold": 7158, "virtual": 7159, "suc@@": 7160, "mere": 7161, "acc@@": 7162, "George": 7163, "desperate": 7164, "follow@@": 7165, "Recent": 7166, "offices": 7167, "documentary": 7168, "sincerely": 7169, "genre": 7170, "connecting": 7171, "le.": 7172, "emails": 7173, "alcoholic": 7174, "did@@": 7175, "intersting": 7176, "sof@@": 7177, "kit@@": 7178, "oku": 7179, "↓": 7180, "meaningless": 7181, "defense": 7182, "hydrogen": 7183, "Gr@@": 7184, "bly": 7185, "consumer": 7186, "General": 7187, "tremendous": 7188, "mini@@": 7189, "bac@@": 7190, "cent": 7191, "pin@@": 7192, "8.@@": 7193, "strategies": 7194, "aimed": 7195, "observation": 7196, "HI@@": 7197, "vy": 7198, "abstract": 7199, "cable": 7200, "describes": 7201, "checkup": 7202, "filling": 7203, "Nintendo": 7204, "Tha@@": 7205, "hottest": 7206, "Don@@": 7207, "messy": 7208, "Math": 7209, "mess@@": 7210, "apo@@": 7211, "interpreter": 7212, "Today@@": 7213, "luggage": 7214, "music@@": 7215, "tion.": 7216, "Busan": 7217, "Democratic": 7218, "scolded": 7219, "Tomoko": 7220, "micro@@": 7221, "estimated": 7222, "significantly": 7223, "bound": 7224, "secure": 7225, "vers": 7226, "artificial": 7227, "markets": 7228, "EC@@": 7229, "32": 7230, "specialized": 7231, "tain": 7232, "dation": 7233, "ues": 7234, "qualities": 7235, "St": 7236, "wee@@": 7237, "sport@@": 7238, "cellular": 7239, "lic": 7240, "ing...": 7241, "bedroom": 7242, "nor@@": 7243, "Ton@@": 7244, "joyful": 7245, "runners": 7246, "pronunciations": 7247, "tin@@": 7248, "Yama@@": 7249, "shi-@@": 7250, "attendant": 7251, "app": 7252, "ambulance": 7253, "Android": 7254, "immigrants": 7255, "emphasis": 7256, "21st": 7257, "drops": 7258, "predict": 7259, "reluctant": 7260, "split": 7261, "resist": 7262, "belonging": 7263, "tested": 7264, "influences": 7265, "sacrifice": 7266, "covers": 7267, "rejected": 7268, "combined": 7269, "structures": 7270, "On@@": 7271, "evaluation": 7272, "pit@@": 7273, "influenza": 7274, "Cri@@": 7275, "differ": 7276, "endless": 7277, "hor@@": 7278, "settle": 7279, "30th": 7280, "tle": 7281, "recipes": 7282, "au": 7283, "sw@@": 7284, "electronics": 7285, "log@@": 7286, "confusion": 7287, "__": 7288, "OO@@": 7289, "sau@@": 7290, "Originally": 7291, "ite@@": 7292, "stew": 7293, "agi": 7294, "limitation": 7295, "OM@@": 7296, "Work": 7297, "dered": 7298, "wind@@": 7299, "Nan@@": 7300, "Somehow": 7301, "sia": 7302, "key@@": 7303, "arrangement": 7304, "Mark": 7305, "sympathy": 7306, "Wii": 7307, "moto": 7308, "kon@@": 7309, "Seeing": 7310, "Town": 7311, "painter": 7312, "guns": 7313, "enroll": 7314, "bench": 7315, "bou@@": 7316, "towns": 7317, "s,the": 7318, "Of@@": 7319, ",do": 7320, "tomatoes": 7321, "bod@@": 7322, "purple": 7323, "fic": 7324, "insect": 7325, "Speci@@": 7326, "clu@@": 7327, "wives": 7328, "puppy": 7329, "trick": 7330, "merit": 7331, "tiredness": 7332, "scool": 7333, "sliced": 7334, "ｓ": 7335, "cosmetic": 7336, "initial": 7337, "ero@@": 7338, "oriented": 7339, "gambling": 7340, "abandoned": 7341, "constant": 7342, "conservative": 7343, "gin": 7344, "Dr": 7345, "eastern": 7346, "sla@@": 7347, "seed": 7348, "doc@@": 7349, "foot@@": 7350, "authors": 7351, "dances": 7352, "steadily": 7353, "pod": 7354, "'the": 7355, "Think": 7356, "wow": 7357, "palace": 7358, "bitten": 7359, "wheat": 7360, "rope": 7361, "red@@": 7362, "BTW": 7363, "lemon": 7364, "lined": 7365, "suke": 7366, "anda": 7367, "saki": 7368, "Kagoshima": 7369, "Enlish": 7370, "gas@@": 7371, "conver@@": 7372, "Bur@@": 7373, "bio@@": 7374, "poured": 7375, "cement": 7376, "dies": 7377, "ence@@": 7378, "yer": 7379, "precisely": 7380, "ald": 7381, "observed": 7382, "prob@@": 7383, "plates": 7384, "ts@@": 7385, "bers": 7386, "alright": 7387, "um@@": 7388, "legend": 7389, "hunt": 7390, "life.": 7391, "Secon@@": 7392, "Grammar": 7393, "cookie": 7394, "Tsu@@": 7395, "poor@@": 7396, "suck": 7397, "boxing": 7398, "examined": 7399, "shortly": 7400, "cosmetics": 7401, "UK@@": 7402, "Because,I": 7403, "Hakone": 7404, "nuance": 7405, "porcelain": 7406, "phase": 7407, "70@@": 7408, "organizations": 7409, "relevant": 7410, "optimistic": 7411, "hired": 7412, "apping": 7413, "Except": 7414, "55": 7415, "counting": 7416, "Ap@@": 7417, "th-@@": 7418, "29th": 7419, "dy@@": 7420, "shore": 7421, "Super": 7422, "crops": 7423, "tte": 7424, "remembering": 7425, "pronounced": 7426, "Jan": 7427, "wich": 7428, "Prince": 7429, "atly": 7430, "sentence@@": 7431, "Playing": 7432, "imag@@": 7433, "ly-@@": 7434, "16th": 7435, "tis@@": 7436, "string": 7437, "Hiro@@": 7438, "Marathon": 7439, "Claus": 7440, "These@@": 7441, "Fukui": 7442, "S.": 7443, "DA": 7444, "absorb": 7445, "best@@": 7446, "adopted": 7447, "Mil@@": 7448, "ading": 7449, "7.@@": 7450, "long-@@": 7451, "Personally": 7452, "Ms": 7453, "owed": 7454, "tice": 7455, "tab@@": 7456, "Gra@@": 7457, "sion@@": 7458, "rolling": 7459, "muscular": 7460, "groom": 7461, "religions": 7462, "more..": 7463, "gentleman": 7464, "impolite": 7465, "Sake": 7466, "Greece": 7467, "urant": 7468, "proficiency": 7469, "three-@@": 7470, "fall@@": 7471, "Barcelona": 7472, "shrimp": 7473, "crashed": 7474, "waitress": 7475, "※": 7476, "Izakaya": 7477, "kawa": 7478, "radish": 7479, "remenber": 7480, "stepped": 7481, "boost": 7482, "75": 7483, "alike": 7484, "origin@@": 7485, "talents": 7486, "unt": 7487, ",at": 7488, "ion": 7489, "consciousness": 7490, "TS": 7491, "participation": 7492, "wrap": 7493, "dialogue": 7494, "Dis@@": 7495, "weekly": 7496, "Peter": 7497, "correc@@": 7498, "gat@@": 7499, "finds": 7500, "ref@@": 7501, "figured": 7502, "TR@@": 7503, "fur": 7504, "Win@@": 7505, "music,@@": 7506, "smoker": 7507, "housewife": 7508, "undergraduate": 7509, "learn@@": 7510, "days,I": 7511, "rela@@": 7512, "reser@@": 7513, "calligraphy": 7514, "Kur@@": 7515, "pudding": 7516, "00pm": 7517, "Japanese-@@": 7518, "tattoo": 7519, "histor@@": 7520, "Management": 7521, "spee@@": 7522, "ty-@@": 7523, "Hol@@": 7524, "selection": 7525, "steal": 7526, "human@@": 7527, "ve-@@": 7528, "devote": 7529, "estimate": 7530, "sely": 7531, "soldier": 7532, "wage": 7533, "stays": 7534, "melt": 7535, "ada": 7536, "mus@@": 7537, "10,000": 7538, "stic@@": 7539, "keys": 7540, "quiz": 7541, "tiring": 7542, "someting": 7543, "Every@@": 7544, "Engli@@": 7545, "ey@@": 7546, "maid": 7547, "stylish": 7548, "comunicate": 7549, "slower": 7550, "counter@@": 7551, "Sweden": 7552, "itting": 7553, "manufacturing": 7554, "audi@@": 7555, "argued": 7556, "Dec": 7557, "consume": 7558, "flo@@": 7559, "intermediate": 7560, "197@@": 7561, "nevertheless": 7562, "spar@@": 7563, "nerve": 7564, "1.5": 7565, "Denmark": 7566, "county": 7567, "dawn": 7568, "arrival": 7569, "grasp": 7570, "ick@@": 7571, "od@@": 7572, "vain": 7573, "hara": 7574, "them.": 7575, "y,and": 7576, "tter@@": 7577, "apologized": 7578, "wings": 7579, "es,": 7580, "Dutch": 7581, "scored": 7582, "fucking": 7583, "lunch@@": 7584, "BUT": 7585, "pumpkin": 7586, "KO@@": 7587, "culture@@": 7588, "programmer": 7589, "organ": 7590, "acid": 7591, "expen@@": 7592, "James": 7593, "kai@@": 7594, "guarantee": 7595, "world@@": 7596, "debt": 7597, "adv@@": 7598, "grab": 7599, "persuade": 7600, "collapse": 7601, "generous": 7602, "charged": 7603, "mono@@": 7604, "believes": 7605, "enemies": 7606, "category": 7607, "lifetime": 7608, "Indonesian": 7609, "tually": 7610, "weak@@": 7611, "plo@@": 7612, "Following": 7613, "bed@@": 7614, "ops": 7615, "beginners": 7616, "angel": 7617, "german": 7618, "gramm@@": 7619, "swear": 7620, "historic": 7621, "aff@@": 7622, "aga": 7623, "skipped": 7624, "though...": 7625, "snows": 7626, "Taka@@": 7627, "unnatural": 7628, "cheering": 7629, "Asakusa": 7630, "consequences": 7631, "avoided": 7632, "Information": 7633, "heading": 7634, "weapon": 7635, "Cal@@": 7636, "ized": 7637, "oring": 7638, "T-@@": 7639, "airline": 7640, "explains": 7641, "gaining": 7642, "chess": 7643, "Jun@@": 7644, "easiest": 7645, "Ab@@": 7646, "stance": 7647, "theirs": 7648, "desperately": 7649, "Kat@@": 7650, "sticky": 7651, "understandable": 7652, "tori@@": 7653, "packing": 7654, "cans": 7655, "butterfly": 7656, "Heritage": 7657, "presentations": 7658, "parked": 7659, "cancelled": 7660, "devil": 7661, "rainning": 7662, "y,so": 7663, "Birthday": 7664, "myself@@": 7665, "playground": 7666, "17th": 7667, "Church": 7668, "Bon": 7669, "gawa": 7670, "protected": 7671, "regards": 7672, "suggests": 7673, "scheme": 7674, "equipped": 7675, "react": 7676, "mal": 7677, "keeper": 7678, "uring": 7679, "bones": 7680, "lity": 7681, "bug": 7682, "oli@@": 7683, "boarding": 7684, "faculty": 7685, "concer@@": 7686, "-in-@@": 7687, "leg@@": 7688, "chu@@": 7689, "effec@@": 7690, "shoe": 7691, "3,@@": 7692, "oro": 7693, "AT": 7694, "pul@@": 7695, "ala": 7696, "ners": 7697, "contacted": 7698, "lo": 7699, "ink@@": 7700, "loan": 7701, "graphics": 7702, "america": 7703, "reporter": 7704, "smelled": 7705, "poetry": 7706, "grammars": 7707, "KFC": 7708, "eclipse": 7709, "interviewer": 7710, "jin": 7711, "BA": 7712, "beg@@": 7713, "ig": 7714, "UT@@": 7715, "decoration": 7716, "station@@": 7717, "Introduce": 7718, "closet": 7719, "kei": 7720, "encountered": 7721, "resolve": 7722, "requirements": 7723, "civilization": 7724, "Ai@@": 7725, "neglect": 7726, "lung": 7727, "evi@@": 7728, "4-@@": 7729, "differently": 7730, "pad": 7731, "syn@@": 7732, "bikes": 7733, "broaden": 7734, "sees": 7735, "aci@@": 7736, "mang@@": 7737, "the-@@": 7738, "ske@@": 7739, "ghosts": 7740, "dresses": 7741, "le,@@": 7742, "stmas": 7743, "hiding": 7744, "hates": 7745, "Ken": 7746, "branches": 7747, "English,": 7748, "coff@@": 7749, "Obviously": 7750, "accounts": 7751, "tion,@@": 7752, "profits": 7753, "apped": 7754, "peak": 7755, "boards": 7756, "affection": 7757, "David": 7758, "fol@@": 7759, "gum": 7760, "remote": 7761, "p.@@": 7762, "leadership": 7763, "backgrounds": 7764, "paragraph": 7765, "diligent": 7766, "DO@@": 7767, "stole": 7768, "reads": 7769, "ie": 7770, "kan": 7771, "destiny": 7772, "My@@": 7773, "now,@@": 7774, "mmer": 7775, "mble": 7776, "seasonal": 7777, "and-@@": 7778, "edit": 7779, "especi@@": 7780, "ggy": 7781, "Death": 7782, "Otaku": 7783, "Toeic": 7784, "automatic": 7785, "5.@@": 7786, "unexpectedly": 7787, "ssive": 7788, "lighter": 7789, "frequency": 7790, "profession": 7791, "barrier": 7792, "stages": 7793, "globalization": 7794, "constructed": 7795, "clean@@": 7796, "giant": 7797, "diverse": 7798, "mat": 7799, "athletes": 7800, "humble": 7801, "watch@@": 7802, "Live": 7803, "ran@@": 7804, "tidy": 7805, "hanged": 7806, "bless": 7807, "se..": 7808, "Culture": 7809, "september": 7810, "chin": 7811, "aroma": 7812, "bilingual": 7813, "And,@@": 7814, "fore": 7815, "s,it": 7816, "Ry@@": 7817, "knitting": 7818, "greenhouse": 7819, "shelter": 7820, "Robert": 7821, "Tr@@": 7822, "obligation": 7823, "lessly": 7824, "tissue": 7825, "on-line": 7826, "stimulate": 7827, "impressions": 7828, "probability": 7829, "Bra@@": 7830, "proce@@": 7831, "Melbourne": 7832, "pt": 7833, "Again": 7834, "Coffee": 7835, "sunrise": 7836, "Tur@@": 7837, "stan@@": 7838, "did'nt": 7839, "frightened": 7840, "tropical": 7841, "laz@@": 7842, "peach": 7843, "Englsih": 7844, ",We": 7845, "here.": 7846, "beautiful@@": 7847, "Movie": 7848, "Tree": 7849, "frog": 7850, "steamed": 7851, "delight": 7852, "smokers": 7853, "Guam": 7854, "JICA": 7855, "Research": 7856, "Institute": 7857, "Apparently": 7858, "creativity": 7859, "revealed": 7860, "Sub@@": 7861, "unemployment": 7862, "ena": 7863, "j": 7864, "Bul@@": 7865, "vari@@": 7866, "defeat": 7867, "pun@@": 7868, "spiritual": 7869, "rubber": 7870, "institution": 7871, "accommodation": 7872, "Spe@@": 7873, "shipping": 7874, "fate": 7875, "lin": 7876, "sci@@": 7877, "hou@@": 7878, "pping": 7879, "pile": 7880, "restarted": 7881, "laugh@@": 7882, "plural": 7883, "ourself": 7884, "dumplings": 7885, "morning@@": 7886, "minded": 7887, "ort": 7888, "Disneyland": 7889, "Master": 7890, "t...": 7891, "foward": 7892, "k.": 7893, "Brazilian": 7894, "Fuku@@": 7895, "contro@@": 7896, "sin": 7897, "Ukraine": 7898, "portion": 7899, "defined": 7900, "inevitable": 7901, "rises": 7902, "oro@@": 7903, "inci@@": 7904, "researched": 7905, "dramatic": 7906, "tear": 7907, "unconsciously": 7908, "gor@@": 7909, "trivial": 7910, "vac@@": 7911, "knowled@@": 7912, "fs": 7913, "laun@@": 7914, "net@@": 7915, "Bad": 7916, "zi": 7917, "ense": 7918, "indi@@": 7919, "addition@@": 7920, "OF": 7921, "Tar@@": 7922, "admired": 7923, "thursday": 7924, "fathers": 7925, "gossip": 7926, "Cafe": 7927, "shou@@": 7928, "wednesday": 7929, "Student": 7930, "tea@@": 7931, "grader": 7932, "well.": 7933, "slang@@": 7934, "icecream": 7935, "Sep": 7936, "very@@": 7937, "2years": 7938, "first,I": 7939, "cover@@": 7940, "Mat@@": 7941, "chairs": 7942, "hea@@": 7943, "equivalent": 7944, "procedures": 7945, "needless": 7946, "importantly": 7947, "businesses": 7948, "atures": 7949, "self@@": 7950, "contin@@": 7951, "emb@@": 7952, "criticize": 7953, "instruction": 7954, "bat@@": 7955, "marine": 7956, "mun@@": 7957, "beating": 7958, "worship": 7959, "impatient": 7960, "acy": 7961, "lar": 7962, "YOU": 7963, "purse": 7964, "Ple@@": 7965, "animated": 7966, "opping": 7967, "beau@@": 7968, "fence": 7969, "rese@@": 7970, "somthing": 7971, "unforgettable": 7972, "knocked": 7973, "Argentina": 7974, "downloaded": 7975, "oppotunity": 7976, "ing,and": 7977, "crowed": 7978, "Boy": 7979, "romance": 7980, "grammatically": 7981, "sand@@": 7982, "crane": 7983, "m.": 7984, "overslept": 7985, "specialty": 7986, "cockroach": 7987, "Natto": 7988, ",no": 7989, "SCWR": 7990, "4.@@": 7991, "28@@": 7992, "eyesight": 7993, "outcome": 7994, "programme": 7995, "ums": 7996, "fying": 7997, "radioactivity": 7998, "interface": 7999, "revise": 8000, "unk": 8001, "appliances": 8002, "ab": 8003, "Service": 8004, "embarra@@": 8005, "able@@": 8006, "traditions": 8007, "reflected": 8008, "pillow": 8009, "wards": 8010, "lip": 8011, "ven": 8012, "dish@@": 8013, "Phone": 8014, "ane": 8015, "lls": 8016, "moment@@": 8017, "ek": 8018, "mutual": 8019, "pharmacy": 8020, "canada": 8021, "laughter": 8022, "val": 8023, "clothe@@": 8024, "Irish": 8025, "memorized": 8026, "Junior": 8027, "ABC": 8028, "gently": 8029, "outline": 8030, "shoo@@": 8031, "Wh@@": 8032, "soooo": 8033, "interviewed": 8034, "Japanse": 8035, "forei@@": 8036, "Development": 8037, "attacks": 8038, "blamed": 8039, "meanwhile": 8040, "dependent": 8041, "candidate": 8042, "23@@": 8043, "Union": 8044, "conductor": 8045, "mbled": 8046, "pic": 8047, "Mag@@": 8048, "introduces": 8049, "earning": 8050, "residence": 8051, "accompany": 8052, "soli@@": 8053, "appro@@": 8054, "mechanical": 8055, "progra@@": 8056, "stretch": 8057, "tain@@": 8058, "resul@@": 8059, "speedy": 8060, "sheets": 8061, "teen": 8062, "secretly": 8063, "export": 8064, "wander": 8065, "revenge": 8066, "And,I": 8067, "king@@": 8068, "diffrent": 8069, "movie@@": 8070, "though..": 8071, "dough": 8072, "much.": 8073, "Rome": 8074, "italian": 8075, "Kan": 8076, "English-speaking": 8077, "developments": 8078, "tism": 8079, "innovative": 8080, "hin@@": 8081, "cooling": 8082, "gene": 8083, "zer": 8084, "researching": 8085, "indoor": 8086, "disadvantage": 8087, "bel@@": 8088, "problem@@": 8089, "ick": 8090, "performing": 8091, "moderate": 8092, "Middle": 8093, "sky@@": 8094, "80@@": 8095, "occupied": 8096, "devoted": 8097, "Picture": 8098, "law@@": 8099, "mistaken": 8100, "mistook": 8101, "tty": 8102, "Real": 8103, "ttle": 8104, "shouting": 8105, "sincere": 8106, ",some": 8107, "speeches": 8108, "sections": 8109, "handmade": 8110, "nouns": 8111, "favorites": 8112, "struggled": 8113, "amusing": 8114, "Easter": 8115, "begin@@": 8116, "chill": 8117, "dancer": 8118, "martial": 8119, "alcho@@": 8120, "crash": 8121, "standards": 8122, "Cap@@": 8123, "considerably": 8124, "denied": 8125, "reduction": 8126, "custom@@": 8127, "layer": 8128, "eth@@": 8129, "fulness": 8130, "permit": 8131, "enrolled": 8132, "declining": 8133, "form@@": 8134, "assessment": 8135, "unstable": 8136, "marked": 8137, "magnificent": 8138, "Shu@@": 8139, "intense": 8140, "inte@@": 8141, "wrapped": 8142, "promoted": 8143, "strongest": 8144, "suspect": 8145, "USD": 8146, "sink": 8147, "26@@": 8148, "vinegar": 8149, "tex@@": 8150, "alien": 8151, "realizing": 8152, "twins": 8153, "30am": 8154, "succe@@": 8155, "nese": 8156, "listener": 8157, "grandpa": 8158, "Avatar": 8159, "octopus": 8160, "architect": 8161, "m..": 8162, "BE@@": 8163, "year,I": 8164, "cigarettes": 8165, "bi": 8166, "Portuguese": 8167, "jima": 8168, "flowing": 8169, "sooo": 8170, "es.": 8171, "recalled": 8172, "fat@@": 8173, "120": 8174, "cool@@": 8175, "storage": 8176, "dioxide": 8177, "adequate": 8178, "ranked": 8179, "ATION": 8180, "compose": 8181, "protecting": 8182, "surroundings": 8183, "possibilities": 8184, "logically": 8185, "The@@": 8186, "vary": 8187, "assumed": 8188, "scope": 8189, "tive@@": 8190, "brands": 8191, "Ten": 8192, "facial": 8193, "credits": 8194, "happiest": 8195, "l.": 8196, "mud": 8197, "sad@@": 8198, "Fran@@": 8199, "nerves": 8200, "renew": 8201, "today..": 8202, "weekend@@": 8203, "me...": 8204, "common@@": 8205, "coud": 8206, "knit": 8207, "again..": 8208, "fry": 8209, "kat@@": 8210, "ferry": 8211, "nabe": 8212, "Cambodia": 8213, "Welcome": 8214, "DJ": 8215, "Star@@": 8216, "ency": 8217, "Law": 8218, "CE@@": 8219, "define": 8220, "contra@@": 8221, "urgent": 8222, "personnel": 8223, "furthermore": 8224, "employed": 8225, "listed": 8226, "deposit": 8227, "Cho@@": 8228, "cop@@": 8229, "cted": 8230, "twenty-@@": 8231, "mming": 8232, "ored": 8233, "challenged": 8234, "cially": 8235, "preposition": 8236, "chores": 8237, "Honda": 8238, "slipped": 8239, "inconvenience": 8240, "gent": 8241, "liter@@": 8242, "computer@@": 8243, "horses": 8244, "moi@@": 8245, "After@@": 8246, "submitted": 8247, ",how": 8248, "adjective": 8249, "frankly": 8250, "No.1": 8251, "sta": 8252, "diffic@@": 8253, "intro@@": 8254, "ul": 8255, "bei@@": 8256, "shin": 8257, "candies": 8258, "coke": 8259, "ω": 8260, "SF": 8261, "taro": 8262, "seoul": 8263, "collapsed": 8264, "neglected": 8265, "processing": 8266, "drink@@": 8267, "founder": 8268, "analy@@": 8269, "boun@@": 8270, "sixth": 8271, "°": 8272, "Sony": 8273, "depth": 8274, "Others": 8275, "educate": 8276, "thoroughly": 8277, "mushrooms": 8278, "dedicated": 8279, "stro@@": 8280, "tragic": 8281, "captain": 8282, "gan": 8283, "sal": 8284, "Ye@@": 8285, "years-old": 8286, "Pla@@": 8287, "territory": 8288, "wom@@": 8289, "Dar@@": 8290, "landlord": 8291, "dre@@": 8292, "drop@@": 8293, "Rain": 8294, "Ei@@": 8295, "ly,": 8296, "days..": 8297, "ly.": 8298, "Cause": 8299, "ange": 8300, "curtain": 8301, "fridge": 8302, "achi@@": 8303, "Some@@": 8304, "flesh": 8305, "inch": 8306, "photographs": 8307, "cell@@": 8308, "deer": 8309, "Eiken": 8310, "restroom": 8311, "threat": 8312, "proceed": 8313, "spaces": 8314, "breaks": 8315, "inst@@": 8316, "Mama": 8317, "obtained": 8318, "excessive": 8319, "----@@": 8320, "exercising": 8321, "travels": 8322, "stle": 8323, "oning": 8324, "CG": 8325, "realise": 8326, "ital": 8327, "bin": 8328, "J-@@": 8329, "longing": 8330, "directions": 8331, "imitate": 8332, "abnormal": 8333, "tering": 8334, "astonished": 8335, "curriculum": 8336, "personalities": 8337, "viewpoint": 8338, "producer": 8339, "ank": 8340, "Steve": 8341, "buried": 8342, "Show": 8343, "clip": 8344, "shots": 8345, "defin@@": 8346, "but..": 8347, "hu": 8348, "Eating": 8349, "web-site": 8350, "hesitation": 8351, "merits": 8352, "Yest@@": 8353, "cola": 8354, "mushroom": 8355, "uki": 8356, "up.": 8357, "ordin@@": 8358, "crab": 8359, "dong": 8360, "equally": 8361, "respon@@": 8362, "precise": 8363, "maj@@": 8364, "creation": 8365, "committed": 8366, "capability": 8367, "preventing": 8368, "cro@@": 8369, "incidents": 8370, "predicted": 8371, "sday": 8372, "Money": 8373, "Out": 8374, "las": 8375, "corporate": 8376, "all-@@": 8377, "ome@@": 8378, "calculate": 8379, "officers": 8380, "orr@@": 8381, "duc@@": 8382, "exi@@": 8383, "38": 8384, "cured": 8385, "regulation": 8386, "believing": 8387, "chase": 8388, "cave": 8389, "China@@": 8390, "beautifully": 8391, "st.": 8392, "lasts": 8393, "bee": 8394, "gloves": 8395, "supri@@": 8396, "strang@@": 8397, "window@@": 8398, "rewrite": 8399, "dir@@": 8400, "winds": 8401, "ully": 8402, "originated": 8403, "2hours": 8404, "roast": 8405, "ona": 8406, "arti@@": 8407, "one..": 8408, "lt": 8409, "Yamagata": 8410, ",,,@@": 8411, "mayonnaise": 8412, "■": 8413, "honorific": 8414, "opponents": 8415, "compe@@": 8416, "abandon": 8417, "slope": 8418, "bott@@": 8419, "utilize": 8420, "fes": 8421, "deck": 8422, "tape": 8423, "level@@": 8424, "expectations": 8425, "abundant": 8426, "cations": 8427, "eses": 8428, "rat": 8429, "mented": 8430, "clear@@": 8431, "lit": 8432, "Network": 8433, "Pri@@": 8434, "lers": 8435, "pilot": 8436, "'a": 8437, "diversity": 8438, "staring": 8439, "ED": 8440, "sho": 8441, "sights": 8442, "sucks": 8443, "rice@@": 8444, "a.m": 8445, "cucumber": 8446, "fluency": 8447, "grape": 8448, "mosquitoes": 8449, "past@@": 8450, "rugby": 8451, "hiragana": 8452, "learns": 8453, "rap": 8454, "bun": 8455, "sight@@": 8456, "･": 8457, "tommorrow": 8458, "Taiwan@@": 8459, "medium": 8460, "Well@@": 8461, "forty": 8462, "managing": 8463, "amounts": 8464, "inf@@": 8465, "multi@@": 8466, "operated": 8467, "bol@@": 8468, "rational": 8469, "tioned": 8470, "appliance": 8471, "uniforms": 8472, "criticism": 8473, "avoiding": 8474, "dressing": 8475, "NE@@": 8476, "Ser@@": 8477, "resident": 8478, "Fall": 8479, "competitions": 8480, "arri@@": 8481, "updated": 8482, "No.@@": 8483, "extraordinary": 8484, "thief": 8485, "dates": 8486, "iro": 8487, "Mal@@": 8488, "Bill": 8489, "newest": 8490, "Road": 8491, "kidding": 8492, "one.": 8493, "disk": 8494, "screaming": 8495, "reg@@": 8496, "conversational": 8497, "deri@@": 8498, "confess": 8499, "ece": 8500, "Cantonese": 8501, "Lang-8@@": 8502, "Guangzhou": 8503, "work.": 8504, "e,": 8505, "Question": 8506, "warm@@": 8507, "bugs": 8508, "pound": 8509, "Kyushu": 8510, "us.": 8511, "①": 8512, "②": 8513, "bloomed": 8514, "Yukata": 8515, "cheered": 8516, "Naga@@": 8517, "Yakiniku": 8518, "Super@@": 8519, "bacteria": 8520, "increasingly": 8521, "Free": 8522, "slow@@": 8523, "Design": 8524, "Ke@@": 8525, "healthier": 8526, "Celsius": 8527, "indispensable": 8528, "channels": 8529, "transpor@@": 8530, "banks": 8531, "communi@@": 8532, "motorbike": 8533, "weigh@@": 8534, "scold": 8535, "abo@@": 8536, "attitudes": 8537, "isolated": 8538, "tary": 8539, "prejudice": 8540, "Switzerland": 8541, "cook@@": 8542, "Space": 8543, "dia": 8544, "favorable": 8545, "travelers": 8546, "owns": 8547, "full-@@": 8548, "fits": 8549, "gner": 8550, "business@@": 8551, "great@@": 8552, "party@@": 8553, "street@@": 8554, "Moreover@@": 8555, "Turkish": 8556, "lang": 8557, "beaten": 8558, "calmly": 8559, "beacuse": 8560, "Nowa@@": 8561, "underst@@": 8562, "big@@": 8563, "costumes": 8564, "Ocean": 8565, "JO@@": 8566, "shaved": 8567, "timer": 8568, "Kendo": 8569, "bal": 8570, "informal": 8571, "liking": 8572, "morning,I": 8573, "Kyusyu": 8574, "Fuji@@": 8575, "Doraemon": 8576, "ocarina": 8577, "strain": 8578, "imm@@": 8579, "senses": 8580, "element": 8581, "discipline": 8582, "wider": 8583, "900": 8584, "99": 8585, ",many": 8586, "Ver@@": 8587, "approached": 8588, "Ev@@": 8589, "birth@@": 8590, "contries": 8591, "UN": 8592, "urge": 8593, "demo@@": 8594, "Agency": 8595, "hang@@": 8596, "unclear": 8597, "expanding": 8598, "ised": 8599, "closest": 8600, "right@@": 8601, "rocks": 8602, "Bon@@": 8603, "000@@": 8604, "applicants": 8605, "condition@@": 8606, "cares": 8607, "answering": 8608, "thers": 8609, "26th": 8610, "call@@": 8611, "mp3": 8612, "nur@@": 8613, "passionate": 8614, "Tor@@": 8615, "live@@": 8616, "hits": 8617, "prayer": 8618, "difficul@@": 8619, "mu": 8620, "lip@@": 8621, "Roman": 8622, "aku": 8623, "PO@@": 8624, "sai": 8625, "hearted": 8626, "子": 8627, "dolphins": 8628, "costed": 8629, ",like": 8630, "year.": 8631, "idiot": 8632, "lim@@": 8633, "aku@@": 8634, "waterfall": 8635, "Bud@@": 8636, "memorable": 8637, "frustration": 8638, "commercials": 8639, "celebrities": 8640, "Ikebukuro": 8641, "mixture": 8642, "48": 8643, "officially": 8644, "considerable": 8645, "theories": 8646, "hurried": 8647, "outlet": 8648, "requests": 8649, "warned": 8650, "magnitude": 8651, "posture": 8652, "containing": 8653, "Cold": 8654, "Michigan": 8655, "As@@": 8656, "ising": 8657, "sue": 8658, "strengthen": 8659, "shameful": 8660, "Gre@@": 8661, "equ@@": 8662, "34": 8663, "exa@@": 8664, "stea@@": 8665, "declared": 8666, "me-@@": 8667, "line@@": 8668, "za@@": 8669, "Mao": 8670, "itch": 8671, "DI@@": 8672, "knees": 8673, "dou@@": 8674, "vor@@": 8675, "bloody": 8676, "yester@@": 8677, "afterwards": 8678, "elephant": 8679, "rested": 8680, "tradi@@": 8681, "dough@@": 8682, "sophomore": 8683, "whale": 8684, "fox": 8685, "said,": 8686, "Onsen": 8687, "humorous": 8688, "terrorist": 8689, "undergo": 8690, "popul@@": 8691, "inventions": 8692, "make-up": 8693, "thermal": 8694, "immigration": 8695, "Hy@@": 8696, "guidance": 8697, "intellectual": 8698, "blocks": 8699, "pro": 8700, "drives": 8701, "Engineering": 8702, "Global": 8703, "organs": 8704, "divorced": 8705, "responses": 8706, "temporarily": 8707, "ong-@@": 8708, "measured": 8709, "cep@@": 8710, "27@@": 8711, "firmly": 8712, "Den@@": 8713, "cheating": 8714, "souvenirs": 8715, "/11": 8716, "celebrity": 8717, "Dou@@": 8718, "accessories": 8719, "is..": 8720, "people.": 8721, "ts,@@": 8722, "nation@@": 8723, "reme@@": 8724, "bacause": 8725, "it,": 8726, "pronoun@@": 8727, "writ@@": 8728, "plu@@": 8729, "obsessed": 8730, "weather@@": 8731, "ing,but": 8732, "baking": 8733, "EX@@": 8734, "Lots": 8735, "ached": 8736, "upstairs": 8737, "friend,@@": 8738, "Travel": 8739, "u-@@": 8740, "joun@@": 8741, "bathing": 8742, "that..": 8743, "lag": 8744, "awa": 8745, "resigned": 8746, "pics": 8747, "possi@@": 8748, "bubble": 8749, "carrots": 8750, "cha": 8751, "soak": 8752, "an.": 8753, "Start": 8754, "uku@@": 8755, "Yamada": 8756, ",though": 8757, "Bhutanese": 8758, "GDP": 8759, "1998": 8760, "genes": 8761, "consulting": 8762, "Project": 8763, "tackle": 8764, "temperatures": 8765, "rubbish": 8766, "produces": 8767, "movements": 8768, "fixing": 8769, "foun@@": 8770, "survived": 8771, "Regarding": 8772, "claims": 8773, "skilled": 8774, "Kar@@": 8775, "Sur@@": 8776, "implement": 8777, "ight": 8778, "mation": 8779, "visits": 8780, "vable": 8781, "rings": 8782, "racing": 8783, "sever@@": 8784, "cage": 8785, "disturb": 8786, "App@@": 8787, "Wor@@": 8788, "vague": 8789, "tit@@": 8790, "piled": 8791, "Auckland": 8792, "m,@@": 8793, "wandering": 8794, "monkeys": 8795, "forests": 8796, "ork": 8797, "appe@@": 8798, "Way": 8799, "fabulous": 8800, "beverage": 8801, "dd@@": 8802, "tales": 8803, "Ca": 8804, "ringing": 8805, "elected": 8806, "good-bye": 8807, "chir@@": 8808, "Filipino": 8809, "part-@@": 8810, "drunken": 8811, "forming": 8812, "encourages": 8813, "edition": 8814, "permanent": 8815, "ino@@": 8816, "regulations": 8817, "responsibilities": 8818, "joint": 8819, "1990": 8820, "dence": 8821, "cker": 8822, "lated": 8823, "dences": 8824, "year-@@": 8825, "stresses": 8826, "agriculture": 8827, "PSP": 8828, "ST": 8829, "37": 8830, "Cy@@": 8831, "scratch": 8832, "ruin": 8833, "commented": 8834, "ize": 8835, "sto@@": 8836, "pushing": 8837, "nonsense": 8838, "continuation": 8839, "nex@@": 8840, "ken@@": 8841, "oke": 8842, "do.": 8843, "whoever": 8844, "Chicken": 8845, "artistic": 8846, "scarf": 8847, "happen@@": 8848, "husbands": 8849, "Rom@@": 8850, "ttering": 8851, "country,@@": 8852, "high-school": 8853, "Tube": 8854, "Beside@@": 8855, "fro@@": 8856, "Word": 8857, "♥": 8858, "order@@": 8859, "oon": 8860, "town@@": 8861, "diarrhea": 8862, "cafes": 8863, "sauna": 8864, "fe": 8865, "authority": 8866, "where@@": 8867, "impacts": 8868, "viol@@": 8869, "iling": 8870, "interpretation": 8871, "indicated": 8872, "lasting": 8873, "lean@@": 8874, "Communication": 8875, "browser": 8876, "Rose": 8877, "pipe": 8878, "set@@": 8879, "lightly": 8880, "28th": 8881, "four@@": 8882, "Ber@@": 8883, "Ari@@": 8884, "idle": 8885, "onal": 8886, "trail": 8887, "vic@@": 8888, "Beautiful": 8889, "ont": 8890, "write@@": 8891, "erent": 8892, "Dan@@": 8893, "Teaching": 8894, "serial": 8895, "gratu@@": 8896, "pancake": 8897, "united": 8898, "wn@@": 8899, "PCs": 8900, "sth": 8901, "Has": 8902, "stre@@": 8903, "seasoning": 8904, "intern": 8905, "healing": 8906, ",now": 8907, "ope@@": 8908, "Dream": 8909, "poet": 8910, "Lord": 8911, "enjo@@": 8912, "gods": 8913, "One@@": 8914, "●": 8915, "Betty": 8916, "PIECE": 8917, "I.": 8918, "door@@": 8919, "compulsory": 8920, "crossed": 8921, "heated": 8922, "weigh": 8923, "Different": 8924, "reac@@": 8925, "refers": 8926, "prevention": 8927, "sustainable": 8928, "portrait": 8929, "aled": 8930, "ud": 8931, "decides": 8932, "letting": 8933, "mel@@": 8934, "devel@@": 8935, "minority": 8936, "positively": 8937, "versity": 8938, "AV@@": 8939, "cau@@": 8940, "countri@@": 8941, "Ir@@": 8942, "database": 8943, "EM@@": 8944, "asian": 8945, "tire@@": 8946, "fresh@@": 8947, "inal": 8948, "masks": 8949, "hills": 8950, "ppl": 8951, "Fortunatel@@": 8952, "Bali": 8953, "guage": 8954, "world,@@": 8955, "buffet": 8956, "Satur@@": 8957, "yesterday@@": 8958, "roo@@": 8959, "sweater": 8960, "First,I": 8961, "XXX": 8962, "laziness": 8963, "zen": 8964, "bang": 8965, "translations": 8966, "good-looking": 8967, "bothering": 8968, "kitten": 8969, "seaweed": 8970, "kyoto": 8971, "cozy": 8972, "kotatsu": 8973, "thro@@": 8974, "AMI": 8975, "Zac": 8976, "lighting": 8977, "businessman": 8978, "Pen@@": 8979, "emission": 8980, "emphasize": 8981, "proportion": 8982, "AS": 8983, "promising": 8984, "employ": 8985, "prevented": 8986, "ste": 8987, "intensive": 8988, "capture": 8989, "PE": 8990, "bru@@": 8991, "Bank": 8992, "oned": 8993, "absolute": 8994, "convince": 8995, "open@@": 8996, "browsing": 8997, "poison": 8998, "Stone": 8999, "steep": 9000, "conflicts": 9001, "lap": 9002, "wound": 9003, "Air@@": 9004, "seal": 9005, "nar@@": 9006, "spa@@": 9007, "tomat@@": 9008, "Expo": 9009, "enge": 9010, "lamp": 9011, "Anne": 9012, "ast": 9013, "AD": 9014, "middle-aged": 9015, "Dance": 9016, "ond": 9017, "zhou": 9018, "gu": 9019, "pale": 9020, "vacuum": 9021, "gru@@": 9022, "amateur": 9023, "Rainy": 9024, "shampoo": 9025, "Nabe": 9026, "Hanami": 9027, "little@@": 9028, "moring": 9029, "desires": 9030, "stability": 9031, "allowing": 9032, "GPS": 9033, "dated": 9034, "aly@@": 9035, "dings": 9036, "officials": 9037, "Ben@@": 9038, "gun@@": 9039, "insufficient": 9040, "previously": 9041, "substance": 9042, "ac": 9043, "Use": 9044, "fty": 9045, "cultivate": 9046, "opposition": 9047, "acu@@": 9048, "expec@@": 9049, "inexpensive": 9050, "dently": 9051, "ade": 9052, "regul@@": 9053, "secretary": 9054, "policeman": 9055, "Considering": 9056, "ement": 9057, "owe": 9058, "hunger": 9059, "apt": 9060, "disappointment": 9061, "tten": 9062, "Ky@@": 9063, "Finland": 9064, "postponed": 9065, "una": 9066, "slu@@": 9067, "speci@@": 9068, "ult": 9069, "eper": 9070, "road@@": 9071, "dig": 9072, "Note": 9073, "phoned": 9074, "Kawa@@": 9075, "joking": 9076, "holes": 9077, "lists": 9078, "situated": 9079, "was@@": 9080, "login": 9081, "woo@@": 9082, "Bye": 9083, "talk@@": 9084, "arly": 9085, "UG@@": 9086, "y,the": 9087, "cousins": 9088, "finishes": 9089, "shold": 9090, "frying": 9091, "Hama@@": 9092, "publishing": 9093, "ped@@": 9094, "panda": 9095, "puzzled": 9096, "squid": 9097, "thumb": 9098, "blown": 9099, "commuter": 9100, "exploded": 9101, "gases": 9102, "identification": 9103, "Association": 9104, "Energy": 9105, "trigger": 9106, "tw@@": 9107, "Kingdom": 9108, "puri@@": 9109, "dity": 9110, "obstacles": 9111, "CO2": 9112, "separation": 9113, "inde@@": 9114, "gation": 9115, "main@@": 9116, "lands": 9117, "cotton": 9118, "Normally": 9119, "Eastern": 9120, "pouring": 9121, "vitamin": 9122, "registration": 9123, "Wall": 9124, "chine@@": 9125, "Afterwards": 9126, "soc@@": 9127, "gging": 9128, "bb@@": 9129, "Hor@@": 9130, "Sta@@": 9131, "issued": 9132, "knock": 9133, "expresses": 9134, "edi@@": 9135, "sakura": 9136, "Lunch": 9137, "tow": 9138, "TED": 9139, "albums": 9140, "internet@@": 9141, "abi": 9142, "libr@@": 9143, "bosses": 9144, "Teachers": 9145, "dol@@": 9146, "s,we": 9147, "softly": 9148, "mist@@": 9149, "wer": 9150, "Aikido": 9151, "Open": 9152, "hospitality": 9153, "but,I": 9154, "It@@": 9155, "transfered": 9156, "clerks": 9157, "toeic": 9158, "come@@": 9159, "Kumamoto": 9160, "modest": 9161, "involve": 9162, "eagerly": 9163, "poly@@": 9164, "exit": 9165, "tivity": 9166, "societies": 9167, "walks": 9168, "al.": 9169, "wealthy": 9170, "consultant": 9171, "Class": 9172, "nut": 9173, "approval": 9174, "ental": 9175, "Coming": 9176, "forum": 9177, "crush": 9178, "exper@@": 9179, "Washington": 9180, "occasions": 9181, "photographer": 9182, "stove": 9183, "Bicycle": 9184, "heal@@": 9185, "gers": 9186, "Florida": 9187, "1,000": 9188, "servant": 9189, "sor": 9190, "Examination": 9191, "sat@@": 9192, "mbling": 9193, "Jane": 9194, "bachelor": 9195, "Mari@@": 9196, "shima@@": 9197, "liar": 9198, "jail": 9199, "preference": 9200, "soon@@": 9201, "orientation": 9202, "lawn": 9203, "leaned": 9204, "Grand": 9205, "later@@": 9206, "donated": 9207, "casually": 9208, "Gal@@": 9209, "there.": 9210, "fal@@": 9211, "nerv@@": 9212, "egg@@": 9213, "writen": 9214, "tasting": 9215, "omi": 9216, "Pokemon": 9217, "Toyama": 9218, "bashi": 9219, "00yen": 9220, "scissors": 9221, "duck": 9222, "Journal": 9223, "Ob@@": 9224, "restricted": 9225, "maintaining": 9226, "lesser": 9227, "nes": 9228, "beaches": 9229, "accompanied": 9230, "ami@@": 9231, "Fun@@": 9232, "linked": 9233, "first-@@": 9234, "evolution": 9235, "independence": 9236, "nurses": 9237, "reaching": 9238, "inspire": 9239, "currency": 9240, "You@@": 9241, "roots": 9242, "Full": 9243, "dering": 9244, "universal": 9245, "peop@@": 9246, "inspection": 9247, "wn": 9248, "dynamic": 9249, "partic@@": 9250, "BC": 9251, "ood": 9252, "she@@": 9253, "thanked": 9254, "bing": 9255, "achi": 9256, "Out@@": 9257, "Japan,": 9258, "in.": 9259, "ousness": 9260, "Lost": 9261, "sr@@": 9262, "browse": 9263, "Boys": 9264, "something@@": 9265, "Opera": 9266, "Japanese-style": 9267, "runner": 9268, "acquainted": 9269, "again.": 9270, "annoy": 9271, "g-@@": 9272, "payed": 9273, "atel@@": 9274, "neat": 9275, "Am@@": 9276, "ciation": 9277, "skate": 9278, "yukata": 9279, "Off": 9280, "｀": 9281, "dive": 9282, "won@@": 9283, "second-@@": 9284, "ener@@": 9285, "apartments": 9286, "ethical": 9287, "obstacle": 9288, "floors": 9289, "largely": 9290, "satellite": 9291, "usi@@": 9292, "handling": 9293, "ati@@": 9294, "Pol@@": 9295, "preferred": 9296, "Sei@@": 9297, "powers": 9298, "dur@@": 9299, "rivers": 9300, "rating": 9301, "infection": 9302, "War@@": 9303, "purchased": 9304, "balanced": 9305, "reviewed": 9306, "Chile": 9307, "willingly": 9308, "compli@@": 9309, "Ball": 9310, "Mur@@": 9311, "dat@@": 9312, "Tim": 9313, "Prize": 9314, "umb@@": 9315, "Morning": 9316, "scre@@": 9317, "Jun": 9318, "folding": 9319, "yelled": 9320, "mir@@": 9321, "thank@@": 9322, "easi@@": 9323, "languag@@": 9324, "firends": 9325, "VE": 9326, "Actually,@@": 9327, "athlete": 9328, "rab@@": 9329, "MBA": 9330, "Ben": 9331, "halfway": 9332, "van@@": 9333, "vet": 9334, "bargain": 9335, "cross@@": 9336, "honeymoon": 9337, "flute": 9338, "p-@@": 9339, "good.": 9340, "Nex@@": 9341, "o,@@": 9342, "five-@@": 9343, "UNIQLO": 9344, "earnest": 9345, "restaurant@@": 9346, "♡": 9347, "disabled": 9348, "Singaporeans": 9349, "possess": 9350, "returns": 9351, "designers": 9352, "3000": 9353, "interaction": 9354, "zo@@": 9355, "pin": 9356, "ority": 9357, "H1N1": 9358, "pleas@@": 9359, "Trans@@": 9360, "neg@@": 9361, "vir@@": 9362, "mple": 9363, "tate": 9364, "creates": 9365, "nowhere": 9366, "beloved": 9367, "lead@@": 9368, "Oxford": 9369, "ured": 9370, "Kei@@": 9371, "foreign@@": 9372, "password": 9373, "glory": 9374, "Republic": 9375, "Contin@@": 9376, "enjoys": 9377, "equals": 9378, "pointing": 9379, "secrets": 9380, "Ken@@": 9381, "Jobs": 9382, "an,@@": 9383, "-D": 9384, "Square": 9385, "kicked": 9386, "sandwiches": 9387, "politely": 9388, "Engish": 9389, "tempor@@": 9390, "Exam": 9391, "Finally,@@": 9392, "ica": 9393, "Already": 9394, "while@@": 9395, "Yoshi@@": 9396, "it...": 9397, "minute@@": 9398, "float": 9399, "bento": 9400, "ount": 9401, "cia": 9402, "sewing": 9403, "Dor@@": 9404, "jing": 9405, "Team": 9406, "Actu@@": 9407, "musi@@": 9408, "Katakana": 9409, "memo": 9410, "Tokugawa": 9411, "alcohol@@": 9412, "Butler": 9413, "advancement": 9414, "360": 9415, "powered": 9416, "affordable": 9417, "financially": 9418, "veri@@": 9419, "reform": 9420, "CA": 9421, "sett@@": 9422, "marvelous": 9423, "brains": 9424, "separately": 9425, "editor": 9426, "gadget": 9427, "pon@@": 9428, "kets": 9429, "asi@@": 9430, "agre@@": 9431, "grey": 9432, "fighter": 9433, "Tan@@": 9434, "runn@@": 9435, "Angeles": 9436, "Gold": 9437, "Att@@": 9438, "gang": 9439, "zeal@@": 9440, "pills": 9441, "cky": 9442, "Five": 9443, "scream": 9444, "days.": 9445, "thats": 9446, "dog@@": 9447, "royal": 9448, "League": 9449, "together@@": 9450, "pitch": 9451, ",such": 9452, "vampire": 9453, "Unfortunatel@@": 9454, "tow@@": 9455, "pass@@": 9456, "pupils": 9457, "appriciate": 9458, "X-@@": 9459, "schedules": 9460, "Shir@@": 9461, "ankle": 9462, "ALL": 9463, "ov@@": 9464, "tablet": 9465, "i.": 9466, "Tiger": 9467, "T-shirts": 9468, "external": 9469, "tracking": 9470, "techn@@": 9471, "DNA": 9472, "deciding": 9473, "{": 9474, "vaccine": 9475, "discussions": 9476, "sav@@": 9477, "enrich": 9478, "essence": 9479, "acquired": 9480, "itation": 9481, "tens": 9482, "titude": 9483, "desired": 9484, "span": 9485, "wipe": 9486, "accepting": 9487, "tended": 9488, "fierce": 9489, "prof@@": 9490, "regrettable": 9491, "prote@@": 9492, "unhealthy": 9493, "Studio": 9494, "soybeans": 9495, "sub": 9496, "id@@": 9497, "taller": 9498, "gged": 9499, "ora": 9500, "sher": 9501, "attendance": 9502, "PS@@": 9503, "Take@@": 9504, "Police": 9505, "'S": 9506, "tre": 9507, "intersted": 9508, "Lat@@": 9509, "shade": 9510, "naughty": 9511, "Han": 9512, "corrects": 9513, "good-@@": 9514, "scen@@": 9515, "dictation": 9516, "China,@@": 9517, "Japanese.": 9518, "cabinet": 9519, "Oct": 9520, "scattered": 9521, "father@@": 9522, "make@@": 9523, "atic": 9524, "thir@@": 9525, "fellows": 9526, "solo": 9527, "traveler": 9528, "hospitalized": 9529, "GW": 9530, "tunes": 9531, "diss@@": 9532, "fatal": 9533, "upgrade": 9534, "arguments": 9535, "allowance": 9536, "Sports": 9537, "blin@@": 9538, "xed": 9539, "operations": 9540, "sphere": 9541, "mile": 9542, "42": 9543, "preserve": 9544, "tured": 9545, "cheapest": 9546, "fastest": 9547, "Bla@@": 9548, "complaints": 9549, "shr@@": 9550, "ug@@": 9551, "thri@@": 9552, "400@@": 9553, "bett@@": 9554, "mechanism": 9555, "Port@@": 9556, "committee": 9557, "wishing": 9558, "holder": 9559, "hob@@": 9560, "tto": 9561, "palm": 9562, "Hit@@": 9563, "250": 9564, "sne@@": 9565, "watches": 9566, "hav": 9567, "Som@@": 9568, "tsu": 9569, "YA": 9570, "ambition": 9571, "lawyer": 9572, "incredibly": 9573, "say@@": 9574, "words,@@": 9575, "jelly": 9576, "pper": 9577, "wire": 9578, "food,@@": 9579, "sorr@@": 9580, "BL@@": 9581, "aired": 9582, "answ@@": 9583, "pap@@": 9584, "artwork": 9585, "suburb": 9586, "Lang-8.": 9587, "viewers": 9588, "starbucks": 9589, "cicadas": 9590, "cooks": 9591, "Sakamoto": 9592, "Okayama": 9593, "YES": 9594, "commerce": 9595, "1986": 9596, "substantial": 9597, "inge": 9598, "Based": 9599, "unfortunate": 9600, "employer": 9601, "Ger@@": 9602, "cting": 9603, "theatre": 9604, "invent": 9605, "ee@@": 9606, "declined": 9607, "necklace": 9608, "humanity": 9609, "females": 9610, "lia": 9611, "injection": 9612, "rail": 9613, "vious": 9614, "al,@@": 9615, "O-@@": 9616, "melted": 9617, "visible": 9618, "brake": 9619, "tains": 9620, "AI@@": 9621, "four-@@": 9622, "luxurious": 9623, "ee": 9624, "Chu@@": 9625, "ch-@@": 9626, "mmed": 9627, "ro": 9628, "profound": 9629, "alize": 9630, "kk@@": 9631, "suspected": 9632, "label": 9633, "Gy@@": 9634, "xes": 9635, "ct@@": 9636, "stall": 9637, "oper@@": 9638, "port@@": 9639, "ke-@@": 9640, "var@@": 9641, "LE": 9642, "ania": 9643, "punished": 9644, "poeple": 9645, "photography": 9646, ",after": 9647, "Zoo": 9648, "ET@@": 9649, "damn": 9650, "handwriting": 9651, "student,I": 9652, "msn": 9653, "full@@": 9654, "geni@@": 9655, "resign": 9656, "Baseball": 9657, "nostalgic": 9658, "kyo": 9659, "oh@@": 9660, "entertain": 9661, "investigate": 9662, "reject": 9663, "properties": 9664, "Li": 9665, "networking": 9666, "automobile": 9667, "Pas@@": 9668, "agricultural": 9669, "quote": 9670, "cust@@": 9671, "1995": 9672, "tched": 9673, "links": 9674, "desktop": 9675, "judgment": 9676, "format": 9677, "container": 9678, "leak": 9679, "antly": 9680, "7-@@": 9681, "Hea@@": 9682, "attracts": 9683, "samples": 9684, "dropping": 9685, "deals": 9686, "ild": 9687, "cow@@": 9688, "5000": 9689, "Change": 9690, "prepar@@": 9691, "selves": 9692, "face@@": 9693, "27th": 9694, "freeze": 9695, "cheated": 9696, "ath@@": 9697, ",etc": 9698, "Dad": 9699, "invisible": 9700, "carpet": 9701, "cheek": 9702, "fortun@@": 9703, "diner": 9704, "counted": 9705, "cart": 9706, "Sometime@@": 9707, "roasted": 9708, "thirsty": 9709, "queen": 9710, "self-introduction": 9711, "nie": 9712, "coughing": 9713, "UC@@": 9714, "pretended": 9715, "frustrating": 9716, "genuine": 9717, "arrogant": 9718, "katakana": 9719, "spice": 9720, "origami": 9721, "varieties": 9722, "smar@@": 9723, "Ishi@@": 9724, "dye": 9725, "Sai@@": 9726, "ace": 9727, "atomosphere": 9728, "subordinates": 9729, "couldnt": 9730, "AKB48": 9731, "lipp@@": 9732, "Hello,@@": 9733, "R&D": 9734, "folks": 9735, "modified": 9736, "Ter@@": 9737, "aids": 9738, "Nu@@": 9739, "post-@@": 9740, "referred": 9741, "ultimate": 9742, "Ever": 9743, "pounds": 9744, "broad@@": 9745, "tightly": 9746, "22@@": 9747, "39": 9748, "convert": 9749, "Naturally": 9750, "dles": 9751, "Fre@@": 9752, "simp@@": 9753, "pays": 9754, "residential": 9755, "vert": 9756, "reflection": 9757, "dal": 9758, "eu@@": 9759, "milli@@": 9760, "interpret": 9761, "29@@": 9762, "bible": 9763, "trea@@": 9764, "ew@@": 9765, "Brown": 9766, "addiction": 9767, "dio": 9768, "th.": 9769, "Hard": 9770, "Mrs": 9771, "roller": 9772, "Fur@@": 9773, "strali@@": 9774, "forehead": 9775, "cos": 9776, "cial": 9777, "grapes": 9778, "Walking": 9779, "grasses": 9780, "Days": 9781, "goodness": 9782, "sleeps": 9783, "rehearsal": 9784, "spri@@": 9785, "possible@@": 9786, "icon": 9787, "Ha": 9788, "black@@": 9789, "mans": 9790, "menber": 9791, "Xmas": 9792, "friends.": 9793, "dyed": 9794, "ye": 9795, "Hak@@": 9796, "whit@@": 9797, "mixing": 9798, "le..": 9799, "vest": 9800, "chart": 9801, "detective": 9802, "hint": 9803, "End": 9804, "condi@@": 9805, "eno@@": 9806, "chili": 9807, "Mixi": 9808, "air-conditioner": 9809, "cashier": 9810, "Kimchi": 9811, "ｔ": 9812, "Tanzania": 9813, "gl@@": 9814, "pres@@": 9815, "ani": 9816, "sively": 9817, "}": 9818, "Medi@@": 9819, "Society": 9820, "distributed": 9821, "ial": 9822, "SE": 9823, "obliged": 9824, "regional": 9825, "communities": 9826, "extra@@": 9827, "simul@@": 9828, "vey": 9829, "sure@@": 9830, "Award": 9831, "polluted": 9832, "fo": 9833, "fragrance": 9834, "appointed": 9835, "Starting": 9836, "Char@@": 9837, "oki": 9838, "rap@@": 9839, "ATM": 9840, "ented": 9841, "dinner@@": 9842, "interact": 9843, "forge@@": 9844, "Uni@@": 9845, "or-@@": 9846, "ET": 9847, "dic": 9848, "fas@@": 9849, "screamed": 9850, "years,@@": 9851, ",people": 9852, "vocation": 9853, "perfec@@": 9854, "gesture": 9855, "home,I": 9856, "Fire": 9857, "drill": 9858, "world.": 9859, "Holland": 9860, "fini@@": 9861, "them..": 9862, "e,I": 9863, "ted@@": 9864, "say,@@": 9865, "ENGLISH": 9866, "relay": 9867, "gar": 9868, "wil": 9869, "toe": 9870, "vacation@@": 9871, "vi": 9872, "Masa@@": 9873, "gining": 9874, "drama@@": 9875, "melon": 9876, "gners": 9877, "eded": 9878, "Tat@@": 9879, "so..": 9880, "Tanabata": 9881, "emoticon": 9882, "Hi,@@": 9883, "promoting": 9884, "old-@@": 9885, "immediate": 9886, "treating": 9887, "discrimin@@": 9888, "experiencing": 9889, "TA": 9890, "Iphone": 9891, "distinct": 9892, "195@@": 9893, "10-@@": 9894, "terminal": 9895, "ier": 9896, "ruined": 9897, "lions": 9898, "Exactly": 9899, "fron@@": 9900, "conditioners": 9901, "rou@@": 9902, "close@@": 9903, "mobi@@": 9904, "feeding": 9905, "beg": 9906, "ower": 9907, "gram": 9908, "Ice": 9909, "gust": 9910, "typed": 9911, "cise": 9912, "straigh@@": 9913, "program@@": 9914, "logo": 9915, "Jim": 9916, "chickens": 9917, "calender": 9918, "helmet": 9919, "apper": 9920, "hap@@": 9921, "ght@@": 9922, "moms": 9923, "children@@": 9924, "lips": 9925, "antique": 9926, "dition": 9927, "HongKong": 9928, "jin@@": 9929, "OMG": 9930, "aning": 9931, "flow@@": 9932, "day-@@": 9933, "remarks": 9934, "july": 9935, "Hongkong": 9936, "old,@@": 9937, "ce.": 9938, "abur@@": 9939, "rolls": 9940, "monk": 9941, "ō": 9942, "expressway": 9943, "uku": 9944, "though.": 9945, "Tomorrow,I": 9946, "prefectures": 9947, "bookshelf": 9948, "DE@@": 9949, "expectancy": 9950, "Ang@@": 9951, "substitute": 9952, "classified": 9953, "36": 9954, "units": 9955, "cuts": 9956, "wastes": 9957, "professionals": 9958, "grated": 9959, "semin@@": 9960, "duties": 9961, "se-@@": 9962, "Soviet": 9963, "spoiled": 9964, "itable": 9965, "Diego": 9966, "combine": 9967, "Bea@@": 9968, "rival": 9969, "magical": 9970, "ew": 9971, "studi@@": 9972, "MacDonald": 9973, "mani@@": 9974, "sary": 9975, "aria": 9976, "FC": 9977, "beforehand": 9978, "comparatively": 9979, "way@@": 9980, "ety": 9981, "him.": 9982, "oka@@": 9983, "groceries": 9984, "IL@@": 9985, "plz": 9986, "med@@": 9987, "man.": 9988, "trainer": 9989, "ed..": 9990, "journalist": 9991, "Yesterday,@@": 9992, "british": 9993, "Czech": 9994, "oe": 9995, "Market": 9996, "pianist": 9997, "decorations": 9998, "Ty@@": 9999, "club@@": 10000, "shcool": 10001, "intersection": 10002, "imagin@@": 10003, "Face": 10004, "sei@@": 10005, "Texas": 10006, "sni@@": 10007, "は": 10008, "terrorism": 10009, "1999": 10010, "Temperature": 10011, "buil@@": 10012, "survival": 10013, "implies": 10014, "Group": 10015, "Coo@@": 10016, "41": 10017, "matic": 10018, "IA": 10019, "dding": 10020, "gadgets": 10021, "tones": 10022, "animes": 10023, "sel": 10024, "versi@@": 10025, "ethnic": 10026, "un-@@": 10027, "Tru@@": 10028, "Sat@@": 10029, "Media": 10030, "tech@@": 10031, "Often": 10032, "salaries": 10033, "nam": 10034, "heads": 10035, "developer": 10036, "wea@@": 10037, "poll@@": 10038, "allergic": 10039, "mineral": 10040, "hardship": 10041, "displays": 10042, "Thought": 10043, "ook": 10044, "winter@@": 10045, "describing": 10046, "ows": 10047, "Feel": 10048, "teenage": 10049, "uary": 10050, "outgoing": 10051, "valley": 10052, "ired": 10053, "activ@@": 10054, "hid": 10055, "Lang": 10056, "disappointing": 10057, "comment@@": 10058, "slice": 10059, "excit@@": 10060, "-_-": 10061, "2.": 10062, "this.": 10063, ",however": 10064, "ures": 10065, "Kom@@": 10066, "kendo": 10067, "themes": 10068, "day-off": 10069, "canned": 10070, "AZ@@": 10071, "ary,@@": 10072, "maple": 10073, "whisky": 10074, "course,I": 10075, "yama@@": 10076, "ㅜ": 10077, "produc@@": 10078, "instantly": 10079, "engage": 10080, "bin@@": 10081, "voluntary": 10082, "thread": 10083, "44": 10084, "reverse": 10085, "namely": 10086, "short-@@": 10087, "lap@@": 10088, "queue": 10089, "whole@@": 10090, "adver@@": 10091, "preserved": 10092, "defend": 10093, "196@@": 10094, "opposed": 10095, "notion": 10096, "silently": 10097, "messed": 10098, "ysi@@": 10099, "valu@@": 10100, "cus": 10101, "Early": 10102, "RMB": 10103, "tap@@": 10104, "tters": 10105, "dest": 10106, "spec@@": 10107, "air-@@": 10108, "cess@@": 10109, "union": 10110, "mic@@": 10111, "Coun@@": 10112, "rob@@": 10113, "excursion": 10114, "honest@@": 10115, "signature": 10116, "chasing": 10117, "Br@@": 10118, "receptionist": 10119, "coffe@@": 10120, "balloon": 10121, "volcano": 10122, "novelist": 10123, "kilograms": 10124, "ers,@@": 10125, "st,@@": 10126, "texture": 10127, "deep@@": 10128, "ima@@": 10129, "morning,@@": 10130, "TEST": 10131, "me,but": 10132, "Excuse": 10133, "bits": 10134, "ANA": 10135, "trouble@@": 10136, "Niagara": 10137, "suff@@": 10138, "Gaga": 10139, "ung@@": 10140, "tax@@": 10141, "withdraw": 10142, "dignity": 10143, "4,@@": 10144, "sequence": 10145, "accoun@@": 10146, "locate": 10147, "practically": 10148, "supplies": 10149, "authorities": 10150, "crow@@": 10151, "dialects": 10152, "voting": 10153, "preliminary": 10154, "sign@@": 10155, "ury": 10156, "does@@": 10157, "HR": 10158, "construct": 10159, "Hall": 10160, "igh@@": 10161, "adap@@": 10162, "wel@@": 10163, "VERY": 10164, "cheat": 10165, "HP": 10166, "Bel@@": 10167, "subtle": 10168, "relaxation": 10169, "obesity": 10170, "preschool": 10171, "candles": 10172, "psy@@": 10173, "Bob": 10174, "starring": 10175, "honesty": 10176, "greetings": 10177, "kun": 10178, "sud@@": 10179, "wha@@": 10180, "IB@@": 10181, "Europ@@": 10182, "icious": 10183, "English,and": 10184, "afternoon@@": 10185, "ao": 10186, "hai": 10187, "knowle@@": 10188, "dolphin": 10189, "petals": 10190, "Bay": 10191, "Seven": 10192, "Englsh": 10193, "Shall": 10194, "valentine": 10195, "mother-in-law": 10196, "to.": 10197, "summer@@": 10198, "fries": 10199, "casting": 10200, "gallery": 10201, "cian": 10202, "Ame@@": 10203, "all.": 10204, "Song": 10205, "subordinate": 10206, "hydrangea": 10207, "Hakodate": 10208, "mori": 10209, "yoshi": 10210, "Below": 10211, "PS3": 10212, "recognition": 10213, "dents": 10214, "coincidence": 10215, "brain@@": 10216, "Dra@@": 10217, "intr@@": 10218, "conce@@": 10219, "beds": 10220, "failing": 10221, "improves": 10222, "environment@@": 10223, "power@@": 10224, "selecting": 10225, "statements": 10226, "manufacture": 10227, "bankrupt": 10228, "ice@@": 10229, "covering": 10230, "bra": 10231, "attain": 10232, "centuries": 10233, "ological": 10234, "Hel@@": 10235, "mari@@": 10236, "Smith": 10237, "inten@@": 10238, "nit@@": 10239, "mass@@": 10240, "MP3": 10241, "ig@@": 10242, "drastically": 10243, "nag@@": 10244, "tened": 10245, "du": 10246, "enterprise": 10247, "guided": 10248, "95": 10249, "Drinking": 10250, "vig@@": 10251, "thorough": 10252, "quick@@": 10253, "compla@@": 10254, "judged": 10255, "scho@@": 10256, "libraries": 10257, "afterward": 10258, "full-time": 10259, "paper@@": 10260, "crystal": 10261, "suitcase": 10262, "lightning": 10263, "all,I": 10264, "exerci@@": 10265, "Say": 10266, "IKEA": 10267, "GO": 10268, "freshmen": 10269, "kind@@": 10270, "school,I": 10271, "debut": 10272, "UL@@": 10273, "delete": 10274, "postcard": 10275, "rememb@@": 10276, "PR@@": 10277, "hairdresser": 10278, "wait@@": 10279, "Kara@@": 10280, "mly": 10281, "zai": 10282, "X'mas": 10283, "pickled": 10284, "bord": 10285, "resu@@": 10286, "tatami": 10287, "snail": 10288, "Anybody": 10289, "FIFA": 10290, "ang-@@": 10291, "vulnerable": 10292, "oppose": 10293, "SD": 10294, "specifically": 10295, "paragraphs": 10296, "off-@@": 10297, "rays": 10298, "instructions": 10299, "doubts": 10300, "economically": 10301, "ancy": 10302, "prior": 10303, "recycle": 10304, "bble": 10305, "O'@@": 10306, "auto": 10307, "mankind": 10308, "transparent": 10309, "pear@@": 10310, "revenue": 10311, "Smart": 10312, "adapted": 10313, "horizon": 10314, "tiveness": 10315, "biting": 10316, "spends": 10317, "multi-@@": 10318, "environments": 10319, "skillful": 10320, "diagnosed": 10321, "communicated": 10322, "recorder": 10323, "sper@@": 10324, "eni@@": 10325, "farming": 10326, "ught": 10327, "printing": 10328, "stry": 10329, "sch@@": 10330, "frank": 10331, "commu@@": 10332, "mix@@": 10333, "oid": 10334, "companion": 10335, "peel": 10336, "shook": 10337, "tian": 10338, "frien@@": 10339, "van": 10340, "jor@@": 10341, "clay": 10342, "scripts": 10343, "finals": 10344, "Know": 10345, "Second@@": 10346, "complains": 10347, "clam": 10348, "trip@@": 10349, "Well,I": 10350, "ole": 10351, "do..": 10352, "week,I": 10353, "litter": 10354, "Chri@@": 10355, "sometime@@": 10356, "ex-boyfriend": 10357, "performer": 10358, "confu@@": 10359, "Kon@@": 10360, "Mir@@": 10361, "Kit@@": 10362, "chen": 10363, "pine": 10364, "Pal@@": 10365, "Enjoy": 10366, "boyfriends": 10367, "college@@": 10368, "Edward": 10369, "weeds": 10370, "atsu@@": 10371, "buckwheat": 10372, "univ": 10373, "acquaintances": 10374, "flower@@": 10375, "Dynasty": 10376, "treatments": 10377, "diverted": 10378, "mandatory": 10379, "effectiveness": 10380, "logist": 10381, "res@@": 10382, "hybrid": 10383, "stocks": 10384, "continent": 10385, "arguing": 10386, "wat@@": 10387, "nat@@": 10388, "ested": 10389, "seaside": 10390, "cleared": 10391, "AC": 10392, "competent": 10393, "fruitful": 10394, "geography": 10395, "grow@@": 10396, "clue": 10397, "gover@@": 10398, "recovering": 10399, "color@@": 10400, "entertaining": 10401, "Special": 10402, "Kate": 10403, "A.": 10404, "butt@@": 10405, "starving": 10406, "captured": 10407, "gardens": 10408, "Cre@@": 10409, "protein": 10410, "Modern": 10411, "bond": 10412, "masterpiece": 10413, "Break": 10414, "straw": 10415, "lighted": 10416, "softwares": 10417, "jan@@": 10418, "kimchi": 10419, "ah@@": 10420, "adorable": 10421, "ness@@": 10422, "hir@@": 10423, "gang@@": 10424, "karate": 10425, ",all": 10426, "how@@": 10427, "Half": 10428, "aches": 10429, "feast": 10430, "gal@@": 10431, "LY": 10432, "fact,I": 10433, ",everyone": 10434, "inn": 10435, "apology": 10436, "poo@@": 10437, ",our": 10438, "brushing": 10439, "sei": 10440, "Hallo": 10441, "work..": 10442, "mode@@": 10443, "moo@@": 10444, "curr@@": 10445, "Russians": 10446, "familly": 10447, "sco": 10448, "rabbits": 10449, "warmed": 10450, "Karate": 10451, "sequel": 10452, "couch": 10453, "backache": 10454, "smartphone": 10455, "apps": 10456, ",The": 10457, "Yu": 10458, "comedians": 10459, "Aug": 10460, "hectic": 10461, "Part": 10462, "membership": 10463, "DPJ": 10464, "mid-term": 10465, "restra@@": 10466, "English,so": 10467, "Remember": 10468, "Ur@@": 10469, "Reactor": 10470, "illustrations": 10471, "improvements": 10472, "crew": 10473, "programmes": 10474, "institutions": 10475, "Rather": 10476, "devastating": 10477, "asse@@": 10478, "versa": 10479, "teri@@": 10480, "strive": 10481, "circuit": 10482, "faults": 10483, "Rob@@": 10484, "feared": 10485, "firms": 10486, "evaluated": 10487, "nan": 10488, "accumulated": 10489, "equi@@": 10490, "suited": 10491, "heavier": 10492, "eafter": 10493, "Mountain": 10494, "gon@@": 10495, "Val@@": 10496, "Manhattan": 10497, "retail": 10498, "PC@@": 10499, "euthanasia": 10500, "lau@@": 10501, "pairs": 10502, "Swiss": 10503, "rele@@": 10504, "followers": 10505, "not@@": 10506, "nia": 10507, "repairing": 10508, "seventh": 10509, "ts.": 10510, "soda": 10511, "kno@@": 10512, "landscapes": 10513, "hop": 10514, "jewelry": 10515, "craz@@": 10516, "teller": 10517, "enviroment": 10518, "things.": 10519, "please.": 10520, "theaters": 10521, "Kai@@": 10522, "compositions": 10523, "pud@@": 10524, "cere@@": 10525, "wil@@": 10526, "here..": 10527, "Hmm": 10528, "whales": 10529, "pee": 10530, "pottery": 10531, "Had": 10532, "slices": 10533, "trumpet": 10534, "slides": 10535, "HAN@@": 10536, "okonomiyaki": 10537, "ny@@": 10538, "offic@@": 10539, "』": 10540, "uro": 10541, "ashi": 10542, "Giants": 10543, "omo@@": 10544, "things,@@": 10545, "Matsu@@": 10546, "Hatoyama": 10547, "CR@@": 10548, "relating": 10549, "circulation": 10550, "electri@@": 10551, "cons": 10552, "involves": 10553, "spoon": 10554, "renewable": 10555, "pressing": 10556, "noted": 10557, "reporting": 10558, "respects": 10559, "reflects": 10560, "ctor": 10561, "seemingly": 10562, "tang@@": 10563, "sponge": 10564, "limits": 10565, "mandarin": 10566, "auto@@": 10567, "agencies": 10568, "Titanic": 10569, "prosperity": 10570, "Madrid": 10571, "careers": 10572, "prone": 10573, "irre@@": 10574, "Phi@@": 10575, "peri@@": 10576, "Online": 10577, "lig@@": 10578, "Arizona": 10579, "panel": 10580, "rally": 10581, "own@@": 10582, "pregnancy": 10583, "contr@@": 10584, "overwhelmed": 10585, "impulse": 10586, "Meeting": 10587, "Unless": 10588, "enters": 10589, "designated": 10590, "hop@@": 10591, "compliment": 10592, "deleted": 10593, "Univer@@": 10594, "s'@@": 10595, "near@@": 10596, "edu@@": 10597, "conquer": 10598, "Dog": 10599, "sketch": 10600, "hen@@": 10601, "repeating": 10602, "Want": 10603, "wrestler": 10604, "christi@@": 10605, "homework@@": 10606, "organizer": 10607, "Tou@@": 10608, "Ghibli": 10609, "ん": 10610, "microphone": 10611, "Merry": 10612, "appear@@": 10613, "meet@@": 10614, "work,I": 10615, "1.": 10616, "hama": 10617, "memori@@": 10618, "taste@@": 10619, "math@@": 10620, "llow": 10621, "pad@@": 10622, "silk": 10623, "symbols": 10624, "swallow": 10625, "graceful": 10626, "tuesday": 10627, "Joe": 10628, "23th": 10629, "mi-@@": 10630, "sleeve": 10631, "zushi": 10632, "colloquial": 10633, "1hour": 10634, "know,@@": 10635, "SAK@@": 10636, "ural": 10637, "Tofu": 10638, "worthless": 10639, "alities": 10640, "stricken": 10641, "subsidies": 10642, "exten@@": 10643, "sick@@": 10644, "satisfying": 10645, "kingdom": 10646, "bel": 10647, "generating": 10648, "transform": 10649, "definite": 10650, "EU": 10651, "encouragement": 10652, "sixty": 10653, "inferior": 10654, "satisfactory": 10655, "ING@@": 10656, "bon": 10657, "grace": 10658, "prohi@@": 10659, "base@@": 10660, "threatened": 10661, "yo-@@": 10662, "rey": 10663, "Cou@@": 10664, "Ther@@": 10665, "consu@@": 10666, "con": 10667, "zo": 10668, "repl@@": 10669, "evacuation": 10670, "Iraq": 10671, "dos": 10672, "pick@@": 10673, "convention": 10674, "PL@@": 10675, "exer@@": 10676, "venture": 10677, "Lang@@": 10678, "RI@@": 10679, "eur@@": 10680, "Cla@@": 10681, "nan@@": 10682, "exhibit": 10683, "sleeves": 10684, "Victoria": 10685, "boot": 10686, "artic@@": 10687, "excer@@": 10688, "She@@": 10689, "ME": 10690, "pati@@": 10691, "dificult": 10692, "lang-8@@": 10693, "then,I": 10694, "monsters": 10695, "tac@@": 10696, "Naruto": 10697, "permitted": 10698, "dynasty": 10699, "ender": 10700, "Add": 10701, "earphone": 10702, "booth": 10703, "Woo@@": 10704, "zodiac": 10705, "agawa": 10706, "00AM": 10707, "Harajuku": 10708, "rish": 10709, "wired": 10710, "ji-@@": 10711, "bud": 10712, "dependency": 10713, "Apart": 10714, "invested": 10715, "networks": 10716, "detected": 10717, "PM@@": 10718, "inevitably": 10719, "ups": 10720, "destruction": 10721, "denti@@": 10722, "valued": 10723, "Wat@@": 10724, "derived": 10725, "principles": 10726, "about@@": 10727, "lish@@": 10728, "cei@@": 10729, "pursuit": 10730, "gish": 10731, "villa@@": 10732, "periods": 10733, "ander": 10734, "fog": 10735, "21th": 10736, "HI": 10737, "stly": 10738, "Anyhow": 10739, "aiming": 10740, "buttons": 10741, "constitution": 10742, "anonymous": 10743, "sweating": 10744, "8-@@": 10745, "participating": 10746, "advertise": 10747, "gest": 10748, "stress@@": 10749, "May@@": 10750, "exotic": 10751, "unreasonable": 10752, "stray": 10753, "matched": 10754, "rage": 10755, "midterm": 10756, "Mang@@": 10757, "luck@@": 10758, "pup@@": 10759, "bucket": 10760, "Translation": 10761, "situation@@": 10762, "-I": 10763, "understand@@": 10764, "dec@@": 10765, "Yes@@": 10766, "much..": 10767, "many@@": 10768, "Hello@@": 10769, "pls": 10770, "turkey": 10771, "Drama": 10772, "tricky": 10773, "sweated": 10774, "Andy": 10775, "yeas": 10776, "ass@@": 10777, "vine": 10778, "e...": 10779, "recieve": 10780, "Joy": 10781, "hooked": 10782, "America@@": 10783, "Sam@@": 10784, "protest": 10785, "Christianity": 10786, "Gifu": 10787, "X-ray": 10788, "Shiga": 10789, "aftershocks": 10790, "hesitating": 10791, "weed": 10792, "muffler": 10793, "お": 10794, "programing": 10795, "Hide@@": 10796, "cerebr@@": 10797, "spinach": 10798, "anese": 10799, "neatly": 10800, "Rie": 10801, "neighboring": 10802, "functional": 10803, "thre@@": 10804, "represented": 10805, "mps": 10806, "distribution": 10807, "tion-@@": 10808, "qualifications": 10809, "versus": 10810, "walk@@": 10811, "countless": 10812, "painters": 10813, "Cambridge": 10814, "toll": 10815, "summarize": 10816, "enough@@": 10817, ".1": 10818, "alert": 10819, "controversy": 10820, "approaches": 10821, "discouraged": 10822, "character@@": 10823, "Nature": 10824, "warmth": 10825, "blessing": 10826, "Mel@@": 10827, "examin@@": 10828, "skin@@": 10829, "Stop": 10830, "stamp": 10831, "dant": 10832, "disturbed": 10833, "cin@@": 10834, "Bor@@": 10835, "fact@@": 10836, "Small": 10837, "logged": 10838, "Peace": 10839, "Running": 10840, "experimental": 10841, "gan@@": 10842, "declare": 10843, "La": 10844, "6-@@": 10845, "ming@@": 10846, "Traditional": 10847, "this..": 10848, "torture": 10849, "tered": 10850, "AY@@": 10851, "shiny": 10852, "drawer": 10853, "bouquet": 10854, "........": 10855, "/he": 10856, "spices": 10857, "Norwegian": 10858, "novel@@": 10859, "tenses": 10860, "disappoint": 10861, "website@@": 10862, "THIS": 10863, "Lisa": 10864, "postgraduate": 10865, "kitty": 10866, "ker@@": 10867, "Dol@@": 10868, "tricks": 10869, "Yor@@": 10870, "osa@@": 10871, "Happ@@": 10872, "oyster": 10873, "vous": 10874, "kong": 10875, "PP@@": 10876, "doughnuts": 10877, "sooooo": 10878, "uta": 10879, "day...": 10880, "friend.": 10881, "zawa": 10882, "③": 10883, "'n": 10884, "Tea": 10885, "sleepiness": 10886, "WBC": 10887, "inger": 10888, "way.": 10889, "latte": 10890, "memor@@": 10891, "Curry": 10892, "oily": 10893, "horn": 10894, "cicada": 10895, "Ⅱ": 10896, "raccoon": 10897, "Grade": 10898, "Further": 10899, "commun@@": 10900, "warn": 10901, "objec@@": 10902, "Thir@@": 10903, "hardware": 10904, "ior": 10905, "loses": 10906, "1997": 10907, "home-@@": 10908, "reactions": 10909, "constructing": 10910, "revolutionary": 10911, "vation": 10912, "accuracy": 10913, "judgement": 10914, "depended": 10915, "eff@@": 10916, "marke@@": 10917, "eighteen": 10918, "exclusive": 10919, "cab@@": 10920, "unusually": 10921, "Martin": 10922, "prom@@": 10923, "counties": 10924, "examination@@": 10925, "wit@@": 10926, "masters": 10927, "architec@@": 10928, "outs": 10929, "Keeping": 10930, "strong@@": 10931, "eries": 10932, "repe@@": 10933, "unities": 10934, "oph@@": 10935, "liber@@": 10936, "alists": 10937, "wiped": 10938, "adm@@": 10939, "bare": 10940, "Wind": 10941, "scape": 10942, "scan": 10943, "ently@@": 10944, "PE@@": 10945, "agu@@": 10946, "Than": 10947, "recite": 10948, "ain": 10949, "sati@@": 10950, "ican": 10951, "sensation": 10952, "Unfortun@@": 10953, "conditioning": 10954, "Season": 10955, "wasabi": 10956, "city,@@": 10957, "lou@@": 10958, "Bridge": 10959, "bil@@": 10960, "nasty": 10961, "happy,@@": 10962, "dece@@": 10963, "seki": 10964, "know.": 10965, "linguistic": 10966, "pupil": 10967, "so-@@": 10968, "te.": 10969, "bili@@": 10970, "30minutes": 10971, "jap@@": 10972, "reviews": 10973, "m,": 10974, "litt@@": 10975, "cold..": 10976, "iTunes": 10977, "eggplant": 10978, "TOKYO": 10979, "Haneda": 10980, "kyu": 10981, "Gundam": 10982, "wines": 10983, "Woman": 10984, "Cameron": 10985, "JR": 10986, "avocado": 10987, "Check": 10988, "po": 10989, "Aussie": 10990, "controlling": 10991, "tee": 10992, "ough@@": 10993, "proven": 10994, "lessen": 10995, "Long@@": 10996, "sour@@": 10997, "reviewing": 10998, "Major": 10999, "unlikely": 11000, "terrorists": 11001, "stored": 11002, "Cab@@": 11003, "visions": 11004, "bombs": 11005, "1996": 11006, "singap@@": 11007, "unemployed": 11008, "males": 11009, "Comparing": 11010, "old@@": 11011, "severely": 11012, "Mobile": 11013, "trace": 11014, "spouse": 11015, "restore": 11016, "mentality": 11017, "stem": 11018, "suspicious": 11019, "categories": 11020, "tus": 11021, "clinical": 11022, "blocked": 11023, "patent": 11024, "behaviour": 11025, "chaos": 11026, "Harvard": 11027, "coinci@@": 11028, "Library": 11029, "Naka@@": 11030, "tionally": 11031, "py": 11032, "ony": 11033, "cord": 11034, "etc...": 11035, "greedy": 11036, "compensation": 11037, "Por@@": 11038, "counts": 11039, "m.@@": 11040, "Pr@@": 11041, "Exchange": 11042, "stered": 11043, "gie": 11044, "Bec@@": 11045, "bury": 11046, "Net": 11047, "chu": 11048, "AF@@": 11049, "ambi@@": 11050, "grabbed": 11051, "bud@@": 11052, "suspended": 11053, "Thanksgiving": 11054, "suit@@": 11055, "changeable": 11056, "olive": 11057, "prin@@": 11058, "tel@@": 11059, "BE": 11060, "JLPT": 11061, "hello@@": 11062, "mped": 11063, "from@@": 11064, "teacher@@": 11065, "kindergarden": 11066, "Guess": 11067, "swept": 11068, "31st": 11069, "ive": 11070, "family@@": 11071, "ceremonies": 11072, "particle": 11073, "too..": 11074, "irrit@@": 11075, "underwear": 11076, "kne@@": 11077, "MI@@": 11078, "onsen": 11079, "outfits": 11080, "web-@@": 11081, "so.": 11082, "dai": 11083, "ago,": 11084, "softball": 11085, "Beach": 11086, "jogged": 11087, "JI": 11088, "seasoned": 11089, "syrup": 11090, "litte": 11091, "cocktail": 11092, "shoots": 11093, "healed": 11094, "threaten": 11095, "coolant": 11096, "SFR": 11097, "intensity": 11098, "resolved": 11099, "resistance": 11100, "Radio": 11101, "criteria": 11102, "formula": 11103, "components": 11104, "operator": 11105, "ious": 11106, "ket@@": 11107, "consumed": 11108, "approved": 11109, "foremost": 11110, "sma@@": 11111, "Excel": 11112, "accurately": 11113, "loads": 11114, "life-@@": 11115, "Self-@@": 11116, "fears": 11117, "nicely": 11118, "q": 11119, "dig@@": 11120, "para@@": 11121, "stren@@": 11122, "fif@@": 11123, "enced": 11124, "migr@@": 11125, "Site": 11126, "advi@@": 11127, "Fol@@": 11128, "arity": 11129, "teammates": 11130, "grap@@": 11131, "alu@@": 11132, "Nov": 11133, "pill": 11134, "ambitious": 11135, "Saudi": 11136, "ron": 11137, "eral": 11138, "×": 11139, "poin@@": 11140, "rid@@": 11141, "Express": 11142, "Changing": 11143, "mastering": 11144, "loser": 11145, "postpone": 11146, "phon@@": 11147, "s....": 11148, "smoked": 11149, "Well,@@": 11150, "moon@@": 11151, "wai@@": 11152, "Son": 11153, "humili@@": 11154, "wrong@@": 11155, "cam": 11156, "tolerance": 11157, "case@@": 11158, "spider": 11159, "/10": 11160, "Person": 11161, "Eg@@": 11162, "expired": 11163, "aun@@": 11164, "aboard": 11165, "iness@@": 11166, "now,": 11167, "USB": 11168, "Tommorow": 11169, "drag": 11170, "Kids": 11171, "Talk": 11172, "literary": 11173, "az@@": 11174, "wrapping": 11175, "actresses": 11176, "Outside": 11177, "chopped": 11178, "tear@@": 11179, "Doing": 11180, "cha-@@": 11181, "mango": 11182, "coldest": 11183, "refund": 11184, "peacefully": 11185, "sima": 11186, "shave": 11187, "3.11": 11188, "Miso": 11189, "wrestlers": 11190, "all,@@": 11191, "beat@@": 11192, "Jin@@": 11193, "pleasantly": 11194, "LDP": 11195, "potter": 11196, "Baby": 11197, "ssions": 11198, "Medical": 11199, "sul@@": 11200, "planes": 11201, "spoil": 11202, "simultaneously": 11203, "wheels": 11204, "achieving": 11205, "MRT": 11206, "accomplished": 11207, "fails": 11208, "emotionally": 11209, "Dec@@": 11210, "sus": 11211, "supporters": 11212, "lations": 11213, "laying": 11214, "departments": 11215, "gger": 11216, "charges": 11217, "thor@@": 11218, "dead@@": 11219, "chang": 11220, "Ed@@": 11221, "burnt": 11222, "homemade": 11223, "Tre@@": 11224, "ef": 11225, "10000": 11226, "exaggerated": 11227, "melting": 11228, "organizing": 11229, "flows": 11230, "motive": 11231, "refle@@": 11232, "parcel": 11233, "bothers": 11234, "collec@@": 11235, "loaded": 11236, "bore": 11237, "pow@@": 11238, "Hal@@": 11239, "old-fashioned": 11240, "go.": 11241, "hugging": 11242, "Learn": 11243, "inds": 11244, "orian": 11245, "sque": 11246, "sacred": 11247, "Americ@@": 11248, "mock": 11249, "box@@": 11250, "calculation": 11251, "delightful": 11252, "fabric": 11253, "Catholic": 11254, "Kitty": 11255, "alo@@": 11256, "doubted": 11257, "wol@@": 11258, "nap@@": 11259, "istic": 11260, "patri@@": 11261, "cle": 11262, "wolf": 11263, "Northern": 11264, "swim@@": 11265, "x-@@": 11266, "tours": 11267, "envious": 11268, "sandals": 11269, "Heian": 11270, "￥": 11271, "000yen": 11272, "locker": 11273, "irregular": 11274, "fountain": 11275, "YU@@": 11276, "ipad": 11277, "Rakugo": 11278, "Aomori": 11279, "roe": 11280, "judges": 11281, "sual": 11282, "xi": 11283, "sustain": 11284, "arise": 11285, "centers": 11286, "spi@@": 11287, "MSR": 11288, "advances": 11289, "sharply": 11290, "IF@@": 11291, "Silver": 11292, "sers": 11293, "guards": 11294, "compromise": 11295, "accumulate": 11296, "emer@@": 11297, "asset": 11298, "Program": 11299, "1980": 11300, "organi@@": 11301, "dne@@": 11302, "particles": 11303, "grounds": 11304, "conv@@": 11305, "strea@@": 11306, "Sec@@": 11307, "yak@@": 11308, "sensor": 11309, "mili@@": 11310, "cers": 11311, "grams": 11312, "20s": 11313, "geo@@": 11314, "meantime": 11315, "renewal": 11316, "eding": 11317, "ene": 11318, "copied": 11319, "idi@@": 11320, "comprehend": 11321, "toilets": 11322, "shuttle": 11323, "ounded": 11324, "layout": 11325, "Country": 11326, "Heart": 11327, "understands": 11328, "mount": 11329, "reali@@": 11330, "Belgium": 11331, "mac": 11332, "journal@@": 11333, "time-@@": 11334, "nei@@": 11335, "extract": 11336, "alco@@": 11337, "dul@@": 11338, "bree@@": 11339, "CE": 11340, "bullied": 11341, "stubborn": 11342, "bout": 11343, "Arts": 11344, "toes": 11345, "teen@@": 11346, "bark": 11347, "copies": 11348, "sudden@@": 11349, "grain": 11350, "tomb": 11351, "stalls": 11352, "VOA": 11353, "diffcult": 11354, "ople": 11355, "usa": 11356, "consulted": 11357, "bumped": 11358, "yesterday,I": 11359, "nowdays": 11360, "thrilled": 11361, "LOVE": 11362, "name.": 11363, "stoc@@": 11364, "lantern": 11365, "do-@@": 11366, "dou": 11367, "sten": 11368, "At@@": 11369, "Ital@@": 11370, "anxi@@": 11371, "viet@@": 11372, "trailer": 11373, "Vienna": 11374, "done@@": 11375, "chased": 11376, "ago.": 11377, "eting": 11378, "bow@@": 11379, "mac@@": 11380, "hus@@": 11381, "『": 11382, "Ryu@@": 11383, "ference": 11384, "Taro": 11385, "ango": 11386, "coupon": 11387, "TEPCO": 11388, "superstition": 11389, "Gion": 11390, "limiting": 11391, "hiring": 11392, "foster": 11393, "resolutions": 11394, "ail@@": 11395, "extensive": 11396, "weaker": 11397, "industri@@": 11398, "fusion": 11399, "Hospital": 11400, "exac@@": 11401, "anian": 11402, "tunnel": 11403, "exceptions": 11404, "Till": 11405, "alling": 11406, "stand@@": 11407, "sequ@@": 11408, "Nobel": 11409, "awards": 11410, "logi@@": 11411, "worthwhile": 11412, "tail@@": 11413, "visu@@": 11414, "22nd": 11415, "Sex": 11416, "appealing": 11417, "attracting": 11418, "brow@@": 11419, "Sch@@": 11420, "cabin": 11421, "cry@@": 11422, "ttered": 11423, "negotiate": 11424, "Economics": 11425, "sorts": 11426, "ice-@@": 11427, "worlds": 11428, "cite": 11429, "Therefore@@": 11430, "colours": 11431, "Hom@@": 11432, "Thomas": 11433, "Ori@@": 11434, "despair": 11435, "vin": 11436, "self-confidence": 11437, "en.": 11438, "yahoo": 11439, "pretending": 11440, "outside@@": 11441, "accomplishment": 11442, "curse": 11443, "/or": 11444, "sian": 11445, "naive": 11446, "mint": 11447, "brother@@": 11448, "org@@": 11449, "ed.": 11450, "money.": 11451, "butterflies": 11452, ",where": 11453, "Lucky": 11454, "shrimps": 11455, "needle": 11456, "Scotland": 11457, "opped": 11458, "centi@@": 11459, "geek": 11460, "lesson@@": 11461, "sama": 11462, "embassy": 11463, "liqu@@": 11464, "story@@": 11465, "fame": 11466, "outh": 11467, "ord": 11468, "Photo": 11469, "delici@@": 11470, "heav@@": 11471, "Japan..": 11472, "dip": 11473, "Tochigi": 11474, "Wri@@": 11475, "Westerners": 11476, "questionnaire": 11477, "00PM": 11478, "Kabuki": 11479, "TOYOTA": 11480, "intonation": 11481, "sam@@": 11482, "Himeji": 11483, "cuisines": 11484, "AVATAR": 11485, "filial": 11486, "flooded": 11487, "readily": 11488, "kills": 11489, "lli@@": 11490, "arily": 11491, "Chan@@": 11492, "tedly": 11493, "mul@@": 11494, "crack": 11495, "caution": 11496, "hiro": 11497, "chewing": 11498, "secre@@": 11499, "skins": 11500, "Top": 11501, "poisoning": 11502, "navy": 11503, "fitting": 11504, "demonstration": 11505, "blessed": 11506, "illu@@": 11507, "mentary": 11508, "featured": 11509, "Cro@@": 11510, "nutri@@": 11511, "irritating": 11512, "rock@@": 11513, "Vol@@": 11514, "EE@@": 11515, "Sadly": 11516, "hypothesis": 11517, "casino": 11518, "Sin@@": 11519, "booking": 11520, "messenger": 11521, "es,and": 11522, "ssy": 11523, "blond": 11524, "width": 11525, "Place": 11526, "ure@@": 11527, "Trip": 11528, "wro@@": 11529, "immedi@@": 11530, "snowman": 11531, "comer": 11532, "TER": 11533, "cake@@": 11534, "mainland": 11535, "holiday@@": 11536, "basement": 11537, "Jin": 11538, "flav@@": 11539, "sister@@": 11540, "column": 11541, "yest@@": 11542, "erious": 11543, "noises": 11544, "pigs": 11545, "ó": 11546, "guitarist": 11547, "SHO@@": 11548, "thday": 11549, "imaginary": 11550, "が": 11551, "de-@@": 11552, "drin@@": 11553, "act@@": 11554, "Bun@@": 11555, "cows": 11556, "oversleep": 11557, "faint": 11558, "Temp@@": 11559, "kou@@": 11560, "rised": 11561, "may@@": 11562, "feminine": 11563, "pes": 11564, "zuki": 11565, "kura": 11566, "ume": 11567, "disliked": 11568, "soaking": 11569, "zuka": 11570, "paperbacks": 11571, "Nak@@": 11572, "K-@@": 11573, "brass": 11574, "31th": 11575, "ー": 11576, "ch.": 11577, "Jay": 11578, "Ak@@": 11579, "pitcher": 11580, "tired@@": 11581, "Charlie": 11582, "Nepal": 11583, "Aki@@": 11584, "gol@@": 11585, "optimi@@": 11586, "resulting": 11587, "uncommon": 11588, "accessible": 11589, "implementation": 11590, "Bou@@": 11591, "Op@@": 11592, "pros": 11593, "lacks": 11594, "tech": 11595, "treat@@": 11596, "businessmen": 11597, "uncertain": 11598, "fortunate": 11599, "opo@@": 11600, "six@@": 11601, "obe@@": 11602, "publi@@": 11603, "recycling": 11604, "BS": 11605, "shield": 11606, "gul@@": 11607, "Studies": 11608, "High@@": 11609, "integrated": 11610, "kie": 11611, "shar@@": 11612, "esti@@": 11613, "intimate": 11614, "Imagine": 11615, "stead": 11616, "ices": 11617, "Cra@@": 11618, "a.@@": 11619, "grant": 11620, "mur@@": 11621, "pir@@": 11622, "alle@@": 11623, "index": 11624, "casted": 11625, "repu@@": 11626, "scri@@": 11627, "hy": 11628, "ship@@": 11629, "adul@@": 11630, "Mit@@": 11631, "trusted": 11632, "sessions": 11633, "2,000": 11634, "21@@": 11635, "WW@@": 11636, "announ@@": 11637, "Video": 11638, "LAN": 11639, "travelled": 11640, "Norway": 11641, "CA@@": 11642, "excuses": 11643, "pops": 11644, "vegetarian": 11645, "remain@@": 11646, "ince": 11647, "upside": 11648, "subscribe": 11649, "harmon@@": 11650, "homesick": 11651, "ghten": 11652, "truth@@": 11653, "wool": 11654, "arrives": 11655, "icult": 11656, "persuaded": 11657, "addi@@": 11658, "thing..": 11659, "Johnny": 11660, "text@@": 11661, "seated": 11662, "lord": 11663, "Ghost": 11664, "scholar": 11665, "hamster": 11666, "ace@@": 11667, "whe@@": 11668, "freak": 11669, "coldness": 11670, "element@@": 11671, "quarreled": 11672, "fights": 11673, "bacon": 11674, "ffe@@": 11675, "dancers": 11676, "sitcom": 11677, "terrific": 11678, "heroes": 11679, "speciality": 11680, "ato@@": 11681, "n-@@": 11682, "dvd": 11683, "chri@@": 11684, "table@@": 11685, "because@@": 11686, "Plea@@": 11687, "Ever@@": 11688, "tu": 11689, "ve.": 11690, "iner": 11691, "refrain": 11692, "katsu": 11693, "Iwate": 11694, "flavored": 11695, "cucumbers": 11696, "vaguely": 11697, "Nar@@": 11698, "but,@@": 11699, "Toy": 11700, "eels": 11701, "1000yen": 11702, "their@@": 11703, "Labor": 11704, "46": 11705, "concluded": 11706, "chemicals": 11707, "conception": 11708, "Nonetheless": 11709, "malls": 11710, "demanded": 11711, "analyzing": 11712, "clou@@": 11713, "econom@@": 11714, "aling": 11715, "initi@@": 11716, "Ly@@": 11717, "par": 11718, "recei@@": 11719, "impro@@": 11720, "thirteen": 11721, "Jones": 11722, "alizing": 11723, "20,000": 11724, "D-@@": 11725, "deadly": 11726, "ards": 11727, "exercised": 11728, "ories": 11729, "distinctive": 11730, "stat@@": 11731, "responded": 11732, "checks": 11733, "upcoming": 11734, "double-@@": 11735, "leaking": 11736, "stroll": 11737, "adjusted": 11738, "democracy": 11739, "Inside": 11740, "Tigers": 11741, "policemen": 11742, "Af@@": 11743, "executive": 11744, "Amer@@": 11745, "ary@@": 11746, "-like": 11747, "robbed": 11748, "Example": 11749, "hand-@@": 11750, "handy": 11751, "mind@@": 11752, "Short": 11753, "article@@": 11754, "Poor": 11755, "scar": 11756, "teens": 11757, "paints": 11758, "basi@@": 11759, "strawberries": 11760, "Stu@@": 11761, "Play": 11762, "Were": 11763, "Cat": 11764, "pals": 11765, "exhibited": 11766, "thes": 11767, "amazingly": 11768, "Dal@@": 11769, "wash@@": 11770, "girlfriends": 11771, "hosted": 11772, "mangas": 11773, "import@@": 11774, "Princess": 11775, "medals": 11776, "iPhone4": 11777, "bian": 11778, "yness": 11779, "Wedding": 11780, "Between": 11781, "ggle": 11782, "faithful": 11783, "Austria": 11784, "crap": 11785, "ESS": 11786, "ATE": 11787, "scal@@": 11788, "stuff@@": 11789, "Saint": 11790, "UFO": 11791, "so-so": 11792, "defen@@": 11793, "Hayao": 11794, "pasted": 11795, "arcade": 11796, "Hei@@": 11797, "leather": 11798, "habit@@": 11799, "motto": 11800, "Pic@@": 11801, "futsal": 11802, "yet@@": 11803, "oma": 11804, "will@@": 11805, "Vic@@": 11806, "bookstores": 11807, "100yen": 11808, "condo": 11809, "sentimental": 11810, "HDD": 11811, "kar@@": 11812, "22th": 11813, "Hyogo": 11814, "scuba": 11815, "aftershock": 11816, "muggy": 11817, "oku@@": 11818, "aqu@@": 11819, "hilarious": 11820, ",,,,@@": 11821, "―": 11822, "soon.": 11823, "bei": 11824, "Caribbean": 11825, "sesame": 11826, "Jeju": 11827, "ambiguous": 11828, "instruc@@": 11829, "serendipitous": 11830, "dealt": 11831, "Fund": 11832, "revealing": 11833, "Economic": 11834, "contributing": 11835, "sectors": 11836, "propo@@": 11837, "appearances": 11838, "depressing": 11839, "equality": 11840, "guchi": 11841, "10.@@": 11842, "pedestrians": 11843, "Building": 11844, "achievements": 11845, "substances": 11846, "inherited": 11847, "belongings": 11848, "demanding": 11849, "outer": 11850, "preci@@": 11851, "insomnia": 11852, "illustrate": 11853, "nine@@": 11854, "Given": 11855, "68": 11856, "farther": 11857, "dangers": 11858, "respective": 11859, "Practice": 11860, "signals": 11861, "hardworking": 11862, "ecology": 11863, "dump": 11864, "fit@@": 11865, "Particularly": 11866, "crushed": 11867, "scenario": 11868, "rocket": 11869, "5,000": 11870, "forwar@@": 11871, "seni@@": 11872, "oxygen": 11873, "tial": 11874, "donald": 11875, "fitted": 11876, "Swedish": 11877, "deserved": 11878, "nec@@": 11879, "torn": 11880, "Samsung": 11881, "regrets": 11882, "impress": 11883, "Heaven": 11884, "hhh": 11885, "arrow": 11886, "irs": 11887, "n'@@": 11888, "pronoun": 11889, "eda": 11890, "important@@": 11891, "hike": 11892, "rai@@": 11893, "stylist": 11894, "bees": 11895, "shelves": 11896, "Kong@@": 11897, "Ming": 11898, "appearing": 11899, "olympic": 11900, "iler": 11901, "doll@@": 11902, "dealer": 11903, "heels": 11904, "Sherlock": 11905, "bananas": 11906, "bok": 11907, "and..": 11908, "Dr@@": 11909, "depart": 11910, "misunderstandings": 11911, "ku-@@": 11912, "sunburn": 11913, "chestnuts": 11914, "Pirates": 11915, "vendor": 11916, "store@@": 11917, "30AM": 11918, "∀": 11919, "Korea@@": 11920, "zaki": 11921, "Kanazawa": 11922, "Chocolate": 11923, "Present": 11924, "yeon": 11925, "purchasing": 11926, "mination": 11927, "over-@@": 11928, "tment": 11929, "labour": 11930, "intentionally": 11931, "NT@@": 11932, "influential": 11933, "operators": 11934, "retain": 11935, "suffer@@": 11936, "pressures": 11937, "priced": 11938, "green@@": 11939, "suffers": 11940, "logists": 11941, "rop@@": 11942, "101": 11943, "rei@@": 11944, "richer": 11945, "concentrating": 11946, "villages": 11947, "esting": 11948, "tags": 11949, "verbal": 11950, "berg": 11951, "eling": 11952, "sticking": 11953, "impo@@": 11954, "dless": 11955, "circles": 11956, "Bal@@": 11957, "biological": 11958, "fts": 11959, "exchanges": 11960, "chal@@": 11961, "offensive": 11962, "l-@@": 11963, "helpless": 11964, "2.5": 11965, "success@@": 11966, "allow@@": 11967, "ctive": 11968, "mous": 11969, "Dom@@": 11970, "Michel": 11971, "versions": 11972, "bec@@": 11973, "Oc@@": 11974, "Far@@": 11975, "Ay@@": 11976, "gardening": 11977, "council": 11978, "stimulus": 11979, "assembly": 11980, "treats": 11981, "hiko": 11982, "after-@@": 11983, "tenth": 11984, "wrist": 11985, "TI@@": 11986, "Israel": 11987, "garage": 11988, "sheep@@": 11989, "ni": 11990, "nick": 11991, "ers.": 11992, "Dan": 11993, "pa": 11994, "TIME": 11995, "disc": 11996, "ruins": 11997, "alit@@": 11998, "ENT": 11999, "everyday@@": 12000, "spac@@": 12001, "yle": 12002, "strings": 12003, "Yellow": 12004, "curi@@": 12005, "remark": 12006, "maki": 12007, "candle": 12008, "ecu@@": 12009, "mayor": 12010, "twisted": 12011, "teenth": 12012, "Any@@": 12013, "neck@@": 12014, "her.": 12015, "Gri@@": 12016, "japanese@@": 12017, "drying": 12018, "menus": 12019, "wandered": 12020, "kyu@@": 12021, "sneakers": 12022, "dun@@": 12023, "excercise": 12024, "home.": 12025, "pref": 12026, "Nag@@": 12027, "soy@@": 12028, "ASHI": 12029, "Dome": 12030, "gyoza": 12031, "resent@@": 12032, "AWA": 12033, "TH": 12034, "fourteen": 12035, "discri@@": 12036, "not.": 12037, "Haiku": 12038, "clicked": 12039, "fm": 12040, "hometown@@": 12041, "shanghai": 12042, "costly": 12043, "illumination": 12044, "corruption": 12045, "-to-@@": 12046, "fertility": 12047, "47": 12048, "1985": 12049, "wheelchair": 12050, "immature": 12051, "poorer": 12052, "Same": 12053, "abused": 12054, "Wil@@": 12055, "overwhelming": 12056, "cative": 12057, "noticing": 12058, "sends": 12059, "onic": 12060, "-and-@@": 12061, "dump@@": 12062, "Sing@@": 12063, "significance": 12064, "deter@@": 12065, "globe": 12066, "headset": 12067, "housewives": 12068, "cts": 12069, "filed": 12070, "Army": 12071, "temptation": 12072, "parti@@": 12073, "Wal@@": 12074, "controller": 12075, "pay@@": 12076, "expose": 12077, "connections": 12078, "outdoors": 12079, "deserves": 12080, "iring": 12081, "failures": 12082, "motiva@@": 12083, "dam": 12084, "recruit": 12085, "cost@@": 12086, "bid": 12087, "ghtly": 12088, "AP": 12089, "persist": 12090, "und": 12091, "ao@@": 12092, "scandal": 12093, "Entrance": 12094, "asa@@": 12095, "ss.": 12096, "bully": 12097, "Near": 12098, "deed": 12099, "lei@@": 12100, "hugged": 12101, "Believe": 12102, "gle": 12103, "10km": 12104, "tness": 12105, "Dark": 12106, "envelope": 12107, "downstairs": 12108, "daughter@@": 12109, "Period": 12110, "conversa@@": 12111, "-men": 12112, "Proficiency": 12113, "pubs": 12114, "addict": 12115, "awfully": 12116, "Christ": 12117, "diplom@@": 12118, "fai@@": 12119, "governor": 12120, "Ura@@": 12121, "middle-@@": 12122, "him..": 12123, "yelling": 12124, "kun@@": 12125, "mail@@": 12126, "casts": 12127, "tomorrow.": 12128, "↑": 12129, "Oden": 12130, "Hanshin": 12131, "broiled": 12132, "pedal": 12133, "ira": 12134, "merry": 12135, "KI@@": 12136, "Fish": 12137, "Haiti": 12138, "pandas": 12139, "gig": 12140, "Chinese-@@": 12141, "cock": 12142, "poses": 12143, "yers": 12144, "flexibility": 12145, "auth@@": 12146, "devastated": 12147, "impose": 12148, "mitting": 12149, "mus": 12150, "promises": 12151, "eliminate": 12152, "PR": 12153, "critics": 12154, "dete@@": 12155, "airplanes": 12156, "codes": 12157, "shorten": 12158, "assa@@": 12159, "Lin@@": 12160, "ghts": 12161, "tious": 12162, "backpack": 12163, "struc@@": 12164, "Sol@@": 12165, "ves@@": 12166, "Buy": 12167, "strained": 12168, "Senior": 12169, "diag@@": 12170, "inging": 12171, "fearful": 12172, "sole": 12173, "sailing": 12174, "Cooking": 12175, "enjoy@@": 12176, "tching": 12177, "clumsy": 12178, "chers": 12179, "ice-cream": 12180, "Cat@@": 12181, "area@@": 12182, "elly": 12183, "85": 12184, "duction": 12185, "infinite": 12186, "Mun@@": 12187, "behaved": 12188, "tempo": 12189, "del": 12190, "N'T": 12191, "abroad@@": 12192, "bank@@": 12193, "Name": 12194, "DAY": 12195, "dian": 12196, "congratulate": 12197, "hairs": 12198, "diffr@@": 12199, "tapes": 12200, "aching": 12201, "tup": 12202, "batter": 12203, "Boo@@": 12204, "maths": 12205, "eternal": 12206, "Inception": 12207, "forbidden": 12208, "Lion": 12209, "triangle": 12210, "tired..": 12211, "diploma": 12212, "Coast": 12213, "shark": 12214, "porridge": 12215, "composer": 12216, "billi@@": 12217, "30pm": 12218, "ment.": 12219, "aka@@": 12220, "kore@@": 12221, "internation@@": 12222, "skinny": 12223, "Angels": 12224, "hum@@": 12225, "Garden": 12226, "___": 12227, "more.": 12228, "you..": 12229, "comic@@": 12230, "ly...": 12231, "tiful": 12232, "crown": 12233, "fel@@": 12234, "d'@@": 12235, "surround": 12236, "Kenji": 12237, "ash": 12238, "apologi@@": 12239, "creepy": 12240, "confessed": 12241, "accu@@": 12242, "Level": 12243, "ja": 12244, "yen@@": 12245, "spark@@": 12246, "old.": 12247, "heel": 12248, "ridden": 12249, "cold@@": 12250, "Acu@@": 12251, "yesterday.": 12252, "ffle": 12253, "Osechi": 12254, "Gunma": 12255, "choir": 12256, "moisture": 12257, "MJ": 12258, "Xi@@": 12259, "Izu": 12260, "trou@@": 12261, "juggling": 12262, "Billy": 12263, "toothache": 12264, "basil": 12265, "Ibaraki": 12266, "Kyo@@": 12267, "vering": 12268, "ale@@": 12269, "_____": 12270, "detect": 12271, "indirectly": 12272, "schemes": 12273, "ager": 12274, "materi@@": 12275, "los": 12276, "easing": 12277, "43": 12278, "revised": 12279, "sub-@@": 12280, "bloo@@": 12281, "free-@@": 12282, "lux@@": 12283, "mist": 12284, "1970": 12285, "Mostly": 12286, "dela@@": 12287, "servic@@": 12288, "persi@@": 12289, "Roc@@": 12290, "extension": 12291, "Watch": 12292, "miss@@": 12293, "mold": 12294, "youngsters": 12295, "Daily": 12296, "determination": 12297, "dim": 12298, "confront": 12299, "chairman": 12300, "long-distance": 12301, "Engl@@": 12302, "NOW": 12303, "diamond": 12304, "Read": 12305, "entertain@@": 12306, "everyone@@": 12307, "expla@@": 12308, "ME@@": 12309, "scra@@": 12310, "Cel@@": 12311, "ella": 12312, "ens@@": 12313, "ION": 12314, "ax@@": 12315, "Finding": 12316, "blow@@": 12317, "school.": 12318, "chew": 12319, "sausage": 12320, "team@@": 12321, "ssa": 12322, "mastered": 12323, "extre@@": 12324, "relax@@": 12325, "u.": 12326, "otaku": 12327, "smi@@": 12328, "bles": 12329, "stereotype": 12330, "event@@": 12331, "mond": 12332, "tour@@": 12333, "goldfish": 12334, "snakes": 12335, "inning": 12336, "fort": 12337, "ffs": 12338, "KS": 12339, "Java": 12340, "Absolutely": 12341, "class.": 12342, "cheerfully": 12343, "nano": 12344, "salsa": 12345, "English...": 12346, "vowel": 12347, "myth": 12348, "pots": 12349, "typhoons": 12350, ",let": 12351, "YUK@@": 12352, "Oh,@@": 12353, "POP": 12354, "ret": 12355, "Avril": 12356, "resemble": 12357, "recital": 12358, "MacBook": 12359, "contributions": 12360, "Whereas": 12361, "Act": 12362, "landing": 12363, "initiative": 12364, "deaths": 12365, "GM": 12366, "True": 12367, "investing": 12368, "independently": 12369, "disorders": 12370, "CIT@@": 12371, "widespread": 12372, "missions": 12373, "33@@": 12374, "xing": 12375, "leaked": 12376, "ile": 12377, "backup": 12378, "teamwork": 12379, "acceptance": 12380, "Fast": 12381, "alty": 12382, "MS@@": 12383, "process@@": 12384, "twilight": 12385, "replacement": 12386, "dium": 12387, "light@@": 12388, "activi@@": 12389, "kilometer": 12390, "atom@@": 12391, "ed-@@": 12392, "ration": 12393, "pulling": 12394, "Sil@@": 12395, "AMA": 12396, "unpredictable": 12397, "polar": 12398, "Valley": 12399, "venue": 12400, "55@@": 12401, "-1": 12402, "BF": 12403, "Cut": 12404, "coaster": 12405, "interrupt": 12406, "descri@@": 12407, "note@@": 12408, "hook": 12409, "opinion@@": 12410, "Neither": 12411, "som": 12412, "kish": 12413, "prac@@": 12414, "Twilight": 12415, "Grand@@": 12416, "draw@@": 12417, "a,": 12418, "Engilsh": 12419, "aliens": 12420, "ool": 12421, "you,@@": 12422, "cation@@": 12423, "tion..": 12424, "rich@@": 12425, "is.": 12426, "halloween": 12427, "night.": 12428, "damp": 12429, "desks": 12430, "takoyaki": 12431, "frea@@": 12432, "Daniel": 12433, "eria": 12434, "disgu@@": 12435, "trainee": 12436, "Bab@@": 12437, "asia": 12438, "Asa@@": 12439, "de.": 12440, "Bang": 12441, "Mario": 12442, "year..": 12443, "elbow": 12444, "diary..": 12445, "centimeters": 12446, "Magic": 12447, "veranda": 12448, "examiner": 12449, "earthqu@@": 12450, "Soccer": 12451, "Store": 12452, "sidewalk": 12453, "Got": 12454, "darts": 12455, "condominium": 12456, "SS@@": 12457, "yakiniku": 12458, "earthquake@@": 12459, "adviser": 12460, "evey@@": 12461, "Kagawa": 12462, "Miy@@": 12463, "natur@@": 12464, "saka": 12465,
[...]
