{"<Lua heritage>": 0, "<pad>": 1, "</s>": 2, "<unk>": 3, ".": 4, "I": 5, ",": 6, "the": 7, "to": 8, "a": 9, "and": 10, "\"": 11, "is": 12, "of": 13, "in": 14, "my": 15, "it": 16, "that": 17, ")": 18, "was": 19, "(": 20, "for": 21, "you": 22, "have": 23, "n't": 24, "'s": 25, "this": 26, "are": 27, "!": 28, "with": 29, "?": 30, "but": 31, "not": 32, "on": 33, "do": 34, "me": 35, "be": 36, "so": 37, "English": 38, "It": 39, "at": 40, "The": 41, "can": 42, "about": 43, "will": 44, "like": 45, "or": 46, "we": 47, "as": 48, "very": 49, "'m": 50, "time": 51, "because": 52, "from": 53, "an": 54, "people": 55, "think": 56, "had": 57, ":": 58, "more": 59, "they": 60, "by": 61, "there": 62, "want": 63, "one": 64, "Japanese": 65, "he": 66, "when": 67, "would": 68, "am": 69, "some": 70, "\\": 71, "what": 72, "But": 73, "good": 74, "go": 75, "has": 76, "them": 77, "if": 78, "know": 79, "could": 80, "were": 81, "many": 82, "which": 83, "say": 84, "My": 85, "all": 86, "who": 87, "been": 88, "their": 89, "This": 90, "day": 91, "her": 92, "went": 93, "Japan": 94, "In": 95, "also": 96, "So": 97, "did": 98, "other": 99, "up": 100, "she": 101, "just": 102, "use": 103, "get": 104, "We": 105, "your": 106, "first": 107, "'": 108, "really": 109, "only": 110, "his": 111, "now": 112, "make": 113, "than": 114, "our": 115, "should": 116, "work": 117, "friends": 118, "lot": 119, "If": 120, "out": 121, "school": 122, "When": 123, "today": 124, "way": 125, "going": 126, "too": 127, "how": 128, "said": 129, "much": 130, "write": 131, "[": 132, "]": 133, "He": 134, "Today": 135, "feel": 136, "after": 137, "new": 138, "ca": 139, "last": 140, "study": 141, "'ve": 142, "see": 143, "year": 144, "And": 145, "There": 146, "friend": 147, "better": 148, "here": 149, "years": 150, "him": 151, "two": 152, "You": 153, "got": 154, "little": 155, "take": 156, "long": 157, "things": 158, "something": 159, "However": 160, "no": 161, "used": 162, "always": 163, "need": 164, "sentence": 165, "made": 166, "'ll": 167, "days": 168, ";": 169, "They": 170, "even": 171, "i": 172, "before": 173, "/@@": 174, "home": 175, "most": 176, "still": 177, "since": 178, "'@@": 179, "any": 180, "well": 181, "life": 182, "understand": 183, "these": 184, "She": 185, "such": 186, "back": 187, "thought": 188, "read": 189, "A": 190, "hope": 191, "^": 192, "What": 193, "next": 194, "hard": 195, "then": 196, "help": 197, "learn": 198, "us": 199, "same": 200, "mean": 201, "/": 202, "every": 203, "After": 204, "into": 205, "able": 206, "does": 207, "job": 208, "love": 209, "why": 210, "writing": 211, "found": 212, "old": 213, "speak": 214, "-": 215, "while": 216, "sure": 217, "try": 218, "never": 219, "words": 220, "word": 221, "different": 222, "world": 223, "diary": 224, "find": 225, "sounds": 226, "over": 227, "happy": 228, "Because": 229, "called": 230, "students": 231, "come": 232, "high": 233, "correct": 234, "language": 235, "*": 236, "person": 237, "studying": 238, "around": 239, "took": 240, "difficult": 241, "live": 242, "started": 243, "though": 244, "house": 245, "movie": 246, "again": 247, "came": 248, "family": 249, "wanted": 250, "where": 251, "eat": 252, "may": 253, "kind": 254, "might": 255, "morning": 256, "Do": 257, "best": 258, "ago": 259, "week": 260, "each": 261, "class": 262, "another": 263, "often": 264, "For": 265, "As": 266, "book": 267, "That": 268, "talk": 269, "means": 270, "food": 271, "place": 272, "few": 273, "myself": 274, "usually": 275, "felt": 276, "night": 277, "important": 278, "thing": 279, "using": 280, "right": 281, "must": 282, ">": 283, "bad": 284, "become": 285, "yesterday": 286, "Chinese": 287, "natural": 288, "big": 289, "someone": 290, "buy": 291, "country": 292, "money": 293, "put": 294, "2": 295, "tell": 296, "company": 297, "reading": 298, "give": 299, "name": 300, "university": 301, "teacher": 302, "learning": 303, "Now": 304, "without": 305, "told": 306, "already": 307, "being": 308, "three": 309, "during": 310, "heard": 311, "watch": 312, "bought": 313, "music": 314, "course": 315, "decided": 316, "its": 317, "...": 318, "One": 319, "At": 320, "sometimes": 321, "keep": 322, "great": 323, "makes": 324, "improve": 325, "looking": 326, "children": 327, "saw": 328, "part": 329, "working": 330, "man": 331, "cold": 332, "student": 333, "<": 334, "asked": 335, "summer": 336, "between": 337, "example": 338, "books": 339, "Tokyo": 340, "'d": 341, "start": 342, "those": 343, "TV": 344, "Then": 345, "look": 346, "bit": 347, "play": 348, "3": 349, "countries": 350, "beautiful": 351, "off": 352, "interesting": 353, "end": 354, "month": 355, "tomorrow": 356, "enjoy": 357, "nice": 358, "foreign": 359, "enough": 360, "until": 361, "story": 362, "soon": 363, "reason": 364, "almost": 365, "~": 366, "How": 367, "down": 368, "=": 369, "hot": 370, "test": 371, "ate": 372, "-@@": 373, "through": 374, "please": 375, "room": 376, "'re": 377, "sentences": 378, "To": 379, "Please": 380, "own": 381, "times": 382, "famous": 383, "On": 384, "hours": 385, "mother": 386, "talking": 387, "especially": 388, "written": 389, "problem": 390, "change": 391, "past": 392, "meet": 393, "both": 394, "Maybe": 395, "city": 396, "future": 397, "parents": 398, "watched": 399, "site": 400, "watching": 401, "tried": 402, "getting": 403, "seems": 404, "American": 405, "Lang-8": 406, "trying": 407, "small": 408, "Although": 409, "Or": 410, "second": 411, "doing": 412, "entry": 413, "game": 414, "order": 415, "1": 416, "speaking": 417, "favorite": 418, "believe": 419, "fun": 420, "anything": 421, "left": 422, "thinking": 423, "Yesterday": 424, "weather": 425, "Korean": 426, "sound": 427, "party": 428, "sleep": 429, "Since": 430, "Is": 431, "car": 432, "having": 433, "office": 434, "living": 435, "instead": 436, "skills": 437, "tired": 438, "water": 439, "together": 440, "interested": 441, "By": 442, "maybe": 443, "wrote": 444, "months": 445, "Some": 446, "busy": 447, "near": 448, "Recently": 449, "gave": 450, "listening": 451, "show": 452, "met": 453, "..": 454, "shop": 455, "it.": 456, "trip": 457, "Anyway": 458, "s.": 459, "everyone": 460, "easy": 461, "recently": 462, "away": 463, "business": 464, "finished": 465, "popular": 466, "train": 467, "care": 468, "looked": 469, "lunch": 470, "news": 471, "forward": 472, "others": 473, "free": 474, "5": 475, "practice": 476, "stay": 477, "experience": 478, "restaurant": 479, "meaning": 480, "girl": 481, "call": 482, "Actually": 483, "exam": 484, "Also": 485, "mind": 486, "wrong": 487, "movies": 488, "early": 489, "Even": 490, "became": 491, "let": 492, "saying": 493, "making": 494, "China": 495, "quite": 496, "son": 497, ",@@": 498, "taking": 499, "10": 500, "4": 501, "picture": 502, "daughter": 503, "New": 504, "yet": 505, "First": 506, "hand": 507, "These": 508, "dinner": 509, "fact": 510, "un@@": 511, "wife": 512, "talked": 513, "young": 514, "listen": 515, "Of": 516, "drink": 517, "ask": 518, "learned": 519, "once": 520, "whether": 521, "minutes": 522, "Korea": 523, "changed": 524, "seen": 525, "problems": 526, "information": 527, "song": 528, "visit": 529, "remember": 530, "everyday": 531, "feeling": 532, "situation": 533, "native": 534, "Therefore": 535, "everything": 536, "playing": 537, "idea": 538, "possible": 539, "case": 540, "short": 541, "surprised": 542, "wish": 543, "season": 544, "college": 545, "enjoyed": 546, "probably": 547, "far": 548, "number": 549, "hear": 550, "abroad": 551, "ever": 552, "holiday": 553, "phone": 554, "less": 555, "power": 556, "actually": 557, "spend": 558, "happened": 559, "half": 560, "Last": 561, "several": 562, "father": 563, "fine": 564, "played": 565, "culture": 566, "coming": 567, "common": 568, "system": 569, "hair": 570, "late": 571, "re@@": 572, "na": 573, "women": 574, "Why": 575, "government": 576, "vacation": 577, "shopping": 578, "computer": 579, "husband": 580, "lives": 581, "eating": 582, "special": 583, "weekend": 584, "nothing": 585, "front": 586, "bed": 587, "point": 588, "languages": 589, "area": 590, "wonder": 591, "30": 592, "chance": 593, "face": 594, "studied": 595, "body": 596, "child": 597, "Many": 598, "real": 599, "wo": 600, "team": 601, "dream": 602, "sense": 603, "present": 604, "internet": 605, "clothes": 606, "s": 607, "whole": 608, "strange": 609, "woman": 610, "leave": 611, "me.": 612, "rice": 613, "stop": 614, "true": 615, "journal": 616, "teach": 617, "guess": 618, "lots": 619, "held": 620, "age": 621, "OR": 622, "website": 623, "pictures": 624, "rain": 625, "songs": 626, "poor": 627, "strong": 628, "lost": 629, "All": 630, "in@@": 631, ".@@": 632, "conversation": 633, "result": 634, "full": 635, "plan": 636, "sad": 637, "winter": 638, "done": 639, "pay": 640, "store": 641, "men": 642, "travel": 643, "public": 644, "Sometimes": 645, "previous": 646, "english": 647, "S@@": 648, "program": 649, "6": 650, "hour": 651, "easily": 652, "sorry": 653, "town": 654, "four": 655, "check": 656, "least": 657, "due": 658, "o": 659, "meeting": 660, "rather": 661, "--": 662, "comes": 663, "finally": 664, "kinds": 665, "answer": 666, "spring": 667, "later": 668, "earthquake": 669, "America": 670, "question": 671, "bus": 672, "places": 673, "mistakes": 674, "grammar": 675, "weeks": 676, "main": 677, "difference": 678, "coffee": 679, "outside": 680, "worked": 681, "club": 682, "English.": 683, "nuclear": 684, "various": 685, "delicious": 686, "meant": 687, "group": 688, "walk": 689, "health": 690, "members": 691, "works": 692, "games": 693, "funny": 694, "however": 695, "realized": 696, "passed": 697, "birthday": 698, "choose": 699, "worried": 700, "continue": 701, "finish": 702, "society": 703, "Thank": 704, "spent": 705, "looks": 706, "level": 707, "tense": 708, "addition": 709, "alone": 710, "phrase": 711, "arrived": 712, "set": 713, "article": 714, "s@@": 715, "station": 716, "video": 717, "takes": 718, "teachers": 719, "opinion": 720, "excited": 721, "Well": 722, "US": 723, "needed": 724, "above": 725, "snow": 726, "air": 727, "seemed": 728, "ability": 729, "%": 730, "beginning": 731, "classes": 732, "although": 733, "energy": 734, "run": 735, "explain": 736, "either": 737, "20": 738, "close": 739, "sister": 740, "afraid": 741, "expensive": 742, "a@@": 743, "glad": 744, "knew": 745, "heart": 746, "cool": 747, "lesson": 748, "express": 749, "dog": 750, "says": 751, "wear": 752, "under": 753, "Most": 754, "style": 755, "human": 756, "festival": 757, "side": 758, "baby": 759, "questions": 760, "similar": 761, "Not": 762, "wait": 763, "anyone": 764, "five": 765, "o@@": 766, "e@@": 767, "speakers": 768, "drinking": 769, "No": 770, "rest": 771, "score": 772, "began": 773, "People": 774, "A@@": 775, "7": 776, "entries": 777, "here.": 778, "price": 779, "8": 780, "While": 781, "introduce": 782, "foreigners": 783, "quickly": 784, "lived": 785, "known": 786, "useful": 787, "daily": 788, "reasons": 789, "matter": 790, "His": 791, "D": 792, "traditional": 793, "rainy": 794, "education": 795, "Internet": 796, "eyes": 797, "moment": 798, "companies": 799, "usual": 800, "event": 801, "er": 802, "type": 803, "communicate": 804, "cost": 805, "ways": 806, "yen": 807, "I@@": 808, "pretty": 809, "afternoon": 810, "following": 811, "move": 812, "cut": 813, ",I": 814, "Christmas": 815, "time.": 816, "O@@": 817, "Have": 818, "park": 819, "seem": 820, "Finally": 821, "e": 822, "knowledge": 823, "cute": 824, "pass": 825, "fast": 826, "research": 827, "wonderful": 828, "forget": 829, "wan": 830, "open": 831, "waiting": 832, "taken": 833, "paper": 834, "Though": 835, "hospital": 836, "service": 837, "ones": 838, "born": 839, "girls": 840, "Sunday": 841, "simple": 842, "wants": 843, "necessary": 844, "sent": 845, "K@@": 846, "boy": 847, "view": 848, "Just": 849, "tea": 850, "history": 851, "visited": 852, "guy": 853, "bring": 854, "Can": 855, "moved": 856, "large": 857, "University": 858, "starting": 859, "C@@": 860, "nervous": 861, "sea": 862, "de@@": 863, "clear": 864, "goes": 865, "sentence.": 866, "needs": 867, "prepare": 868, "t@@": 869, "stayed": 870, "feelings": 871, "line": 872, "ing": 873, "d@@": 874, "noticed": 875, "voice": 876, "brother": 877, "recommend": 878, "woke": 879, "skill": 880, "taste": 881, "Every": 882, "else": 883, "Kyoto": 884, "i@@": 885, "etc": 886, "married": 887, "ed": 888, "head": 889, "en@@": 890, "technology": 891, "T@@": 892, "Day": 893, "00": 894, "D@@": 895, "k@@": 896, "fish": 897, "send": 898, "warm": 899, "gone": 900, "suddenly": 901, "red": 902, "white": 903, "major": 904, "add": 905, "Year": 906, "turn": 907, "cook": 908, "received": 909, "Our": 910, "M@@": 911, "elderly": 912, "junior": 913, "space": 914, "From": 915, "stopped": 916, "liked": 917, "Are": 918, "kids": 919, "boss": 920, "Saturday": 921, "temperature": 922, "running": 923, "serious": 924, "E@@": 925, "amount": 926, "along": 927, "period": 928, "including": 929, "older": 930, "Before": 931, "Here": 932, "walking": 933, "original": 934, "y@@": 935, "B@@": 936, "evening": 937, "middle": 938, "seeing": 939, "against": 940, "form": 941, "top": 942, "break": 943, "shows": 944, "lose": 945, "ing.": 946, "During": 947, "taught": 948, "goal": 949, "design": 950, "OK": 951, "According": 952, "subject": 953, "building": 954, "French": 955, "completely": 956, "web": 957, "expected": 958, "trouble": 959, "topic": 960, "staff": 961, "P@@": 962, "character": 963, "turned": 964, "Let": 965, "Australia": 966, "&nbsp": 967, ".I": 968, "development": 969, "given": 970, "weight": 971, "training": 972, "post": 973, "title": 974, "light": 975, "share": 976, "sports": 977, "happen": 978, "joined": 979, "points": 980, "prefer": 981, "third": 982, "hotel": 983, "couple": 984, "speaker": 985, "G@@": 986, "film": 987, "comfortable": 988, "beer": 989, "Next": 990, "ten": 991, "doctor": 992, "TOEIC": 993, "process": 994, "inside": 995, "bicycle": 996, "April": 997, "join": 998, "9": 999, "y.": 1000, "support": 1001, "low": 1002, "es": 1003, "except": 1004, "g@@": 1005, "products": 1006, "drank": 1007, "online": 1008, "art": 1009, "social": 1010, "Taiwan": 1011, "expression": 1012, "sky": 1013, "named": 1014, "fall": 1015, "normal": 1016, "H@@": 1017, "Tomorrow": 1018, "boyfriend": 1019, "longer": 1020, "themselves": 1021, "drama": 1022, "pain": 1023, "cause": 1024, "local": 1025, "terrible": 1026, "foods": 1027, "sing": 1028, "mine": 1029, "international": 1030, "photo": 1031, "library": 1032, "among": 1033, "raining": 1034, "heavy": 1035, "road": 1036, "hate": 1037, "PC": 1038, "return": 1039, "Oh": 1040, "lang-8": 1041, "message": 1042, "t": 1043, "perfect": 1044, "green": 1045, "Osaka": 1046, "term": 1047, "Canada": 1048, "catch": 1049, "homework": 1050, "exciting": 1051, "N@@": 1052, "ers": 1053, "+": 1054, "cooking": 1055, "letter": 1056, "ideas": 1057, "cherry": 1058, "speech": 1059, "brought": 1060, "save": 1061, "dictionary": 1062, "market": 1063, "_": 1064, "pronunciation": 1065, "lessons": 1066, "forgot": 1067, "characters": 1068, "clean": 1069, "....": 1070, "sweet": 1071, "teaching": 1072, ",and": 1073, "tonight": 1074, "okay": 1075, "tend": 1076, "hit": 1077, "today.": 1078, "cake": 1079, "graduate": 1080, "exchange": 1081, "agree": 1082, "member": 1083, ",but": 1084, "u@@": 1085, "se@@": 1086, "easier": 1087, "advice": 1088, "black": 1089, "comma": 1090, "the@@": 1091, "text": 1092, "mom": 1093, "May": 1094, "certain": 1095, "verb": 1096, "worse": 1097, "younger": 1098, "attention": 1099, "results": 1100, "caught": 1101, "an@@": 1102, "soccer": 1103, "Thanks": 1104, "plural": 1105, "helped": 1106, "shops": 1107, "holidays": 1108, "decide": 1109, "m": 1110, "likes": 1111, "guys": 1112, "series": 1113, "vocabulary": 1114, "worry": 1115, "Moreover": 1116, "...@@": 1117, "Your": 1118, "environment": 1119, "dance": 1120, "on@@": 1121, "them.": 1122, "Her": 1123, "mistake": 1124, "Friday": 1125, "grade": 1126, "exercise": 1127, "relationship": 1128, "avoid": 1129, "final": 1130, "harder": 1131, "wedding": 1132, "R@@": 1133, "F@@": 1134, "hometown": 1135, "kept": 1136, "street": 1137, "me@@": 1138, "color": 1139, "World": 1140, "m@@": 1141, "blog": 1142, "current": 1143, "ice": 1144, "planning": 1145, "ran": 1146, "L@@": 1147, "supposed": 1148, "cat": 1149, "di@@": 1150, "fell": 1151, "card": 1152, "Good": 1153, "jobs": 1154, "band": 1155, "opportunity": 1156, "related": 1157, "imagine": 1158, "exactly": 1159, "day.": 1160, "be@@": 1161, "choice": 1162, "British": 1163, "p@@": 1164, "spending": 1165, "boring": 1166, "u": 1167, "it@@": 1168, "appreciate": 1169, "flowers": 1170, "areas": 1171, "gets": 1172, "concert": 1173, "huge": 1174, "elementary": 1175, "y": 1176, "attend": 1177, "six": 1178, "100": 1179, "entrance": 1180, "located": 1181, "ri@@": 1182, "specific": 1183, "driving": 1184, "al": 1185, "realize": 1186, "Another": 1187, "won": 1188, "li@@": 1189, "center": 1190, "compared": 1191, "begin": 1192, "March": 1193, "ti@@": 1194, "er@@": 1195, "to@@": 1196, "exams": 1197, "Sorry": 1198, "examination": 1199, "15": 1200, "effort": 1201, "sold": 1202, "Usually": 1203, "gives": 1204, "apartment": 1205, "drive": 1206, "plans": 1207, "national": 1208, "schools": 1209, "U": 1210, "cars": 1211, "al@@": 1212, "stories": 1213, "below": 1214, "based": 1215, "An": 1216, "l": 1217, "animals": 1218, "$": 1219, "breakfast": 1220, "thank": 1221, "e.": 1222, "interview": 1223, "girlfriend": 1224, "enter": 1225, "confused": 1226, "Singapore": 1227, "walked": 1228, "consider": 1229, "t.": 1230, "increase": 1231, "wearing": 1232, "Hello": 1233, "blue": 1234, "Did": 1235, "customers": 1236, "sick": 1237, "swimming": 1238, "helps": 1239, "Monday": 1240, "Yes": 1241, "yourself": 1242, "d.": 1243, "population": 1244, "miss": 1245, "Japan.": 1246, "translate": 1247, "contact": 1248, "c@@": 1249, "Unfortunately": 1250, "ok": 1251, "sleeping": 1252, "Could": 1253, "wind": 1254, "now.": 1255, "hold": 1256, "presentation": 1257, "ly": 1258, "earlier": 1259, "wake": 1260, "accident": 1261, "understood": 1262, "higher": 1263, "listened": 1264, "mountain": 1265, "angry": 1266, "corrected": 1267, "totally": 1268, "With": 1269, "vegetables": 1270, "activities": 1271, "ride": 1272, "field": 1273, "Does": 1274, "dishes": 1275, "thoughts": 1276, "personal": 1277, "communication": 1278, "mentioned": 1279, "stuff": 1280, "expressions": 1281, "lack": 1282, "bath": 1283, "healthy": 1284, "died": 1285, "table": 1286, "twice": 1287, "floor": 1288, "general": 1289, "condition": 1290, "chose": 1291, "truth": 1292, "classmates": 1293, "stand": 1294, "b@@": 1295, "Hi": 1296, "ts": 1297, "sleepy": 1298, "baseball": 1299, "becoming": 1300, "performance": 1301, "cafe": 1302, "caused": 1303, "interest": 1304, "meal": 1305, "medical": 1306, "staying": 1307, "ma@@": 1308, "J@@": 1309, "le@@": 1310, "Skype": 1311, "ha@@": 1312, "B": 1313, "per": 1314, "ting": 1315, "touch": 1316, "checked": 1317, "cup": 1318, "mobile": 1319, "becomes": 1320, "12": 1321, "part-time": 1322, "project": 1323, "Especially": 1324, "si@@": 1325, "ar@@": 1326, "everybody": 1327, "nature": 1328, "door": 1329, "st@@": 1330, "within": 1331, "report": 1332, "slept": 1333, "anymore": 1334, "corrections": 1335, "ceremony": 1336, "grow": 1337, "or@@": 1338, "knows": 1339, "USA": 1340, "wondering": 1341, "quality": 1342, "names": 1343, "hands": 1344, "z@@": 1345, "expect": 1346, "careful": 1347, "parts": 1348, "version": 1349, "ended": 1350, "gotten": 1351, "trees": 1352, "smile": 1353, "economy": 1354, "single": 1355, "deal": 1356, "e-mail": 1357, "n@@": 1358, "shoes": 1359, "studies": 1360, "Which": 1361, "U@@": 1362, "lucky": 1363, "sun": 1364, "department": 1365, "bar": 1366, "player": 1367, "W@@": 1368, "aged": 1369, "l@@": 1370, "sushi": 1371, "God": 1372, "f@@": 1373, "crazy": 1374, "Their": 1375, "chat": 1376, "chocolate": 1377, "broken": 1378, "soup": 1379, "receive": 1380, "follow": 1381, "plants": 1382, "Everyone": 1383, "control": 1384, "formal": 1385, "&": 1386, "comments": 1387, "photos": 1388, "happiness": 1389, "plant": 1390, "differences": 1391, "giving": 1392, "stress": 1393, "cream": 1394, "blossoms": 1395, "August": 1396, "beach": 1397, "showed": 1398, "loved": 1399, "purpose": 1400, "singing": 1401, "definitely": 1402, "action": 1403, "opened": 1404, "satisfied": 1405, "ch@@": 1406, "programs": 1407, "introduced": 1408, "ab@@": 1409, "hurt": 1410, "feels": 1411, "Spanish": 1412, "economic": 1413, "solve": 1414, "step": 1415, "sunny": 1416, "cooked": 1417, "blood": 1418, "Besides": 1419, "recent": 1420, "starts": 1421, "date": 1422, "atmosphere": 1423, "sh@@": 1424, "cell": 1425, "master": 1426, "correction": 1427, "ticket": 1428, "paid": 1429, "somewhere": 1430, "German": 1431, "spoke": 1432, "window": 1433, "someday": 1434, "bread": 1435, "noun": 1436, "positive": 1437, "medicine": 1438, "prepared": 1439, "Note": 1440, "tough": 1441, "issue": 1442, "quit": 1443, "cheap": 1444, "lo@@": 1445, "ated": 1446, "bag": 1447, "behind": 1448, "box": 1449, "win": 1450, "July": 1451, "London": 1452, "tennis": 1453, "gon": 1454, "r@@": 1455, "biggest": 1456, "fresh": 1457, "hardly": 1458, "11": 1459, "weird": 1460, "colleagues": 1461, "ted": 1462, "enjoying": 1463, "confidence": 1464, "ordered": 1465, "workers": 1466, "dreams": 1467, "translation": 1468, "immediately": 1469, "anime": 1470, "la@@": 1471, "returned": 1472, "scene": 1473, "piece": 1474, "50": 1475, "uses": 1476, "describe": 1477, "bike": 1478, "friendly": 1479, "electricity": 1480, "natural.": 1481, "notice": 1482, "articles": 1483, "er.": 1484, "account": 1485, "thanks": 1486, "amazing": 1487, "events": 1488, "negative": 1489, "on.": 1490, "familiar": 1491, "experiences": 1492, "private": 1493, "UK": 1494, "figure": 1495, "meat": 1496, "September": 1497, "method": 1498, "ball": 1499, "mo@@": 1500, "machine": 1501, "particular": 1502, "death": 1503, "k": 1504, "impressed": 1505, "England": 1506, "leaves": 1507, "crowded": 1508, "match": 1509, "P": 1510, "pe@@": 1511, "essay": 1512, "developed": 1513, "waste": 1514, "position": 1515, "Russian": 1516, "female": 1517, "con@@": 1518, "nobody": 1519, "you.": 1520, "relax": 1521, "Second": 1522, "science": 1523, "ing@@": 1524, "costs": 1525, "senior": 1526, "About": 1527, "river": 1528, "at@@": 1529, "traveling": 1530, "sa@@": 1531, "tests": 1532, "moving": 1533, "alcohol": 1534, "phrases": 1535, "traffic": 1536, "proper": 1537, "added": 1538, "sell": 1539, "over@@": 1540, "restaurants": 1541, "simply": 1542, "changes": 1543, "typhoon": 1544, "war": 1545, "June": 1546, "o'clock": 1547, "prefecture": 1548, "fluently": 1549, "considered": 1550, "ca@@": 1551, "rich": 1552, "list": 1553, "asleep": 1554, "guitar": 1555, "v@@": 1556, "sitting": 1557, "'.": 1558, "・": 1559, "Y@@": 1560, "according": 1561, "p": 1562, "spoken": 1563, "happens": 1564, "across": 1565, "land": 1566, "C": 1567, "lead": 1568, "types": 1569, "Perhaps": 1570, "experienced": 1571, "dogs": 1572, "preparing": 1573, "somebody": 1574, "Fortunately": 1575, "h@@": 1576, "rules": 1577, "scared": 1578, "garden": 1579, "hobby": 1580, "camera": 1581, "memories": 1582, "graduated": 1583, "g": 1584, "mi@@": 1585, "lazy": 1586, "whose": 1587, "ra@@": 1588, "modern": 1589, "answered": 1590, ",so": 1591, "memory": 1592, "disappointed": 1593, "families": 1594, "changing": 1595, "More": 1596, "brain": 1597, "unique": 1598, "en": 1599, "professor": 1600, "chicken": 1601, "rate": 1602, "note": 1603, "provide": 1604, "radio": 1605, "planned": 1606, "painting": 1607, "conclusion": 1608, "etc.": 1609, "stores": 1610, "entered": 1611, "mood": 1612, "iPhone": 1613, "co@@": 1614, "state": 1615, "complete": 1616, "milk": 1617, "create": 1618, "dark": 1619, "su@@": 1620, "1st": 1621, "page": 1622, "respect": 1623, "40": 1624, "attended": 1625, "Two": 1626, "dish": 1627, "Who": 1628, "whenever": 1629, "players": 1630, "noodles": 1631, "wa@@": 1632, "global": 1633, "piano": 1634, "pick": 1635, "se": 1636, "Americans": 1637, "DVD": 1638, "heat": 1639, "well.": 1640, "lol": 1641, "cities": 1642, "seat": 1643, "whom": 1644, "himself": 1645, "towards": 1646, "image": 1647, "newspaper": 1648, "effect": 1649, "S": 1650, "letters": 1651, "fan": 1652, "law": 1653, "te@@": 1654, "le": 1655, "South": 1656, "size": 1657, "limited": 1658, "host": 1659, "s,@@": 1660, "broke": 1661, "novel": 1662, "island": 1663, "japanese": 1664, "dangerous": 1665, "safe": 1666, "curry": 1667, "product": 1668, "cultures": 1669, "comment": 1670, "stage": 1671, "January": 1672, "electric": 1673, "understanding": 1674, "houses": 1675, "software": 1676, "es.": 1677, "achieve": 1678, "grammatically": 1679, "th@@": 1680, "convenient": 1681, "role": 1682, "too.": 1683, "fireworks": 1684, "sauce": 1685, "worth": 1686, "ready": 1687, "improving": 1688, "smart": 1689, "smell": 1690, "hobbies": 1691, "develop": 1692, "Thus": 1693, "fever": 1694, "Furthermore": 1695, "buildings": 1696, "search": 1697, "ating": 1698, "unless": 1699, "generation": 1700, "helpful": 1701, "Once": 1702, "professional": 1703, "improved": 1704, "aging": 1705, "police": 1706, "employees": 1707, "itself": 1708, "led": 1709, "therefore": 1710, "lower": 1711, "Both": 1712, "increasing": 1713, "lately": 1714, "stupid": 1715, "better.": 1716, "buying": 1717, "there.": 1718, "j@@": 1719, "recommended": 1720, "goods": 1721, "Europe": 1722, "weak": 1723, "tree": 1724, "reach": 1725, "released": 1726, "ground": 1727, "do@@": 1728, "instance": 1729, "focus": 1730, "decision": 1731, "Facebook": 1732, "accept": 1733, "schedule": 1734, "content": 1735, "wine": 1736, "basic": 1737, "tion.": 1738, "autumn": 1739, "cats": 1740, "midnight": 1741, "s..": 1742, "overseas": 1743, "die": 1744, "'I": 1745, "likely": 1746, "Nowadays": 1747, "closed": 1748, "king": 1749, "terms": 1750, "this.": 1751, "celebrate": 1752, "United": 1753, "competition": 1754, "bored": 1755, "deep": 1756, "concentrate": 1757, "--@@": 1758, "perhaps": 1759, "n": 1760, "dis@@": 1761, "speed": 1762, "semester": 1763, "drunk": 1764, "physical": 1765, "created": 1766, "required": 1767, "a.": 1768, "media": 1769, "honest": 1770, "eaten": 1771, "regret": 1772, "safety": 1773, "progress": 1774, "key": 1775, "practicing": 1776, "rock": 1777, "sales": 1778, "boys": 1779, "luck": 1780, "connect": 1781, "shocked": 1782, "clearly": 1783, "one.": 1784, "lyrics": 1785, "Re@@": 1786, "Its": 1787, "context": 1788, "cards": 1789, "dancing": 1790, "2009": 1791, "ta@@": 1792, "fully": 1793, "3@@": 1794, "Italian": 1795, "that.": 1796, "offer": 1797, "till": 1798, "race": 1799, "total": 1800, "effective": 1801, "subjects": 1802, "opportunities": 1803, "charge": 1804, "driver": 1805, "disaster": 1806, "teeth": 1807, "December": 1808, "keeping": 1809, "success": 1810, "pre@@": 1811, "successful": 1812, "gradually": 1813, "skin": 1814, "asking": 1815, "bi@@": 1816, "ad@@": 1817, "s,": 1818, "In@@": 1819, "impression": 1820, "appropriate": 1821, "graduation": 1822, "capital": 1823, "sit": 1824, "seriously": 1825, "ac@@": 1826, "gym": 1827, "laugh": 1828, "activity": 1829, "V@@": 1830, "fit": 1831, "Instead": 1832, "dead": 1833, "ordinary": 1834, "oil": 1835, "growing": 1836, "impossible": 1837, "haha": 1838, "football": 1839, "apply": 1840, "numbers": 1841, "for@@": 1842, "remembered": 1843, "beauty": 1844, "financial": 1845, "smoking": 1846, "million": 1847, "variety": 1848, "w@@": 1849, "fashion": 1850, "ro@@": 1851, "singular": 1852, "degrees": 1853, "subtitles": 1854, "ourselves": 1855, "pressure": 1856, "build": 1857, "suffering": 1858, "mainly": 1859, "Only": 1860, "ap@@": 1861, "math": 1862, "basketball": 1863, "so@@": 1864, "invited": 1865, "currently": 1866, "lovely": 1867, "O": 1868, "topics": 1869, "email": 1870, "States": 1871, "seven": 1872, "go@@": 1873, "as@@": 1874, "year.": 1875, "reduce": 1876, "draw": 1877, "career": 1878, "nearby": 1879, "built": 1880, "allowed": 1881, "slowly": 1882, "people.": 1883, "killed": 1884, "ne@@": 1885, "customer": 1886, "grandmother": 1887, "Would": 1888, "cases": 1889, "available": 1890, "filled": 1891, "act": 1892, "meals": 1893, "comic": 1894, "implies": 1895, "author": 1896, "theater": 1897, "active": 1898, "sort": 1899, "habit": 1900, "ki@@": 1901, "tour": 1902, "ds": 1903, "airport": 1904, "T": 1905, "awkward": 1906, "continued": 1907, "childhood": 1908, "stomach": 1909, "diaries": 1910, "Alternative": 1911, "frequently": 1912, "Where": 1913, "sites": 1914, "is@@": 1915, "2010": 1916, "reply": 1917, "former": 1918, "further": 1919, "op@@": 1920, "normally": 1921, "earth": 1922, "situations": 1923, "depends": 1924, "failed": 1925, "pool": 1926, "gift": 1927, "relaxed": 1928, "missed": 1929, "correctly": 1930, "suitable": 1931, "fire": 1932, "leaving": 1933, "items": 1934, "Ma@@": 1935, "ce@@": 1936, "bank": 1937, "kill": 1938, "Asian": 1939, "disease": 1940, "opinions": 1941, "dramas": 1942, "manga": 1943, "pieces": 1944, "Secondly": 1945, "attitude": 1946, "distance": 1947, "Those": 1948, "cultural": 1949, "loves": 1950, "flu": 1951, "manager": 1952, "flower": 1953, "translated": 1954, "industry": 1955, "wondered": 1956, "mouth": 1957, "work.": 1958, "relatives": 1959, "Z@@": 1960, "lecture": 1961, "messages": 1962, "prevent": 1963, "include": 1964, "visiting": 1965, "x": 1966, "po@@": 1967, "friends.": 1968, "th": 1969, "sp@@": 1970, "registered": 1971, "tions": 1972, "average": 1973, "depressed": 1974, "October": 1975, "appeared": 1976, "fat": 1977, "concerned": 1978, "temple": 1979, "users": 1980, "behavior": 1981, "hang": 1982, "singer": 1983, "thousand": 1984, "ge@@": 1985, "conversations": 1986, "humans": 1987, "no@@": 1988, "anyway": 1989, "ation": 1990, "te": 1991, "shape": 1992, "incorrect": 1993, "effects": 1994, "data": 1995, "school.": 1996, "fried": 1997, "France": 1998, "trains": 1999, "magazine": 2000, "York": 2001, "rule": 2002, "eye": 2003, "community": 2004, "again.": 2005, "application": 2006, "helping": 2007, "sport": 2008, "drawing": 2009, "dollars": 2010, "license": 2011, "pair": 2012, "surprise": 2013, "ga@@": 2014, "---": 2015, "gain": 2016, "moon": 2017, "owner": 2018, "directly": 2019, "flight": 2020, "TOEFL": 2021, "issues": 2022, "alternative": 2023, "chatting": 2024, "everywhere": 2025, "volunteer": 2026, "developing": 2027, "tion": 2028, "belong": 2029, "entire": 2030, "shi@@": 2031, "minute": 2032, "lonely": 2033, "riding": 2034, "partner": 2035, "casual": 2036, "Spring": 2037, "extremely": 2038, "carry": 2039, "sat": 2040, "earn": 2041, "slightly": 2042, "shy": 2043, "foreigner": 2044, "correcting": 2045, "tickets": 2046, "plays": 2047, "generally": 2048, "deeply": 2049, "drinks": 2050, "groups": 2051, "suggested": 2052, "difficulty": 2053, "mostly": 2054, "male": 2055, "life.": 2056, "learners": 2057, "shrine": 2058, "complicated": 2059, "screen": 2060, "rarely": 2061, "fight": 2062, "covered": 2063, "theme": 2064, "colleague": 2065, "se.": 2066, "nearly": 2067, "computers": 2068, "lines": 2069, "board": 2070, "supermarket": 2071, "Okinawa": 2072, "value": 2073, "record": 2074, "regular": 2075, "City": 2076, "kid": 2077, "ya": 2078, "carefully": 2079, "ending": 2080, "dry": 2081, "nose": 2082, "da@@": 2083, "strongly": 2084, "good.": 2085, "CD": 2086, "museum": 2087, "suggest": 2088, "bu@@": 2089, "glasses": 2090, "es@@": 2091, "way.": 2092, "individual": 2093, "picked": 2094, "February": 2095, "days.": 2096, "bigger": 2097, "telling": 2098, "unfortunately": 2099, "Germany": 2100, "him.": 2101, "challenge": 2102, "reached": 2103, "motivation": 2104, "de": 2105, "Festival": 2106, "Like": 2107, "protect": 2108, "videos": 2109, "wore": 2110, "standing": 2111, "rare": 2112, "throughout": 2113, "sweets": 2114, "convenience": 2115, "phones": 2116, "d": 2117, "calm": 2118, "slang": 2119, "dress": 2120, "ag@@": 2121, "extra": 2122, "ous": 2123, "anywhere": 2124, "section": 2125, "allow": 2126, "hungry": 2127, "novels": 2128, "sign": 2129, "ates": 2130, "hearing": 2131, "quiet": 2132, "18": 2133, "journals": 2134, "pm": 2135, "animation": 2136, "meanings": 2137, "opposite": 2138, "ramen": 2139, "wall": 2140, "memorize": 2141, "om@@": 2142, "AM": 2143, "yesterday.": 2144, "ur@@": 2145, "whatever": 2146, "2@@": 2147, "practiced": 2148, "ed.": 2149, "accent": 2150, "via": 2151, "suggestion": 2152, "headache": 2153, "engineering": 2154, "us@@": 2155, "discuss": 2156, "inter@@": 2157, "salary": 2158, "s.@@": 2159, "suppose": 2160, "hundred": 2161, "degree": 2162, "explained": 2163, "welcome": 2164, "marriage": 2165, "adults": 2166, "refer": 2167, "ci@@": 2168, "ant": 2169, "participate": 2170, "pa@@": 2171, "s...": 2172, "attractive": 2173, "perfectly": 2174, "birth": 2175, "cleaning": 2176, "services": 2177, "wash": 2178, "referring": 2179, "tourists": 2180, "dropped": 2181, "Whenever": 2182, "custom": 2183, "doubt": 2184, "ment": 2185, "putting": 2186, "Time": 2187, "materials": 2188, "ded": 2189, "refers": 2190, "excellent": 2191, "throw": 2192, "mail": 2193, "fee": 2194, "Seoul": 2195, "finding": 2196, "ki": 2197, "Hokkaido": 2198, "mention": 2199, "desk": 2200, "b": 2201, "st": 2202, "ingredients": 2203, "slow": 2204, "influence": 2205, "ans": 2206, "despite": 2207, "damage": 2208, "Hong": 2209, "personality": 2210, "shower": 2211, "cheaper": 2212, "el@@": 2213, "examples": 2214, "E": 2215, "arrive": 2216, "diet": 2217, "Summer": 2218, "non-@@": 2219, "cry": 2220, ".....": 2221, "television": 2222, "European": 2223, "scenery": 2224, "worst": 2225, "president": 2226, "Japanese.": 2227, "manage": 2228, "ling": 2229, "goals": 2230, "animal": 2231, "region": 2232, "comics": 2233, "reality": 2234, "c": 2235, "foot": 2236, "Almost": 2237, "per@@": 2238, "ons": 2239, "Thai": 2240, "universities": 2241, "loud": 2242, "fix": 2243, "tastes": 2244, "India": 2245, "cover": 2246, "discovered": 2247, "thinks": 2248, "Kong": 2249, "yes": 2250, "combine": 2251, "sightseeing": 2252, "nor": 2253, "rent": 2254, "naturally": 2255, "drove": 2256, "crying": 2257, "25": 2258, "sh": 2259, "glass": 2260, "kanji": 2261, "standard": 2262, "Each": 2263, "tells": 2264, "See": 2265, "ve": 2266, "risk": 2267, "patients": 2268, "nowadays": 2269, "waited": 2270, "bo@@": 2271, "upset": 2272, "correct.": 2273, "wet": 2274, "management": 2275, "managed": 2276, "shown": 2277, "ve@@": 2278, "proud": 2279, "2nd": 2280, "Wednesday": 2281, "Right": 2282, "min@@": 2283, "exhausted": 2284, "military": 2285, "audience": 2286, "subway": 2287, "patient": 2288, "applied": 2289, "requires": 2290, "growth": 2291, "h": 2292, "details": 2293, "missing": 2294, "security": 2295, "4@@": 2296, "3rd": 2297, "favourite": 2298, "benefits": 2299, "awesome": 2300, "citizens": 2301, "sed": 2302, "ni@@": 2303, "spelling": 2304, "ship": 2305, "soft": 2306, "ma": 2307, "resources": 2308, "fantastic": 2309, "cakes": 2310, "National": 2311, "wi@@": 2312, "ko": 2313, "thus": 2314, "vi@@": 2315, "http": 2316, "ty": 2317, "address": 2318, "ls": 2319, "absolutely": 2320, "ter": 2321, "tool": 2322, "advanced": 2323, "worker": 2324, "self-@@": 2325, "somehow": 2326, "tsunami": 2327, "ly.": 2328, "Russia": 2329, "and@@": 2330, "relieved": 2331, "Lately": 2332, "causes": 2333, "typical": 2334, ",we": 2335, "yellow": 2336, "rained": 2337, "mu@@": 2338, "e-@@": 2339, "mountains": 2340, "Se@@": 2341, "ally": 2342, "prices": 2343, "X": 2344, "_@@": 2345, "laptop": 2346, "bright": 2347, ",the": 2348, "sub@@": 2349, "rooms": 2350, "adult": 2351, "ke@@": 2352, "swim": 2353, "sang": 2354, "policy": 2355, "Koreans": 2356, "tasted": 2357, "textbook": 2358, "increased": 2359, "5@@": 2360, "beef": 2361, "includes": 2362, "19@@": 2363, "kitchen": 2364, "Try": 2365, "selling": 2366, "responsibility": 2367, "rode": 2368, "der": 2369, "confident": 2370, "parties": 2371, "forever": 2372, "ten@@": 2373, "treat": 2374, "lady": 2375, "church": 2376, "shi": 2377, "ic": 2378, "ages": 2379, "grew": 2380, "ago.": 2381, "home.": 2382, "Comment": 2383, "24": 2384, "onto": 2385, "Google": 2386, "Al@@": 2387, "polite": 2388, "wide": 2389, "Mar@@": 2390, "Thursday": 2391, "courses": 2392, "difficulties": 2393, "car@@": 2394, "ar": 2395, "IT": 2396, "up@@": 2397, "fear": 2398, "access": 2399, "tasty": 2400, "work@@": 2401, "speaks": 2402, "closer": 2403, "North": 2404, "School": 2405, "replied": 2406, "actor": 2407, "occurred": 2408, "hi@@": 2409, "Thailand": 2410, "smoke": 2411, "Someone": 2412, "affected": 2413, "toward": 2414, "Should": 2415, "stars": 2416, "material": 2417, "Using": 2418, "Mi@@": 2419, "western": 2420, "model": 2421, "spite": 2422, "als": 2423, "writer": 2424, "stronger": 2425, "suit": 2426, "tongue": 2427, "transportation": 2428, "ancient": 2429, "conditions": 2430, "ent": 2431, "latest": 2432, "attached": 2433, "promised": 2434, "Fukushima": 2435, "fe@@": 2436, "eggs": 2437, "chances": 2438, "ses": 2439, "he@@": 2440, "musical": 2441, "ru@@": 2442, "Su@@": 2443, "brand": 2444, "usage": 2445, "faster": 2446, "falling": 2447, "much.": 2448, "co-workers": 2449, "Nagoya": 2450, "November": 2451, "mental": 2452, "systems": 2453, "happening": 2454, "announced": 2455, "structure": 2456, "ms": 2457, "efforts": 2458, "2011": 2459, "Will": 2460, "dont": 2461, "gas": 2462, "ent@@": 2463, "relationships": 2464, "academic": 2465, "skype": 2466, "overcome": 2467, "statement": 2468, "bear": 2469, "ch": 2470, "feet": 2471, "explanation": 2472, "accepted": 2473, "M": 2474, "sale": 2475, "posted": 2476, "review": 2477, "answers": 2478, "up.": 2479, "fruit": 2480, "presents": 2481, "Firstly": 2482, "clothing": 2483, "ring": 2484, "qu@@": 2485, "pet": 2486, "chi@@": 2487, "Again": 2488, "album": 2489, "methods": 2490, "daughters": 2491, "colors": 2492, "star": 2493, "function": 2494, "lie": 2495, "Cup": 2496, "sore": 2497, "ine": 2498, "construction": 2499, "solution": 2500, "round": 2501, "fluent": 2502, "genetic": 2503, "ir@@": 2504, "sight": 2505, "gi@@": 2506, "willing": 2507, "upon": 2508, "al.": 2509, "films": 2510, "pleasure": 2511, "na@@": 2512, "tasks": 2513, "surfing": 2514, "dad": 2515, "anybody": 2516, "treatment": 2517, "believed": 2518, "out@@": 2519, "appear": 2520, "legs": 2521, "Twitter": 2522, "involved": 2523, "pronounce": 2524, "mark": 2525, "percent": 2526, "importance": 2527, "straight": 2528, "relaxing": 2529, "laughed": 2530, "spread": 2531, "operation": 2532, "ou@@": 2533, "umbrella": 2534, "fly": 2535, "leader": 2536, "pray": 2537, "salt": 2538, "connected": 2539, "eight": 2540, "sex": 2541, "benefit": 2542, "lights": 2543, "pleased": 2544, "adjective": 2545, "her.": 2546, "ter@@": 2547, "scary": 2548, "gained": 2549, "60": 2550, "raise": 2551, "pot": 2552, "pork": 2553, "80": 2554, "forgotten": 2555, "ka": 2556, "properly": 2557, "searching": 2558, "ings": 2559, "handle": 2560, "advance": 2561, "Tuesday": 2562, "ts.": 2563, "say.": 2564, "mixed": 2565, "highly": 2566, "o-@@": 2567, "14": 2568, "ding": 2569, "enjoyable": 2570, "tra@@": 2571, "fans": 2572, "Harry": 2573, "13": 2574, "egg": 2575, "us.": 2576, "ed@@": 2577, "ful": 2578, "Three": 2579, "task": 2580, "faces": 2581, "sc@@": 2582, "ends": 2583, "sake": 2584, "literature": 2585, "Beijing": 2586, "2008": 2587, "par@@": 2588, "powerful": 2589, "f": 2590, "ze": 2591, "tri@@": 2592, "throat": 2593, "searched": 2594, "d-@@": 2595, "Shanghai": 2596, "seminar": 2597, "ties": 2598, "Life": 2599, "man@@": 2600, "exist": 2601, "3D": 2602, "tears": 2603, "/her": 2604, "soy": 2605, "ly@@": 2606, "washing": 2607, "birds": 2608, "ji": 2609, "cried": 2610, "advantage": 2611, "du@@": 2612, "De@@": 2613, "odd": 2614, "♪": 2615, "curious": 2616, "jogging": 2617, "herself": 2618, "menu": 2619, "International": 2620, "ked": 2621, "To@@": 2622, "opening": 2623, "websites": 2624, "nap": 2625, "joke": 2626, "dentist": 2627, "highest": 2628, "guide": 2629, "assume": 2630, "unusual": 2631, "km": 2632, "uncomfortable": 2633, "impressive": 2634, "reasonable": 2635, "background": 2636, "is.": 2637, "nation": 2638, "Taiwanese": 2639, "laughing": 2640, "Use": 2641, "x@@": 2642, "mon@@": 2643, "ex@@": 2644, "Western": 2645, "marks": 2646, "le.": 2647, "hunting": 2648, "Mo@@": 2649, "y-@@": 2650, "cancer": 2651, "century": 2652, "twenty": 2653, "display": 2654, "official": 2655, "advantages": 2656, "rid": 2657, "bird": 2658, "}": 2659, "tu@@": 2660, "ba@@": 2661, "Zealand": 2662, "Happy": 2663, "commonly": 2664, "papers": 2665, "Golden": 2666, "things.": 2667, "DVDs": 2668, "repeat": 2669, "followed": 2670, "appearance": 2671, "golf": 2672, "contents": 2673, "do.": 2674, "pro@@": 2675, "smaller": 2676, "forced": 2677, "desire": 2678, "clock": 2679, "sugar": 2680, "unable": 2681, "peace": 2682, "Suddenly": 2683, "Mr": 2684, "to.": 2685, "week.": 2686, "maintain": 2687, "losing": 2688, "political": 2689, "digital": 2690, "dirty": 2691, "boiled": 2692, "da": 2693, "strict": 2694, "Indian": 2695, "bathroom": 2696, "world.": 2697, "precious": 2698, "tion@@": 2699, "time@@": 2700, "com@@": 2701, "served": 2702, "pages": 2703, "16": 2704, "holding": 2705, "noon": 2706, "pi@@": 2707, "grown": 2708, "cloudy": 2709, "bottom": 2710, "/the": 2711, "ments": 2712, "contains": 2713, "Park": 2714, "cu@@": 2715, "potential": 2716, "L": 2717, "ul@@": 2718, "actions": 2719, "drop": 2720, "war@@": 2721, "z": 2722, "Until": 2723, "ic@@": 2724, "ul": 2725, "beat": 2726, ",it": 2727, "brings": 2728, "features": 2729, "included": 2730, "reminded": 2731, "follows": 2732, "forecast": 2733, "exhibition": 2734, "rude": 2735, "Valentine": 2736, "Nevertheless": 2737, "ks": 2738, "you@@": 2739, "crisis": 2740, "suffer": 2741, "humid": 2742, "morning.": 2743, "cor@@": 2744, "ness": 2745, "ance": 2746, "Australian": 2747, "produce": 2748, "{": 2749, "passing": 2750, "il@@": 2751, "valuable": 2752, "ta": 2753, "ou": 2754, "years.": 2755, "complex": 2756, "source": 2757, "actors": 2758, "brush": 2759, "ang@@": 2760, ".'": 2761, "pop": 2762, "aware": 2763, "Shi@@": 2764, "Asia": 2765, "otherwise": 2766, "word.": 2767, "force": 2768, "before.": 2769, "serve": 2770, "cleaned": 2771, "Yokohama": 2772, "separate": 2773, "afford": 2774, "day@@": 2775, "plane": 2776, "fixed": 2777, "night.": 2778, "accidents": 2779, "tive": 2780, "possibility": 2781, "Other": 2782, "flat": 2783, "spirit": 2784, "ary": 2785, "Apple": 2786, "electronic": 2787, "anxious": 2788, "An@@": 2789, "recognize": 2790, "concept": 2791, "ence": 2792, "scenes": 2793, "m.": 2794, "chair": 2795, "streets": 2796, "Everything": 2797, "considering": 2798, "can@@": 2799, "ss@@": 2800, "noise": 2801, "religion": 2802, "reported": 2803, "corner": 2804, "warming": 2805, "recover": 2806, "les": 2807, "insurance": 2808, "t-@@": 2809, "documents": 2810, "kindergarten": 2811, "historical": 2812, "0": 2813, "all.": 2814, "17": 2815, "promise": 2816, "chinese": 2817, "Tonight": 2818, "thesis": 2819, "abilities": 2820, "karaoke": 2821, "god": 2822, "factory": 2823, "gu@@": 2824, "reactor": 2825, "Di@@": 2826, "alive": 2827, "though.": 2828, "production": 2829, "primary": 2830, "1@@": 2831, "mall": 2832, "painful": 2833, "pleasant": 2834, "object": 2835, "village": 2836, "Ko@@": 2837, "'the": 2838, "blossom": 2839, "require": 2840, "Italy": 2841, "beings": 2842, "Despite": 2843, "contrast": 2844, "ys": 2845, "co-worker": 2846, "reactors": 2847, "essential": 2848, "fail": 2849, "bottle": 2850, "st.": 2851, "parent": 2852, "depending": 2853, "secret": 2854, "tic": 2855, "interests": 2856, "taxi": 2857, "replace": 2858, "ease": 2859, "victims": 2860, "hall": 2861, "salon": 2862, "telephone": 2863, "Na@@": 2864, "thin": 2865, "verbs": 2866, "japan": 2867, "request": 2868, "shot": 2869, "comedy": 2870, "XD": 2871, "ol@@": 2872, "Sydney": 2873, "PM": 2874, "marry": 2875, "artist": 2876, "confusing": 2877, "bicycles": 2878, "ong": 2879, "classmate": 2880, "fi@@": 2881, "perform": 2882, "somewhat": 2883, "spare": 2884, "limit": 2885, "encourage": 2886, "income": 2887, "offered": 2888, "stick": 2889, "cheer": 2890, "traveled": 2891, "reminds": 2892, "ors": 2893, "touched": 2894, "finishing": 2895, "introduction": 2896, "begun": 2897, "episode": 2898, "ari@@": 2899, "showing": 2900, "guests": 2901, "iPod": 2902, "equipment": 2903, "ment.": 2904, "mi": 2905, "borrowed": 2906, "friendship": 2907, "Nice": 2908, "eventually": 2909, "sts": 2910, "ali@@": 2911, "self": 2912, "consists": 2913, "aim": 2914, "dormitory": 2915, "zed": 2916, "super": 2917, "ge": 2918, "era": 2919, "ity": 2920, "ho@@": 2921, "passion": 2922, "Hawaii": 2923, "chatted": 2924, "strength": 2925, "r": 2926, "reader": 2927, "radiation": 2928, "policies": 2929, "rec@@": 2930, "calls": 2931, "tax": 2932, "item": 2933, "completed": 2934, "a-@@": 2935, "significant": 2936, "factors": 2937, "under@@": 2938, "earthquakes": 2939, "empty": 2940, "sounded": 2941, "é": 2942, "spot": 2943, "cellphone": 2944, "stood": 2945, "technical": 2946, "fields": 2947, "raised": 2948, "location": 2949, "X@@": 2950, "Speaking": 2951, "bloom": 2952, "Better": 2953, "knowing": 2954, "gra@@": 2955, "suffered": 2956, "bar@@": 2957, "out.": 2958, "el": 2959, "ver@@": 2960, "am@@": 2961, "treated": 2962, "ku@@": 2963, "brown": 2964, "iPad": 2965, "mar@@": 2966, "lifestyle": 2967, "net": 2968, "particularly": 2969, "20@@": 2970, "trust": 2971, "dislike": 2972, "loss": 2973, "No@@": 2974, "w": 2975, "bowl": 2976, "Sa@@": 2977, "lies": 2978, "pizza": 2979, "functions": 2980, "originally": 2981, "combined": 2982, "mat@@": 2983, "director": 2984, "Me": 2985, "track": 2986, "employee": 2987, "heavily": 2988, "th.": 2989, "seasons": 2990, "K": 2991, "stuck": 2992, "90": 2993, "parking": 2994, "fin@@": 2995, "efficient": 2996, "fighting": 2997, "star@@": 2998, "published": 2999, "os": 3000, "travelling": 3001, "Potter": 3002, "70": 3003, "flow": 3004, "appointment": 3005, "marathon": 3006, "fu@@": 3007, "Ka@@": 3008, "balance": 3009, "tr@@": 3010, "raw": 3011, "attending": 3012, "reports": 3013, "direction": 3014, "ke": 3015, "weekends": 3016, "relatively": 3017, "Philippines": 3018, "ye@@": 3019, "aspects": 3020, "discussion": 3021, "airplane": 3022, "#": 3023, "Disney": 3024, "um": 3025, "user": 3026, "discussed": 3027, "profile": 3028, "Be@@": 3029, "ob@@": 3030, "fill": 3031, "begins": 3032, "fine.": 3033, "count": 3034, "Take": 3035, "checking": 3036, "washed": 3037, "embarrassed": 3038, "journey": 3039, "Kanji": 3040, "house.": 3041, "saving": 3042, "sal@@": 3043, "freedom": 3044, "conditioner": 3045, "grades": 3046, "Canadian": 3047, "produced": 3048, "recorded": 3049, "Ch@@": 3050, "conference": 3051, "affect": 3052, "allows": 3053, "keeps": 3054, "survive": 3055, "ss": 3056, "compare": 3057, "chosen": 3058, "4th": 3059, "cha@@": 3060, "gifts": 3061, "regarding": 3062, "direct": 3063, "stressed": 3064, "San": 3065, "circle": 3066, "Everybody": 3067, "succeed": 3068, "link": 3069, "climbing": 3070, "in.": 3071, "classroom": 3072, "dy": 3073, "plenty": 3074, "castle": 3075, "designed": 3076, "gate": 3077, "Be": 3078, "teams": 3079, "performed": 3080, "damaged": 3081, "Having": 3082, "ai": 3083, "snowing": 3084, "Without": 3085, "neighborhood": 3086, "certainly": 3087, "High": 3088, "my@@": 3089, "Language": 3090, "18@@": 3091, "21": 3092, "Spain": 3093, "assignment": 3094, "Probably": 3095, "lab": 3096, "provided": 3097, "roads": 3098, "eager": 3099, "7@@": 3100, "bags": 3101, "magazines": 3102, "fa@@": 3103, "22": 3104, "Sh@@": 3105, "Something": 3106, "paying": 3107, "besides": 3108, "Children": 3109, "su": 3110, "courage": 3111, "mp@@": 3112, "laundry": 3113, "tomorrow.": 3114, "job.": 3115, "Hey": 3116, "roommate": 3117, "carried": 3118, "Co@@": 3119, "contest": 3120, "wild": 3121, "severe": 3122, "So@@": 3123, "et@@": 3124, "escape": 3125, "fishing": 3126, "book@@": 3127, "hero": 3128, "independent": 3129, "forms": 3130, "sons": 3131, "newspapers": 3132, "turns": 3133, "impact": 3134, "placed": 3135, "Ta@@": 3136, "sen@@": 3137, "Me@@": 3138, "elder": 3139, "release": 3140, "path": 3141, "detail": 3142, "connection": 3143, "a.m.": 3144, "machines": 3145, "plastic": 3146, "views": 3147, "twitter": 3148, "facilities": 3149, "surgery": 3150, "un": 3151, "nine": 3152, "oo@@": 3153, "ing..": 3154, "Vancouver": 3155, "ideal": 3156, "forest": 3157, "mix": 3158, "informal": 3159, "intend": 3160, "/I": 3161, "tall": 3162, "lying": 3163, "horrible": 3164, "communicating": 3165, "cousin": 3166, "Sounds": 3167, "Writing": 3168, "Hence": 3169, "incident": 3170, "500": 3171, "laboratory": 3172, "10@@": 3173, "sudden": 3174, "-year-old": 3175, "Vietnam": 3176, "au@@": 3177, "broadcast": 3178, "grandfather": 3179, "spicy": 3180, "Such": 3181, "mor@@": 3182, "sha@@": 3183, "nouns": 3184, "Paris": 3185, "colder": 3186, "beans": 3187, "injured": 3188, "troubles": 3189, "climb": 3190, "War": 3191, "we@@": 3192, "exact": 3193, "bookstore": 3194, "snacks": 3195, "intended": 3196, "errors": 3197, "leading": 3198, "artists": 3199, "row": 3200, "election": 3201, "y,@@": 3202, "stone": 3203, "Y": 3204, ",my": 3205, "engineer": 3206, "200": 3207, "workplace": 3208, "Li@@": 3209, "ker": 3210, "juice": 3211, "mean.": 3212, "tooth": 3213, "selected": 3214, "ang": 3215, "appears": 3216, "friend.": 3217, "myself.": 3218, "/she": 3219, "range": 3220, "grateful": 3221, "her@@": 3222, "testing": 3223, "provides": 3224, "basically": 3225, "sta@@": 3226, "sweat": 3227, "pink": 3228, "cheese": 3229, "et": 3230, "surely": 3231, "babies": 3232, "Generally": 3233, "learnt": 3234, "drew": 3235, "dairy": 3236, "latter": 3237, "actual": 3238, "Con@@": 3239, "oral": 3240, "ine@@": 3241, "meta": 3242, "north": 3243, "hurry": 3244, "ok@@": 3245, "Ro@@": 3246, "F": 3247, "ko@@": 3248, "emotions": 3249, "ers.": 3250, "not.": 3251, "argue": 3252, "tt@@": 3253, "rise": 3254, "che@@": 3255, "teaches": 3256, "NY": 3257, "Great": 3258, "warmer": 3259, "beside": 3260, "budget": 3261, "remove": 3262, "John": 3263, "thirty": 3264, "fruits": 3265, "Today,I": 3266, "practical": 3267, "facing": 3268, "pity": 3269, "re-@@": 3270, "double": 3271, "Mon@@": 3272, "circumstances": 3273, "politics": 3274, "19": 3275, "Ki@@": 3276, "something.": 3277, "customs": 3278, "network": 3279, "tools": 3280, "ying": 3281, "judge": 3282, "participated": 3283, "d...": 3284, "threw": 3285, "cram": 3286, "horse": 3287, "encouraged": 3288, "Ha@@": 3289, "surprising": 3290, "y..": 3291, "turning": 3292, "ka@@": 3293, "sun@@": 3294, "facebook": 3295, "charset": 3296, "transfer": 3297, "unknown": 3298, "gold": 3299, "toilet": 3300, "campus": 3301, "o.": 3302, "6@@": 3303, "peaceful": 3304, "remain": 3305, "mb@@": 3306, "flavor": 3307, "unnecessary": 3308, "Car@@": 3309, "shall": 3310, "windows": 3311, "demand": 3312, "habits": 3313, "concern": 3314, "target": 3315, "ster": 3316, "prize": 3317, "annoying": 3318, "ha": 3319, "hung": 3320, "response": 3321, "regularly": 3322, "tries": 3323, "are@@": 3324, "stock": 3325, "commercial": 3326, "scientific": 3327, "dly": 3328, "army": 3329, "5th": 3330, "awful": 3331, "mis@@": 3332, "responsible": 3333, "Ar@@": 3334, "classical": 3335, "Wow": 3336, "fuel": 3337, "crime": 3338, "agreed": 3339, "smoothly": 3340, "freely": 3341, "talks": 3342, "East": 3343, "language.": 3344, "words.": 3345, "base": 3346, "8@@": 3347, "dri@@": 3348, "y.@@": 3349, "back@@": 3350, "sometime": 3351, "truly": 3352, "addicted": 3353, "paint": 3354, "kimono": 3355, "individuals": 3356, "Being": 3357, "gather": 3358, "complain": 3359, "neck": 3360, "experiment": 3361, "tiny": 3362, "ashamed": 3363, "engineers": 3364, "improvement": 3365, "hoped": 3366, "hand@@": 3367, "shorter": 3368, "ud@@": 3369, "Week": 3370, "utf-8": 3371, "k.": 3372, "sti@@": 3373, "thick": 3374, "Hi@@": 3375, "'a": 3376, "technically": 3377, "camp": 3378, "thankful": 3379, "Earth": 3380, "ste@@": 3381, "sunshine": 3382, "Hiroshima": 3383, "noodle": 3384, "neither": 3385, "Taipei": 3386, "Love": 3387, "wallet": 3388, "ji@@": 3389, "largest": 3390, "technologies": 3391, "Due": 3392, "greatly": 3393, "educational": 3394, "exercises": 3395, "asks": 3396, "youngest": 3397, "Kobe": 3398, "Tohoku": 3399, "G": 3400, "credit": 3401, "annoyed": 3402, "notebook": 3403, "Gu@@": 3404, "hu@@": 3405, "obvious": 3406, "setting": 3407, "that@@": 3408, "imagined": 3409, "meters": 3410, "climate": 3411, "ad": 3412, "En@@": 3413, "flying": 3414, "Starbucks": 3415, "Very": 3416, "ak@@": 3417, "beginner": 3418, "salad": 3419, "fair": 3420, "ce": 3421, "theory": 3422, "destination": 3423, "south": 3424, "Yeah": 3425, "shared": 3426, "any@@": 3427, "runs": 3428, "tense.": 3429, "cal@@": 3430, "greatest": 3431, "finger": 3432, "capitalize": 3433, "singers": 3434, "person.": 3435, "y,": 3436, "tes": 3437, "worrying": 3438, "suggestions": 3439, "tradition": 3440, "year@@": 3441, "chi": 3442, "more.": 3443, "skiing": 3444, "ves": 3445, "an.": 3446, "ens": 3447, "motivated": 3448, "seconds": 3449, "wh@@": 3450, "←": 3451, "recipe": 3452, "nul": 3453, "decrease": 3454, "contribute": 3455, "stands": 3456, "repair": 3457, "soon.": 3458, "steps": 3459, "pants": 3460, "clinic": 3461, "beyond": 3462, "home@@": 3463, "acting": 3464, "d,": 3465, "boat": 3466, "ps": 3467, "hesitate": 3468, "jo@@": 3469, ",because": 3470, "Bo@@": 3471, "class.": 3472, "SNS": 3473, "Through": 3474, "mothers": 3475, "Mother": 3476, "assistant": 3477, "visitors": 3478, "scale": 3479, "fourth": 3480, "shed": 3481, "noisy": 3482, "THE": 3483, "sentences.": 3484, "jazz": 3485, "persons": 3486, "23": 3487, "Po@@": 3488, "ent.": 3489, "images": 3490, "springs": 3491, "Was": 3492, "cartoon": 3493, "VHTR": 3494, "Ex@@": 3495, "titles": 3496, "matters": 3497, "bodies": 3498, "der@@": 3499, "essays": 3500, "minister": 3501, "romantic": 3502, "arms": 3503, "one@@": 3504, "Yet": 3505, "tic@@": 3506, "Hope": 3507, "l.": 3508, "jokes": 3509, "Halloween": 3510, "ants": 3511, "rights": 3512, "bill": 3513, "apple": 3514, "ahead": 3515, "ation.": 3516, "lake": 3517, "rains": 3518, "Long": 3519, "adding": 3520, "calling": 3521, "d..": 3522, "titled": 3523, "ear@@": 3524, "Everyday": 3525, "yo@@": 3526, "ski": 3527, "sand": 3528, "massage": 3529, "gs": 3530, "yet.": 3531, "miso": 3532, "pub": 3533, "leg": 3534, "ant@@": 3535, "ll": 3536, "IN@@": 3537, "influenced": 3538, "arm": 3539, "Yu@@": 3540, "option": 3541, "textbooks": 3542, "ce.": 3543, "discount": 3544, "downtown": 3545, "→": 3546, "Ri@@": 3547, "passive": 3548, "entering": 3549, "smiling": 3550, "Fuji": 3551, "Michael": 3552, "Learning": 3553, "est": 3554, "frustrated": 3555, "together.": 3556, "grammatical": 3557, "unnatural": 3558, "supply": 3559, "gathered": 3560, "readers": 3561, "thing.": 3562, "ations": 3563, "pu@@": 3564, "stations": 3565, "ju@@": 3566, "diseases": 3567, "of@@": 3568, "absent": 3569, "happily": 3570, "aunt": 3571, "extent": 3572, "larger": 3573, "ate@@": 3574, "mer@@": 3575, "v": 3576, "toy": 3577, "environmental": 3578, "device": 3579, "levels": 3580, "rapidly": 3581, "well-known": 3582, "Par@@": 3583, "sk@@": 3584, "friend@@": 3585, "economics": 3586, "majority": 3587, "fewer": 3588, "well-@@": 3589, "Un@@": 3590, "attracted": 3591, "organization": 3592, "har@@": 3593, "borrow": 3594, "admit": 3595, "Japan@@": 3596, "ill": 3597, "p.m.": 3598, "festivals": 3599, "drugs": 3600, "excuse": 3601, "Later": 3602, "tor@@": 3603, "ds.": 3604, "wisdom": 3605, "loudly": 3606, "celebrated": 3607, "ck": 3608, "disappeared": 3609, "Starting": 3610, "overtime": 3611, "neighbor": 3612, "coworkers": 3613, "trips": 3614, "failure": 3615, "ear": 3616, "all@@": 3617, "farm": 3618, ".It": 3619, "tions.": 3620, "refreshed": 3621, "spell": 3622, "tiring": 3623, "....@@": 3624, "......": 3625, "greater": 3626, "constantly": 3627, "instant": 3628, "hoping": 3629, "Ca@@": 3630, "seldom": 3631, "hell": 3632, "ears": 3633, "month.": 3634, "none": 3635, "ning": 3636, "CDs": 3637, "lu@@": 3638, "gh@@": 3639, "plate": 3640, "potatoes": 3641, "anniversary": 3642, "ry": 3643, "motorcycle": 3644, "Chi@@": 3645, "sting": 3646, "Africa": 3647, "kin@@": 3648, "Otherwise": 3649, "en.": 3650, "pan": 3651, "session": 3652, "furniture": 3653, "graduating": 3654, "sum": 3655, "ator": 3656, "disagree": 3657, "divided": 3658, "seats": 3659, "attack": 3660, "ow@@": 3661, "lets": 3662, "reference": 3663, "Go": 3664, "house@@": 3665, "ton@@": 3666, "employment": 3667, "sion": 3668, "garbage": 3669, "sending": 3670, "ty@@": 3671, "awake": 3672, "unhappy": 3673, "ocean": 3674, "YouTube": 3675, "potato": 3676, "Friends": 3677, "visa": 3678, "McDonald": 3679, "9@@": 3680, "wor@@": 3681, "apart": 3682, "upload": 3683, "@": 3684, "clerk": 3685, "retirement": 3686, "R": 3687, "continues": 3688, "California": 3689, "tower": 3690, "some@@": 3691, "y...": 3692, "Island": 3693, "effectively": 3694, "status": 3695, "45": 3696, "recovered": 3697, "with@@": 3698, "Still": 3699, "school@@": 3700, "sur@@": 3701, "burden": 3702, "focused": 3703, "minds": 3704, "ming": 3705, "talent": 3706, "300": 3707, "bri@@": 3708, "wood": 3709, "hated": 3710, "grass": 3711, "mama": 3712, "Fukuoka": 3713, "button": 3714, "est@@": 3715, "client": 3716, "examinations": 3717, "wishes": 3718, "advertisement": 3719, "shirt": 3720, "illness": 3721, "magic": 3722, "choices": 3723, "removed": 3724, "contract": 3725, "composition": 3726, "House": 3727, "Obama": 3728, "korean": 3729, "book.": 3730, "contrary": 3731, "wa": 3732, "copy": 3733, "prime": 3734, "scores": 3735, "jump": 3736, "trial": 3737, "rental": 3738, "poem": 3739, "rented": 3740, "1000": 3741, "quick": 3742, "ble": 3743, "ver": 3744, "end@@": 3745, "yoga": 3746, "2007": 3747, "saved": 3748, "possibly": 3749, "Ni@@": 3750, "barely": 3751, "occur": 3752, "Currently": 3753, "ery": 3754, "emergency": 3755, "ment@@": 3756, "pen@@": 3757, "ously": 3758, "expressed": 3759, "OR@@": 3760, "Reading": 3761, "King": 3762, "push": 3763, "solutions": 3764, "alarm": 3765, "values": 3766, "described": 3767, "nights": 3768, "future.": 3769, "ies": 3770, "Har@@": 3771, "faced": 3772, "established": 3773, "pace": 3774, "shoulder": 3775, "uncle": 3776, "pasta": 3777, "sense.": 3778, "youth": 3779, "badly": 3780, "height": 3781, "passage": 3782, "roll": 3783, "solar": 3784, "approach": 3785, "surrounded": 3786, "handsome": 3787, "Students": 3788, "ID": 3789, "resume": 3790, "tournament": 3791, "snowboarding": 3792, "psychology": 3793, "personally": 3794, "agency": 3795, "rural": 3796, "temporary": 3797, "ai@@": 3798, "old.": 3799, "tutor": 3800, "struggling": 3801, "guessing": 3802, "ders": 3803, "muscles": 3804, "cutting": 3805, "tourist": 3806, "Com@@": 3807, "majoring": 3808, "chocolates": 3809, "Party": 3810, "determined": 3811, "meetings": 3812, "colored": 3813, "ani@@": 3814, "bridge": 3815, "silly": 3816, "Le@@": 3817, "Man@@": 3818, "bur@@": 3819, "ering": 3820, "virus": 3821, "mathematics": 3822, "hanging": 3823, "daytime": 3824, "men@@": 3825, "entertainment": 3826, "TO@@": 3827, "muscle": 3828, "clouds": 3829, "ines": 3830, "joy": 3831, "tor": 3832, "symbol": 3833, "soul": 3834, "vegetable": 3835, "efficiency": 3836, "preparation": 3837, "Nobody": 3838, "signed": 3839, "kindness": 3840, "register": 3841, "volleyball": 3842, "/a": 3843, "duty": 3844, "place.": 3845, "branch": 3846, "spots": 3847, "mum": 3848, "Ne@@": 3849, "ered": 3850, "room.": 3851, "funds": 3852, "bet": 3853, "solved": 3854, "ches": 3855, "sheet": 3856, "mate": 3857, "grandparents": 3858, "money.": 3859, "understand.": 3860, ",i": 3861, "Santa": 3862, "Sendai": 3863, "thousands": 3864, "id": 3865, "routine": 3866, "invite": 3867, "pregnant": 3868, "arts": 3869, "regardless": 3870, "pl@@": 3871, "reaction": 3872, "projects": 3873, "cat@@": 3874, "continuing": 3875, "on-@@": 3876, "coat": 3877, "shaped": 3878, "depression": 3879, "pronoun": 3880, "N": 3881, "rain@@": 3882, "mates": 3883, "Remember": 3884, "happy.": 3885, "envy": 3886, "BBQ": 3887, "countryside": 3888, "think.": 3889, "des": 3890, "redundant": 3891, "15@@": 3892, "Autumn": 3893, "accustomed": 3894, "farewell": 3895, "Mt": 3896, "consideration": 3897, "applications": 3898, "Mac": 3899, "11th": 3900, "Am": 3901, "fallen": 3902, "lover": 3903, "programming": 3904, "TO": 3905, "gentle": 3906, "zing": 3907, "pointed": 3908, "entirely": 3909, "trend": 3910, "destroyed": 3911, "apologize": 3912, "choosing": 3913, "homes": 3914, "depend": 3915, "doctors": 3916, "canceled": 3917, "district": 3918, "me..": 3919, "food.": 3920, "scheduled": 3921, "regard": 3922, "purchase": 3923, "col@@": 3924, "see@@": 3925, "basket": 3926, "dolls": 3927, "life@@": 3928, "describing": 3929, "brothers": 3930, "movement": 3931, "notes": 3932, "ignore": 3933, "gap": 3934, "ted.": 3935, "wrong.": 3936, "boxes": 3937, "ing...": 3938, "Sea": 3939, "ph@@": 3940, "silent": 3941, "AS@@": 3942, "sensitive": 3943, "..@@": 3944, "ri": 3945, ",_@@": 3946, "temples": 3947, "s-@@": 3948, "couples": 3949, "ins": 3950, "pri@@": 3951, "east": 3952, "distinguish": 3953, "useless": 3954, "characteristics": 3955, "mass": 3956, "use@@": 3957, "recognized": 3958, "med": 3959, "mysterious": 3960, "AM@@": 3961, "jam": 3962, "code": 3963, "suggests": 3964, "unexpected": 3965, "length": 3966, "Lo@@": 3967, "surface": 3968, "shing": 3969, "shift": 3970, "musicians": 3971, "Pe@@": 3972, "colorful": 3973, "wanting": 3974, "expressing": 3975, "e-mails": 3976, "select": 3977, "cre@@": 3978, "capitalized": 3979, "Studying": 3980, "mad": 3981, "guest": 3982, "Prefecture": 3983, "collect": 3984, "fault": 3985, "W": 3986, "fore@@": 3987, "Either": 3988, "acquire": 3989, "map": 3990, "actress": 3991, "healthcare": 3992, "leads": 3993, "bra@@": 3994, "marketing": 3995, "pen": 3996, "amazed": 3997, "Olympics": 3998, "tips": 3999, "Red": 4000, "Kansai": 4001, "expenses": 4002, "den@@": 4003, "Mandarin": 4004, "assignments": 4005, "unclear": 4006, "Youtube": 4007, "ing,": 4008, "northern": 4009, "Q@@": 4010, "acceptable": 4011, "cur@@": 4012, "waves": 4013, "ard": 4014, "beneficial": 4015, "succeeded": 4016, "them@@": 4017, "literally": 4018, "cinema": 4019, "balls": 4020, "bands": 4021, "35": 4022, "cross": 4023, "Th@@": 4024, "blogs": 4025, "court": 4026, "Luckily": 4027, "lot.": 4028, "IELTS": 4029, "play@@": 4030, "attract": 4031, "imp@@": 4032, "Han@@": 4033, "separated": 4034, "tie": 4035, "Nothing": 4036, "ber@@": 4037, "Mexico": 4038, "Soon": 4039, "uni@@": 4040, "emotional": 4041, "necessarily": 4042, "phenomenon": 4043, "residents": 4044, "Third": 4045, "suicide": 4046, "ina": 4047, "ing,@@": 4048, "coworker": 4049, "creating": 4050, "ther@@": 4051, "logical": 4052, "too@@": 4053, "one-@@": 4054, "ton": 4055, "designer": 4056, "ot": 4057, "appreciated": 4058, "university.": 4059, "cookies": 4060, "remains": 4061, "ec@@": 4062, "anytime": 4063, "gar@@": 4064, "clo@@": 4065, "breath": 4066, "Winter": 4067, "Anyways": 4068, "narrow": 4069, "passport": 4070, "shock": 4071, "other.": 4072, "baked": 4073, "Eve": 4074, "Edo": 4075, "delivery": 4076, "pure": 4077, "organized": 4078, "tone": 4079, "ong@@": 4080, "Come": 4081, "☆": 4082, "rabbit": 4083, "rising": 4084, "obtain": 4085, "fun@@": 4086, "ate.": 4087, "1.": 4088, "cheerful": 4089, "profit": 4090, "domestic": 4091, "Big": 4092, "states": 4093, "26": 4094, "res": 4095, "d,@@": 4096, "om": 4097, "neighbors": 4098, "internship": 4099, "scientists": 4100, "voices": 4101, "falls": 4102, "multiple": 4103, "translating": 4104, "family.": 4105, "hamburger": 4106, "H": 4107, "lat@@": 4108, "cooler": 4109, "welfare": 4110, "indeed": 4111, "ev@@": 4112, "cash": 4113, "Go@@": 4114, "central": 4115, "00@@": 4116, "flew": 4117, "ba": 4118, "aid": 4119, "ensure": 4120, "sharing": 4121, "creative": 4122, "joining": 4123, "kindly": 4124, "Ac@@": 4125, "reduced": 4126, "approximately": 4127, "loo@@": 4128, "arranged": 4129, "cold.": 4130, "orange": 4131, "mirror": 4132, "governments": 4133, "2000": 4134, "offers": 4135, "packed": 4136, "fits": 4137, "west": 4138, "Sushi": 4139, "trade": 4140, "viewing": 4141, "pack": 4142, "Honestly": 4143, "now@@": 4144, "fees": 4145, "efficiently": 4146, "successfully": 4147, "physics": 4148, "advertising": 4149, "package": 4150, "White": 4151, "officer": 4152, "dialect": 4153, "AN@@": 4154, "bye": 4155, "danger": 4156, "equal": 4157, "architecture": 4158, "indicates": 4159, "ky": 4160, "gre@@": 4161, "Si@@": 4162, "participants": 4163, "lectures": 4164, "stable": 4165, "shortage": 4166, "Da@@": 4167, "basis": 4168, "ents": 4169, "optional": 4170, "200@@": 4171, "instruments": 4172, "Going": 4173, "high-@@": 4174, "rose": 4175, "paintings": 4176, "yu@@": 4177, "toys": 4178, "painted": 4179, "Looking": 4180, "drawn": 4181, "presented": 4182, "press": 4183, "sa": 4184, "know.": 4185, "cartoons": 4186, "student.": 4187, "sisters": 4188, "skating": 4189, "troublesome": 4190, "Additionally": 4191, "dying": 4192, "hill": 4193, "sides": 4194, "oldest": 4195, "bad.": 4196, "ow": 4197, "smiled": 4198, "Pi@@": 4199, "vo@@": 4200, "replaced": 4201, "ex-@@": 4202, "fed": 4203, "pets": 4204, "Ah": 4205, "Art": 4206, "2005": 4207, "drug": 4208, "cra@@": 4209, "battery": 4210, "Ba@@": 4211, "ved": 4212, "describes": 4213, "cycling": 4214, "ally.": 4215, "San@@": 4216, "flour": 4217, "installed": 4218, "resort": 4219, "volume": 4220, "nearest": 4221, "anger": 4222, "English@@": 4223, "zoo": 4224, "clients": 4225, "devices": 4226, "additional": 4227, "ably": 4228, "oc@@": 4229, "suits": 4230, "Windows": 4231, "discover": 4232, "whereas": 4233, "d.@@": 4234, "generations": 4235, "wise": 4236, ".The": 4237, "advertisements": 4238, "hole": 4239, "refrigerator": 4240, "annual": 4241, "air@@": 4242, "symptoms": 4243, "golden": 4244, "Toronto": 4245, "Sen@@": 4246, "oh": 4247, "br@@": 4248, "guessed": 4249, "strangers": 4250, "diary.": 4251, "priority": 4252, "exists": 4253, "fr@@": 4254, "St@@": 4255, "ck@@": 4256, "relations": 4257, "ch.": 4258, "kg": 4259, "Someday": 4260, "unfamiliar": 4261, "So,I": 4262, "unlike": 4263, "emphasis": 4264, "AL@@": 4265, "char@@": 4266, "expecting": 4267, "killing": 4268, "confirm": 4269, "styles": 4270, "evil": 4271, "candy": 4272, "fortune": 4273, "feature": 4274, "slight": 4275, "realised": 4276, "Fu@@": 4277, "document": 4278, "ss.": 4279, "2.": 4280, "Min@@": 4281, "spa": 4282, "behave": 4283, "Pa@@": 4284, "Museum": 4285, "fiction": 4286, "country.": 4287, "Lang-8.": 4288, "Compared": 4289, "electrical": 4290, "cli@@": 4291, "Test": 4292, "don": 4293, "roommates": 4294, "ler": 4295, "ous.": 4296, "touching": 4297, "countries.": 4298, "posts": 4299, "mouse": 4300, "weekdays": 4301, "increases": 4302, "privacy": 4303, "perspective": 4304, "stairs": 4305, "Hu@@": 4306, "AR@@": 4307, "Bu@@": 4308, "mature": 4309, "hard.": 4310, "cr@@": 4311, "windy": 4312, "pollution": 4313, "stor@@": 4314, "tomato": 4315, "struggle": 4316, "jumped": 4317, "occasionally": 4318, "ke.": 4319, "IN": 4320, "Shinjuku": 4321, "cycle": 4322, "challenging": 4323, "ns": 4324, "carrying": 4325, "drivers": 4326, "obviously": 4327, "stressful": 4328, "lasted": 4329, "Or@@": 4330, "uploaded": 4331, "'The": 4332, "ses.": 4333, "colloquial": 4334, "and.": 4335, "bamboo": 4336, "7th": 4337, "Saying": 4338, "widely": 4339, "analysis": 4340, "other@@": 4341, "decreasing": 4342, "ancestors": 4343, "imagination": 4344, "...I": 4345, "night@@": 4346, "bitter": 4347, "reservation": 4348, "aspect": 4349, "factor": 4350, "ach@@": 4351, "pla@@": 4352, "pulled": 4353, "Vietnamese": 4354, "tip": 4355, "Street": 4356, "ea@@": 4357, "nurse": 4358, "sing@@": 4359, "bean": 4360, "there@@": 4361, "rush": 4362, "i-@@": 4363, "manner": 4364, "signs": 4365, "College": 4366, "flies": 4367, "hide": 4368, "respond": 4369, "down@@": 4370, "man.": 4371, "interviews": 4372, "freshman": 4373, "techniques": 4374, "fri@@": 4375, "pr@@": 4376, "Black": 4377, "Ramen": 4378, "models": 4379, "Kan@@": 4380, "implied": 4381, "dried": 4382, "recently.": 4383, "stadium": 4384, "measures": 4385, "argument": 4386, "refused": 4387, "physically": 4388, "error": 4389, "ical": 4390, "La@@": 4391, "Britain": 4392, "existence": 4393, "pocket": 4394, "audio": 4395, "paste": 4396, "Dragon": 4397, "uniform": 4398, "cure": 4399, "transferred": 4400, "im@@": 4401, "fifth": 4402, "grocery": 4403, "EN@@": 4404, "awkward.": 4405, "supper": 4406, "concerns": 4407, "ei@@": 4408, "popularity": 4409, "blind": 4410, "formed": 4411, "fortunately": 4412, "dressed": 4413, "chemistry": 4414, "today@@": 4415, "quotation": 4416, "writing.": 4417, "greeting": 4418, "hello": 4419, "ters": 4420, "strategy": 4421, "Eventually": 4422, "feed": 4423, "lay": 4424, "update": 4425, "instrument": 4426, "flu@@": 4427, "6th": 4428, "noun.": 4429, "2006": 4430, "ned": 4431, "horror": 4432, "Minister": 4433, "tur@@": 4434, "gen@@": 4435, ".This": 4436, "hay": 4437, "don@@": 4438, "bunch": 4439, "hurts": 4440, "alot": 4441, "T-shirt": 4442, "Correct": 4443, "ner": 4444, "wasted": 4445, "passes": 4446, "bars": 4447, "advised": 4448, "mentally": 4449, "safely": 4450, "so.": 4451, "composed": 4452, "meaning.": 4453, "or.": 4454, "calendar": 4455, "printed": 4456, "admire": 4457, "Sapporo": 4458, "dr@@": 4459, "supported": 4460, "achieved": 4461, "str@@": 4462, ",which": 4463, "coach": 4464, "shes": 4465, "happier": 4466, "20th": 4467, "mystery": 4468, "Amazon": 4469, "enhance": 4470, "ative": 4471, "clubs": 4472, "roof": 4473, "pan@@": 4474, "ache": 4475, "head@@": 4476, "ay": 4477, "bother": 4478, "performances": 4479, "housework": 4480, "ku": 4481, "consumption": 4482, "remind": 4483, "advise": 4484, "delivered": 4485, "company.": 4486, "cm": 4487, "vote": 4488, "---@@": 4489, "bride": 4490, "cuisine": 4491, "Shin@@": 4492, "robot": 4493, "Brazil": 4494, "instructor": 4495, "commas": 4496, "pronounced": 4497, "belonged": 4498, "battle": 4499, "associated": 4500, "ing-@@": 4501, "previously": 4502, "comp@@": 4503, "buses": 4504, "hearts": 4505, "sive": 4506, "regarded": 4507, "yo": 4508, "humor": 4509, "frozen": 4510, "southern": 4511, "raising": 4512, "28": 4513, "religious": 4514, "prove": 4515, "RFID": 4516, "rely": 4517, "ff@@": 4518, "worries": 4519, "stated": 4520, "Pre@@": 4521, "gender": 4522, "files": 4523, "ON@@": 4524, "complained": 4525, "sung": 4526, "breeze": 4527, "nursery": 4528, "upper": 4529, "Jo@@": 4530, "square": 4531, "kilometers": 4532, "file": 4533, "Little": 4534, "automatically": 4535, "stroke": 4536, "switch": 4537, "cast": 4538, "ality": 4539, "spirits": 4540, "eldest": 4541, "Chiba": 4542, "critical": 4543, "encounter": 4544, "fied": 4545, "matches": 4546, "12@@": 4547, "chain": 4548, "pattern": 4549, "age.": 4550, "receiving": 4551, "Christian": 4552, "patience": 4553, "breaking": 4554, "texts": 4555, "entry.": 4556, "yu": 4557, "grilled": 4558, "evidence": 4559, "Lastly": 4560, "harmful": 4561, "passengers": 4562, "inspired": 4563, "lea@@": 4564, "musician": 4565, "contain": 4566, "hundreds": 4567, "by@@": 4568, "cap@@": 4569, "squ@@": 4570, "sets": 4571, "super@@": 4572, "bottles": 4573, "ings.": 4574, "tends": 4575, "challenges": 4576, "combination": 4577, "ven@@": 4578, "keyboard": 4579, "forth": 4580, "il": 4581, "Sun@@": 4582, "jacket": 4583, "reads": 4584, "manners": 4585, "wave": 4586, "accurate": 4587, "clause": 4588, "counter": 4589, "parks": 4590, "lation": 4591, "maker": 4592, "off@@": 4593, "Ho@@": 4594, "Green": 4595, "de.": 4596, "idiom": 4597, "claim": 4598, "disadvantages": 4599, "intelligent": 4600, "ir": 4601, "in-@@": 4602, "assuming": 4603, "photograph": 4604, "returning": 4605, "apples": 4606, "movie.": 4607, "dear": 4608, "Tower": 4609, "insects": 4610, "fla@@": 4611, "providing": 4612, "planet": 4613, "innovation": 4614, "ll@@": 4615, "Suggestion": 4616, "hat": 4617, "ON": 4618, "recession": 4619, "laws": 4620, "expand": 4621, "technique": 4622, ".com": 4623, "Prime": 4624, "proverb": 4625, "museums": 4626, "IS@@": 4627, "teenagers": 4628, "snow@@": 4629, "Ok": 4630, "wan@@": 4631, "competitive": 4632, "ours": 4633, "exposed": 4634, "ga": 4635, "classic": 4636, "partners": 4637, "tons": 4638, "typing": 4639, "relative": 4640, "belongs": 4641, "10th": 4642, "shining": 4643, "etc..": 4644, "youtube": 4645, "right.": 4646, ".You": 4647, "Nara": 4648, "decisions": 4649, "ur": 4650, "quote": 4651, "gr@@": 4652, "U.S.": 4653, "sells": 4654, "firm": 4655, "san": 4656, "shame": 4657, "episodes": 4658, "ori": 4659, "t..": 4660, "snowed": 4661, "educated": 4662, "billion": 4663, "remaining": 4664, "ward": 4665, "mind.": 4666, "mission": 4667, "strange.": 4668, "Haha": 4669, "kinda": 4670, "US@@": 4671, "seek": 4672, "introducing": 4673, "President": 4674, "puts": 4675, "sted": 4676, "ner@@": 4677, "collection": 4678, "recall": 4679, "Afterwards": 4680, "min": 4681, "decades": 4682, "plan@@": 4683, "rough": 4684, "here@@": 4685, "show@@": 4686, "consecutive": 4687, "able.": 4688, "me,": 4689, "dorm": 4690, "chemical": 4691, "tional": 4692, "disasters": 4693, "channel": 4694, "ces": 4695, "tru@@": 4696, "professors": 4697, "convey": 4698, "origin": 4699, "souvenir": 4700, "times.": 4701, "snack": 4702, "survey": 4703, "trans@@": 4704, "block": 4705, "blame": 4706, "15th": 4707, "V": 4708, "OS": 4709, "acted": 4710, "Buddhist": 4711, "n't.": 4712, "gorgeous": 4713, "Mom": 4714, "commute": 4715, "submit": 4716, "NHK": 4717, "discrimination": 4718, "1.@@": 4719, "specifically": 4720, "adapt": 4721, "fake": 4722, "arrange": 4723, "Karaoke": 4724, "have@@": 4725, "irritated": 4726, "t...": 4727, "ori@@": 4728, "shut": 4729, "ny": 4730, "cho@@": 4731, "brave": 4732, "30@@": 4733, "Yo@@": 4734, "Things": 4735, "arrested": 4736, "ex": 4737, "Watching": 4738, "idioms": 4739, "emotion": 4740, "weapons": 4741, "attempt": 4742, "lacking": 4743, "concerning": 4744, "part@@": 4745, "ars": 4746, "sy@@": 4747, "tive.": 4748, "promote": 4749, "room@@": 4750, "affects": 4751, "vision": 4752, "bone": 4753, "kers": 4754, "eng@@": 4755, "omit": 4756, "Look": 4757, "illegal": 4758, "possible.": 4759, "t.@@": 4760, "log": 4761, "be.": 4762, "ken": 4763, "sickness": 4764, "studio": 4765, "resolution": 4766, "continuous": 4767, "Over": 4768, "conducted": 4769, "Meanwhile": 4770, "comparison": 4771, "fac@@": 4772, "attractions": 4773, "Back": 4774, "deadline": 4775, "pull": 4776, "n.": 4777, "books.": 4778, "cups": 4779, "ine.": 4780, "Q": 4781, "dollar": 4782, "volunteers": 4783, "displayed": 4784, "te.": 4785, "lovers": 4786, "steak": 4787, "Shibuya": 4788, "league": 4789, "quake": 4790, "2004": 4791, ",000": 4792, "spe@@": 4793, "Surprisingly": 4794, "serving": 4795, "promotion": 4796, "CH@@": 4797, "16@@": 4798, "differently": 4799, "fer@@": 4800, "click": 4801, "wears": 4802, "tomatoes": 4803, "AK@@": 4804, "sources": 4805, "Several": 4806, "approaching": 4807, "IS": 4808, "meaningful": 4809, "Au@@": 4810, "Sho@@": 4811, "ure": 4812, "boots": 4813, "nickname": 4814, "afterwards": 4815, "cabbage": 4816, "sufficient": 4817, "causing": 4818, "decreased": 4819, "ser@@": 4820, "favor": 4821, "He@@": 4822, "Hopefully": 4823, "va@@": 4824, "ya@@": 4825, "assumed": 4826, "handed": 4827, "attacked": 4828, "Put": 4829, "ago@@": 4830, "Education": 4831, "options": 4832, "bl@@": 4833, "graphic": 4834, "Best": 4835, "fingers": 4836, "description": 4837, "elevator": 4838, "funeral": 4839, "/or": 4840, "pretend": 4841, "Bhutan": 4842, "ators": 4843, "er-@@": 4844, "Science": 4845, "expectations": 4846, "IC@@": 4847, "stu@@": 4848, "represents": 4849, "TE@@": 4850, "ties.": 4851, "it..": 4852, "rhythm": 4853, "instead.": 4854, "core": 4855, "dealing": 4856, "17@@": 4857, "bs": 4858, "fil@@": 4859, "urban": 4860, "Music": 4861, "ge.": 4862, "ladies": 4863, "badminton": 4864, "Tokyo.": 4865, "treasure": 4866, "Olympic": 4867, "ide@@": 4868, "two-@@": 4869, "ve.": 4870, "name.": 4871, "xD": 4872, "rea@@": 4873, "ore": 4874, "Per@@": 4875, "int@@": 4876, "struck": 4877, "Man": 4878, "eats": 4879, "fond": 4880, "Shizuoka": 4881, "closely": 4882, "tendency": 4883, "adjust": 4884, "stolen": 4885, "clearer": 4886, "ther": 4887, "reflect": 4888, "person@@": 4889, "I.": 4890, "radioactive": 4891, "ingly": 4892, "trained": 4893, "Pro@@": 4894, "metal": 4895, "facts": 4896, "fancy": 4897, "detailed": 4898, "800": 4899, "selfish": 4900, "50@@": 4901, "worn": 4902, "Jackson": 4903, "tom@@": 4904, "Make": 4905, "people@@": 4906, "accents": 4907, "trash": 4908, "amusement": 4909, "stiff": 4910, "inform": 4911, "IV": 4912, "designs": 4913, "storm": 4914, "s'": 4915, "tele@@": 4916, "burn": 4917, "/my": 4918, "cigarettes": 4919, "supporting": 4920, "Mr.": 4921, "J": 4922, "ology": 4923, "Tom": 4924, "sounding": 4925, "UR@@": 4926, "comprehension": 4927, "calories": 4928, "seniors": 4929, "split": 4930, "medi@@": 4931, "indicate": 4932, "Ku@@": 4933, "Do@@": 4934, "fought": 4935, "hy@@": 4936, "figures": 4937, "clever": 4938, "LA": 4939, "shouted": 4940, "tv": 4941, "test.": 4942, "EN": 4943, "household": 4944, "walls": 4945, "Ra@@": 4946, "Poland": 4947, "goodbye": 4948, "surf": 4949, "plain": 4950, "ty.": 4951, "forgive": 4952, "gun": 4953, "----": 4954, "pollen": 4955, "blooming": 4956, "objective": 4957, "surveillance": 4958, "Among": 4959, "housing": 4960, "crowd": 4961, "powder": 4962, "poverty": 4963, "11@@": 4964, "0@@": 4965, "philosophy": 4966, "fire@@": 4967, "think@@": 4968, "tre@@": 4969, "download": 4970, ",you": 4971, "concerts": 4972, "★": 4973, "surrounding": 4974, "print": 4975, "admission": 4976, "hotels": 4977, "edge": 4978, "xi@@": 4979, "stones": 4980, "foo@@": 4981, "sooner": 4982, "alright": 4983, "t,": 4984, "celebration": 4985, "specify": 4986, "sm": 4987, "nations": 4988, "tal@@": 4989, "complaining": 4990, "writes": 4991, "oven": 4992, "im": 4993, "iron": 4994, "sadness": 4995, "situation.": 4996, "River": 4997, "Cherry": 4998, "operating": 4999, "Nuclear": 5000, "tically": 5001, "Che@@": 5002, "sters": 5003, "yed": 5004, "Ten@@": 5005, "stranger": 5006, "word@@": 5007, "soap": 5008, "danced": 5009, "Technology": 5010, "sexual": 5011, "dic@@": 5012, "27": 5013, "Center": 5014, "assigned": 5015, "concentration": 5016, "cloth": 5017, "PS": 5018, "disappear": 5019, "gg@@": 5020, "℃": 5021, "Station": 5022, "say@@": 5023, "Indonesia": 5024, "labor": 5025, "monthly": 5026, "applying": 5027, "accidentally": 5028, "aside": 5029, "gathering": 5030, "ti": 5031, "soldiers": 5032, "Ti@@": 5033, "ing.@@": 5034, "like@@": 5035, "homestay": 5036, "mask": 5037, "hair@@": 5038, "smells": 5039, "thing@@": 5040, "ㅠ": 5041, "measure": 5042, "convinced": 5043, "BBC": 5044, "&@@": 5045, "hotter": 5046, "9th": 5047, "wished": 5048, "institute": 5049, "plot": 5050, "learner": 5051, "seafood": 5052, "soaked": 5053, "English-speaking": 5054, "e..": 5055, "tsu@@": 5056, "invented": 5057, "bomb": 5058, "grows": 5059, "payment": 5060, "lion": 5061, "hopes": 5062, "music.": 5063, "decorated": 5064, "Too": 5065, "fun.": 5066, "objects": 5067, "que": 5068, "kan@@": 5069, "broadcasting": 5070, "positions": 5071, "ut@@": 5072, "high@@": 5073, "dictionaries": 5074, "city.": 5075, "uncountable": 5076, "discussing": 5077, "our@@": 5078, "Wi@@": 5079, "dating": 5080, "ching": 5081, "ster@@": 5082, "Normally": 5083, "ently": 5084, "ley": 5085, "recording": 5086, "shoot": 5087, "pp@@": 5088, "worldwide": 5089, "Fi@@": 5090, "talented": 5091, "atomic": 5092, "brilliant": 5093, "AN": 5094, "gla@@": 5095, "Lu@@": 5096, "energetic": 5097, "comfort": 5098, "Unless": 5099, "expresses": 5100, "headed": 5101, "land@@": 5102, "processes": 5103, "retired": 5104, "zation": 5105, "DS": 5106, "merely": 5107, "Basically": 5108, "af@@": 5109, "tter": 5110, "enemy": 5111, "appetite": 5112, "seeds": 5113, "smiles": 5114, "sunset": 5115, "grandma": 5116, "translator": 5117, "script": 5118, "runny": 5119, "onion": 5120, "belief": 5121, "Ad@@": 5122, "purposes": 5123, "summary": 5124, "ening": 5125, "cruel": 5126, "West": 5127, "catching": 5128, "exception": 5129, "bor@@": 5130, "ale": 5131, "time..": 5132, "eel": 5133, "acts": 5134, "-up": 5135, "ity.": 5136, "reserved": 5137, "twelve": 5138, "ridiculous": 5139, "Kin@@": 5140, "stops": 5141, "shooting": 5142, "Always": 5143, "Hollywood": 5144, "about.": 5145, "tired.": 5146, "spelled": 5147, "pepper": 5148, "weekend.": 5149, "jeans": 5150, "shrines": 5151, "31": 5152, "superior": 5153, "Inter@@": 5154, "eri@@": 5155, "winning": 5156, "highway": 5157, "zu": 5158, "spaces": 5159, "RE@@": 5160, "endure": 5161, "dessert": 5162, "climbed": 5163, "well@@": 5164, "debate": 5165, "graduates": 5166, "sho@@": 5167, "ger@@": 5168, "route": 5169, "incredible": 5170, "ans@@": 5171, "china": 5172, "scored": 5173, "preposition": 5174, "hours.": 5175, "reception": 5176, "i.": 5177, "haircut": 5178, "cough": 5179, "ung": 5180, "experiments": 5181, "criminal": 5182, "problem.": 5183, "ski@@": 5184, "13@@": 5185, "son@@": 5186, "ini@@": 5187, "ep@@": 5188, "tofu": 5189, "yama": 5190, "Im": 5191, "pushed": 5192, "ER@@": 5193, "supermarkets": 5194, "Jack": 5195, "reputation": 5196, "ano": 5197, "ched": 5198, "Dear": 5199, "ms.": 5200, "ugly": 5201, "conversational": 5202, "fifteen": 5203, "UN@@": 5204, "CNN": 5205, "Moscow": 5206, "hospitals": 5207, "Consequently": 5208, "risks": 5209, "legal": 5210, "intention": 5211, "investment": 5212, "Central": 5213, "Cha@@": 5214, "occurs": 5215, "insist": 5216, "exercising": 5217, "II": 5218, "water@@": 5219, "explaining": 5220, "kes": 5221, "violent": 5222, "interest@@": 5223, "lasts": 5224, "loving": 5225, "past.": 5226, "go.": 5227, "int": 5228, "sure.": 5229, "burning": 5230, "non@@": 5231, "400": 5232, "practise": 5233, "al-@@": 5234, "temp@@": 5235, "pas@@": 5236, "/www.@@": 5237, "ous@@": 5238, "accounting": 5239, "banana": 5240, "tors": 5241, "solving": 5242, "hopefully": 5243, "sis": 5244, "fashionable": 5245, "farmers": 5246, "to-@@": 5247, "command": 5248, "Women": 5249, "understandable": 5250, "humidity": 5251, "China.": 5252, "hardest": 5253, "/in": 5254, "e.g.": 5255, "atory": 5256, "vehicles": 5257, "crossed": 5258, "tourism": 5259, "informed": 5260, "ging": 5261, "bringing": 5262, "resi@@": 5263, "tics": 5264, "Col@@": 5265, "MSN": 5266, "medal": 5267, "Personally": 5268, "vs": 5269, "emphasize": 5270, "40@@": 5271, "flows": 5272, "uk@@": 5273, "authors": 5274, "winner": 5275, "mess": 5276, "story.": 5277, "everyday.": 5278, "context.": 5279, "class@@": 5280, "Has": 5281, "chopsticks": 5282, "picnic": 5283, "ful@@": 5284, "relieve": 5285, "researchers": 5286, "minor": 5287, "crucial": 5288, "repeated": 5289, "ences": 5290, "ut": 5291, "pursue": 5292, "anxiety": 5293, "Taking": 5294, "bell": 5295, "iphone": 5296, "Business": 5297, "creatures": 5298, "car.": 5299, "dust": 5300, "ence.": 5301, "chilly": 5302, "childish": 5303, "embarrassing": 5304, "case.": 5305, "site.": 5306, "sofa": 5307, "terribly": 5308, "Polish": 5309, "Francisco": 5310, "gloomy": 5311, "ened": 5312, "elements": 5313, "For@@": 5314, "pat@@": 5315, "engine": 5316, "es,": 5317, "shima": 5318, "Mexican": 5319, "was@@": 5320, "but@@": 5321, "barbecue": 5322, "emails": 5323, "8th": 5324, "ull": 5325, "Listening": 5326, "controlled": 5327, "microwave": 5328, "uneasy": 5329, "wooden": 5330, "Never": 5331, "Kim": 5332, "lottery": 5333, "Shrine": 5334, "21st": 5335, "cru@@": 5336, "harsh": 5337, "smooth": 5338, "ture": 5339, "Ste@@": 5340, "pre-@@": 5341, "fl@@": 5342, "Nor@@": 5343, "tly": 5344, "writers": 5345, "throwing": 5346, "posting": 5347, "hon@@": 5348, "roses": 5349, "tenses": 5350, "rushed": 5351, "wealth": 5352, "gratitude": 5353, "roles": 5354, "delayed": 5355, "Power": 5356, "relation": 5357, "half-@@": 5358, "les.": 5359, "S.": 5360, "know@@": 5361, "landscape": 5362, "happ@@": 5363, "NOT": 5364, "meant.": 5365, "vowel": 5366, "Nagano": 5367, "Malaysia": 5368, "harm": 5369, "psychological": 5370, "aries": 5371, "mal@@": 5372, "Any": 5373, "comparing": 5374, "gaining": 5375, "ats": 5376, "enthusiastic": 5377, "vague": 5378, "en-@@": 5379, "others.": 5380, "dreamed": 5381, "ger": 5382, "ap": 5383, "lift": 5384, "ving": 5385, "hire": 5386, "ite": 5387, "cri@@": 5388, "waking": 5389, "good@@": 5390, "strawberry": 5391, "planted": 5392, "Beatles": 5393, "definition": 5394, "gri@@": 5395, "ances": 5396, "species": 5397, "achievement": 5398, "grave": 5399, "ban": 5400, "iness": 5401, "fascinating": 5402, "adjectives": 5403, "end.": 5404, "king.": 5405, "grand": 5406, "Ji@@": 5407, "silver": 5408, "agent": 5409, "dependent": 5410, "regards": 5411, "politicians": 5412, "platform": 5413, "hiking": 5414, "silence": 5415, "rac@@": 5416, "va": 5417, "Making": 5418, "es..": 5419, "week@@": 5420, "balcony": 5421, "Japanese@@": 5422, "repaired": 5423, "ded.": 5424, "ari": 5425, "bite": 5426, "Rock": 5427, "requirements": 5428, "technological": 5429, "poli@@": 5430, "ism": 5431, "invention": 5432, "enti@@": 5433, "repeatedly": 5434, "Up": 5435, "fascinated": 5436, "ar.": 5437, "month@@": 5438, "cant": 5439, "sophisticated": 5440, "Whether": 5441, "proposed": 5442, "shake": 5443, "yours": 5444, "niece": 5445, "am.": 5446, "game.": 5447, "aly": 5448, "months.": 5449, "honestly": 5450, "English,": 5451, "this@@": 5452, "conjunction": 5453, "serves": 5454, "IM@@": 5455, "hidden": 5456, "Bi@@": 5457, "property": 5458, "every@@": 5459, "onions": 5460, "pond": 5461, "soba": 5462, "temperatures": 5463, "frame": 5464, "fatigue": 5465, "memorizing": 5466, "lar@@": 5467, "relief": 5468, "Toyota": 5469, "TH@@": 5470, "coast": 5471, "punctuation": 5472, "troubled": 5473, "'to": 5474, "office.": 5475, "14th": 5476, "leaf": 5477, "dle": 5478, "broadcasted": 5479, "Shinkansen": 5480, "udon": 5481, "maintenance": 5482, "aw@@": 5483, "ignored": 5484, "quantity": 5485, "re": 5486, "stream": 5487, "ara": 5488, "overnight": 5489, "shocking": 5490, "ES@@": 5491, "finds": 5492, "mil@@": 5493, "presentations": 5494, "children.": 5495, "diving": 5496, "misunderstood": 5497, "gay": 5498, "though@@": 5499, "は": 5500, "Palace": 5501, "samurai": 5502, "referred": 5503, "requested": 5504, "compete": 5505, "che": 5506, "bikes": 5507, "tight": 5508, "remained": 5509, "explains": 5510, "premium": 5511, "ja@@": 5512, "unbelievable": 5513, "accomplish": 5514, "age@@": 5515, "mid-@@": 5516, "bothered": 5517, "unpleasant": 5518, "skills.": 5519, "dai@@": 5520, "i.e.": 5521, "waiter": 5522, "English..": 5523, "scent": 5524, "yummy": 5525, "Example": 5526, "percentage": 5527, "province": 5528, "demands": 5529, "taxes": 5530, "Father": 5531, "wherever": 5532, "plus": 5533, "observe": 5534, "wasting": 5535, "gy@@": 5536, "dreaming": 5537, "said.": 5538, "sheep": 5539, "invitation": 5540, "dumplings": 5541, "breathe": 5542, "determine": 5543, "gener@@": 5544, "ino": 5545, "continuously": 5546, "1,@@": 5547, "shaking": 5548, "Mac@@": 5549, "ING": 5550, "aloud": 5551, "down.": 5552, "poems": 5553, "LE@@": 5554, "lively": 5555, "nails": 5556, "NZ": 5557, "exchanged": 5558, "Murakami": 5559, "＾": 5560, "heater": 5561, "generate": 5562, "massive": 5563, "deli@@": 5564, "fairly": 5565, "ia": 5566, "sees": 5567, "ire": 5568, "dor@@": 5569, "knife": 5570, "gi": 5571, "foolish": 5572, "com": 5573, "25th": 5574, "pig": 5575, "an-@@": 5576, "ageing": 5577, "cla@@": 5578, "zes": 5579, "sin@@": 5580, "emp@@": 5581, "equivalent": 5582, "flexible": 5583, "low@@": 5584, "Lee": 5585, "Indeed": 5586, "win@@": 5587, "spo@@": 5588, "Working": 5589, "picking": 5590, "sleep@@": 5591, "adverb": 5592, "off.": 5593, "moments": 5594, "aquarium": 5595, "students.": 5596, "OK@@": 5597, "shop@@": 5598, "dental": 5599, "Kanto": 5600, "unit": 5601, "alism": 5602, "tire": 5603, "14@@": 5604, "patterns": 5605, "Mary": 5606, "lit": 5607, "outdoor": 5608, "announcement": 5609, "figured": 5610, "Okay": 5611, "alphabet": 5612, ",he": 5613, "parade": 5614, "jog": 5615, "photographs": 5616, "existing": 5617, "co-@@": 5618, "ged": 5619, "ought": 5620, "sse@@": 5621, "closing": 5622, "transport": 5623, "ges": 5624, "far@@": 5625, "Sha@@": 5626, "burned": 5627, "install": 5628, "Qu@@": 5629, "inconvenient": 5630, "ama": 5631, "doll": 5632, "sou@@": 5633, "regretted": 5634, "SU@@": 5635, "'cause": 5636, "pain@@": 5637, "camping": 5638, "spaghetti": 5639, "praised": 5640, "non-native": 5641, "melody": 5642, "Miyazaki": 5643, "Native": 5644, "academy": 5645, "zu@@": 5646, "butter": 5647, "tation": 5648, "numerous": 5649, "centre": 5650, "Wa@@": 5651, "holds": 5652, "hur@@": 5653, "stri@@": 5654, "read@@": 5655, "affairs": 5656, "'and": 5657, "Netherlands": 5658, "coin": 5659, "Arabic": 5660, "honey": 5661, "party.": 5662, "swam": 5663, "use.": 5664, "12th": 5665, "Manga": 5666, "cafes": 5667, "protection": 5668, "productive": 5669, "chips": 5670, "crimes": 5671, "ama@@": 5672, "nursing": 5673, "wheel": 5674, "innocent": 5675, "mother@@": 5676, "organize": 5677, "refreshing": 5678, ",there": 5679, "monkey": 5680, "Get": 5681, "boy@@": 5682, "weekday": 5683, "sumo": 5684, "Bangkok": 5685, "concepts": 5686, "decline": 5687, "Vi@@": 5688, "cooperation": 5689, "skip": 5690, "Around": 5691, "sample": 5692, "snowy": 5693, "place@@": 5694, "ER": 5695, "peoples": 5696, "fu": 5697, "tively": 5698, "feedback": 5699, "29": 5700, "tan@@": 5701, "ey": 5702, "Thinking": 5703, "shu@@": 5704, "makeup": 5705, "oun@@": 5706, "Te@@": 5707, "quotes": 5708, "used.": 5709, "s,I": 5710, "sleep.": 5711, "belly": 5712, "2003": 5713, "mm@@": 5714, "assistance": 5715, "focusing": 5716, "refuse": 5717, "satisfy": 5718, "fy": 5719, "dom@@": 5720, "posi@@": 5721, "Airport": 5722, "sunlight": 5723, "pride": 5724, "coins": 5725, "allergy": 5726, "mp": 5727, "Blue": 5728, "pic@@": 5729, "Seattle": 5730, "ESL": 5731, "charming": 5732, "day,": 5733, "guard": 5734, "Old": 5735, "so-called": 5736, "cleaner": 5737, "Bri@@": 5738, "cameras": 5739, "campaign": 5740, "bal@@": 5741, "Help": 5742, "ank@@": 5743, "fifty": 5744, "offices": 5745, "shoulders": 5746, "student@@": 5747, "sle@@": 5748, "ated.": 5749, "day..": 5750, "LOL": 5751, "costume": 5752, "belt": 5753, "championship": 5754, "Hot": 5755, "standards": 5756, "harvest": 5757, "bun@@": 5758, "experiencing": 5759, "savings": 5760, "directed": 5761, "stic": 5762, "cs": 5763, "tuition": 5764, "comfortably": 5765, "Latin": 5766, "verb.": 5767, "por@@": 5768, "jealous": 5769, "tied": 5770, "2-@@": 5771, "Diary": 5772, "ghosts": 5773, "Girl": 5774, "Kindle": 5775, "collected": 5776, "san@@": 5777, "earned": 5778, "lic@@": 5779, "flat@@": 5780, "Social": 5781, "inner": 5782, "Her@@": 5783, "ships": 5784, "scholarship": 5785, "stays": 5786, "absence": 5787, "confuse": 5788, "ese": 5789, "genius": 5790, "expert": 5791, "heaven": 5792, "adventure": 5793, "islands": 5794, "anymore.": 5795, "drums": 5796, "bowling": 5797, "Akihabara": 5798, "overall": 5799, "long@@": 5800, "identify": 5801, "boo@@": 5802, "2.@@": 5803, "low-@@": 5804, "monitor": 5805, "hel@@": 5806, "Cor@@": 5807, "dies": 5808, "Work": 5809, "E-@@": 5810, "deliver": 5811, "ping": 5812, "ore@@": 5813, "extreme": 5814, "sed.": 5815, "insisted": 5816, "heritage": 5817, "Mc@@": 5818, "sings": 5819, "whi@@": 5820, "watch@@": 5821, "EL@@": 5822, "then@@": 5823, "here...": 5824, "chorus": 5825, "conduct": 5826, "Government": 5827, "fulfill": 5828, "vehicle": 5829, "covers": 5830, "Star": 5831, "alized": 5832, "ited": 5833, "Unlike": 5834, "listed": 5835, "performing": 5836, "guilty": 5837, "laid": 5838, "hi": 5839, "agreement": 5840, "ites": 5841, "Alice": 5842, "interesting.": 5843, "thunder": 5844, "comma.": 5845, "s.I": 5846, "rewrite": 5847, "donate": 5848, ",she": 5849, "new@@": 5850, "Lady": 5851, "ONE": 5852, "Human": 5853, "knee": 5854, "hear@@": 5855, "rates": 5856, "visi@@": 5857, "3-@@": 5858, "Tom@@": 5859, "comm@@": 5860, "aggressive": 5861, "Tak@@": 5862, "kick": 5863, "occasion": 5864, "away.": 5865, "als.": 5866, "burst": 5867, "bad@@": 5868, "victory": 5869, "/to": 5870, "sentence@@": 5871, "dizzy": 5872, "Night": 5873, "bake": 5874, "capable": 5875, "breaks": 5876, "ber": 5877, "Pu@@": 5878, "Can@@": 5879, "Sp@@": 5880, "ne": 5881, "phone.": 5882, "idol": 5883, "Emperor": 5884, "mon": 5885, "Niigata": 5886, "carrier": 5887, "moves": 5888, "val@@": 5889, "finance": 5890, "cope": 5891, "criminals": 5892, "businesses": 5893, "excitement": 5894, "Web": 5895, "yard": 5896, "Years": 5897, "satisfaction": 5898, "personalities": 5899, "t,@@": 5900, "Young": 5901, "blowing": 5902, "cigarette": 5903, "ceiling": 5904, "fossil": 5905, "reliable": 5906, "k-@@": 5907, "predict": 5908, "amounts": 5909, "random": 5910, "0.@@": 5911, "post@@": 5912, "ation@@": 5913, "Foreign": 5914, "ren@@": 5915, "ici@@": 5916, "tail": 5917, "ads": 5918, "brief": 5919, "foundation": 5920, "regions": 5921, "races": 5922, "tives": 5923, "long.": 5924, "Tell": 5925, "zz@@": 5926, "di": 5927, "ipod": 5928, "nephew": 5929, "best.": 5930, "le-@@": 5931, "carbon": 5932, "invest": 5933, "funding": 5934, "hence": 5935, "boiling": 5936, "conflict": 5937, "penalty": 5938, "ssi@@": 5939, "100@@": 5940, "delighted": 5941, "proficiency": 5942, "sh.": 5943, "study.": 5944, "ful.": 5945, "ghost": 5946, "commit": 5947, "65": 5948, "mode": 5949, "Times": 5950, "forces": 5951, "warning": 5952, "Getting": 5953, "run@@": 5954, "han@@": 5955, "summer.": 5956, "towns": 5957, "booked": 5958, "alcoholic": 5959, "alone.": 5960, "celebrating": 5961, "stuffed": 5962, "jumping": 5963, "blank": 5964, "baths": 5965, "Haruki": 5966, "identity": 5967, "safer": 5968, "rapid": 5969, "assist": 5970, "deeper": 5971, "fication": 5972, "short@@": 5973, "walks": 5974, "preferred": 5975, "meets": 5976, "Needless": 5977, "ze@@": 5978, "biology": 5979, "logged": 5980, "electronics": 5981, "unsure": 5982, "za": 5983, "heroine": 5984, "yogurt": 5985, "Disneyland": 5986, "socks": 5987, "portion": 5988, "operate": 5989, "interior": 5990, "markets": 5991, "25@@": 5992, "caring": 5993, "enthusiasm": 5994, "soil": 5995, "recipes": 5996, "Tu@@": 5997, "paragraph": 5998, "back.": 5999, "fantasy": 6000, "shirts": 6001, "waist": 6002, "ho": 6003, "Dai@@": 6004, "em": 6005, "je@@": 6006, "doors": 6007, "lenses": 6008, "ries": 6009, "sses": 6010, "periods": 6011, "boil": 6012, "hom@@": 6013, "ban@@": 6014, "souvenirs": 6015, "IT@@": 6016, "difficult.": 6017, "Sakura": 6018, "Lang8": 6019, "mo": 6020, "commercials": 6021, "Kamakura": 6022, "NYC": 6023, "launched": 6024, "statistics": 6025, "err@@": 6026, "homeless": 6027, "capacity": 6028, "appreciation": 6029, "admitted": 6030, "uniforms": 6031, "chest": 6032, "dare": 6033, "port": 6034, "confirmed": 6035, "cloud": 6036, ",a": 6037, "rang": 6038, "teacher.": 6039, "repeating": 6040, "bedroom": 6041, "means.": 6042, "er,": 6043, "junk": 6044, "anything.": 6045, "chef": 6046, "Chernobyl": 6047, "pension": 6048, "Air": 6049, "producing": 6050, "enables": 6051, "drops": 6052, "dialogue": 6053, "shapes": 6054, "sized": 6055, "ah": 6056, "Study": 6057, "heart@@": 6058, "fan@@": 6059, "Pacific": 6060, "Mu@@": 6061, "explanations": 6062, "13th": 6063, "cafeteria": 6064, "hates": 6065, "uni": 6066, "Chicago": 6067, "Buddha": 6068, "steam": 6069, "infrastructure": 6070, "enormous": 6071, "Living": 6072, "Ministry": 6073, "banned": 6074, "cul@@": 6075, "fitness": 6076, "citizen": 6077, "fired": 6078, "represent": 6079, "swi@@": 6080, "19th": 6081, "representative": 6082, "hesitated": 6083, "while.": 6084, "like.": 6085, "aka": 6086, "blew": 6087, "g.": 6088, "twi@@": 6089, "skirt": 6090, "violin": 6091, "い": 6092, "Ichiro": 6093, "ballet": 6094, "Narita": 6095, "alization": 6096, "simpler": 6097, "moral": 6098, "factories": 6099, "meter": 6100, "Ever": 6101, "civil": 6102, "concrete": 6103, "structures": 6104, "150": 6105, "ff": 6106, "sm@@": 6107, "yuan": 6108, "Mer@@": 6109, "characteristic": 6110, "backgrounds": 6111, "Men": 6112, "barber": 6113, "tuna": 6114, "beginners": 6115, "tonight.": 6116, "rainbow": 6117, "shop.": 6118, "avoided": 6119, "partly": 6120, "administration": 6121, "sli@@": 6122, "News": 6123, "gasoline": 6124, "Out": 6125, "AT@@": 6126, "qui@@": 6127, "ics": 6128, "fellow": 6129, "ory": 6130, "okay.": 6131, "quietly": 6132, "are.": 6133, "hostel": 6134, "natives": 6135, "exam.": 6136, "first.": 6137, "bass": 6138, "draft": 6139, "hahaha": 6140, "much@@": 6141, "industrial": 6142, "Company": 6143, "ths": 6144, "believes": 6145, "The@@": 6146, "orders": 6147, "actively": 6148, "opposed": 6149, "tune": 6150, "Microsoft": 6151, "loose": 6152, "pie": 6153, "lock": 6154, "bo": 6155, "help@@": 6156, "bus@@": 6157, "colour": 6158, "google": 6159, "unlucky": 6160, "eat@@": 6161, "tube": 6162, "tale": 6163, "praise": 6164, "Introduction": 6165, "hairstyle": 6166, "Ju@@": 6167, "supervisor": 6168, "corn": 6169, "Parents": 6170, "ST@@": 6171, "fiscal": 6172, "consumers": 6173, "curiosity": 6174, "app@@": 6175, "violence": 6176, "A.": 6177, "destroy": 6178, "cancelled": 6179, "Paul": 6180, "certificate": 6181, "plural.": 6182, "breathing": 6183, "Bye": 6184, "girl@@": 6185, "poster": 6186, "Girls": 6187, "Korea.": 6188, "caf": 6189, "hehe": 6190, "division": 6191, "Castle": 6192, "discovery": 6193, "cent@@": 6194, "involves": 6195, "leisure": 6196, "controversial": 6197, "permission": 6198, "inc@@": 6199, "directions": 6200, "chil@@": 6201, "input": 6202, "RO@@": 6203, "apparently": 6204, "Imperial": 6205, "Whatever": 6206, "Perfect": 6207, "Lake": 6208, "fishes": 6209, "logy": 6210, "Thirdly": 6211, "Food": 6212, "Give": 6213, "Hotel": 6214, "ction": 6215, "occured": 6216, "strictly": 6217, "hot@@": 6218, "Wikipedia": 6219, "intelligence": 6220, "aga@@": 6221, "ink": 6222, "more@@": 6223, "od@@": 6224, "ata": 6225, "teenager": 6226, "minutes.": 6227, "'s.": 6228, "luggage": 6229, "•": 6230, "p.m": 6231, "camp@@": 6232, "fairy": 6233, "acquaintance": 6234, "scolded": 6235, "procedure": 6236, "2012": 6237, "mini": 6238, "organizations": 6239, "cells": 6240, "shelf": 6241, "smo@@": 6242, "visual": 6243, "dramatic": 6244, "ef@@": 6245, "miles": 6246, "li": 6247, "server": 6248, "10,000": 6249, "remembering": 6250, "it...": 6251, "connecting": 6252, "different.": 6253, "sour": 6254, "mean@@": 6255, "shrimp": 6256, "calligraphy": 6257, "kai": 6258, "decent": 6259, "bills": 6260, "managers": 6261, "committed": 6262, "reveal": 6263, "assi@@": 6264, "misunderstanding": 6265, "Family": 6266, "punishment": 6267, "proof": 6268, "leaders": 6269, "Yahoo": 6270, "History": 6271, "offering": 6272, "creates": 6273, "cancel": 6274, "'in": 6275, "honor": 6276, "mes": 6277, "brands": 6278, "mess@@": 6279, "fool": 6280, "speeches": 6281, "phrase.": 6282, "hour@@": 6283, "splendid": 6284, "burger": 6285, "chapter": 6286, "ance.": 6287, "Udon": 6288, "conventional": 6289, "Public": 6290, "heading": 6291, "experts": 6292, "precise": 6293, "wins": 6294, "000": 6295, "nightmare": 6296, "quarter": 6297, "ligh@@": 6298, "liquid": 6299, "LO@@": 6300, "false": 6301, "'it": 6302, "closest": 6303, "travels": 6304, "keen": 6305, "Games": 6306, "messy": 6307, "nu@@": 6308, "writting": 6309, "e.@@": 6310, "itchy": 6311, "dances": 6312, "mixi": 6313, "non-Japanese": 6314, "consequences": 6315, "infected": 6316, "generated": 6317, "designing": 6318, "Ga@@": 6319, "internal": 6320, "entr@@": 6321, "owners": 6322, "bro@@": 6323, "incomplete": 6324, "NO@@": 6325, "But@@": 6326, "den": 6327, "sl@@": 6328, "pour": 6329, "establish": 6330, "qualities": 6331, "dining": 6332, "settled": 6333, "D.": 6334, "Greek": 6335, "re.": 6336, "Keep": 6337, "eve": 6338, "ite@@": 6339, "flavored": 6340, "organic": 6341, "said,": 6342, "※": 6343, "Kou@@": 6344, "State": 6345, "Job": 6346, "weakness": 6347, "sticks": 6348, "qualified": 6349, "ately": 6350, "wars": 6351, "skilled": 6352, "abandoned": 6353, "sol@@": 6354, "refresh": 6355, "pressed": 6356, "dates": 6357, "la": 6358, "bullet": 6359, "Portuguese": 6360, "AND": 6361, "after@@": 6362, "part.": 6363, "Jesus": 6364, "statue": 6365, "s,and": 6366, "me...": 6367, "tragedy": 6368, "accounts": 6369, "prison": 6370, "pal@@": 6371, "claimed": 6372, "train@@": 6373, "crea@@": 6374, "ranking": 6375, "tap": 6376, "analyze": 6377, "tar@@": 6378, "complaints": 6379, "spreading": 6380, "murder": 6381, "speak@@": 6382, "understand@@": 6383, "sel@@": 6384, "dinner.": 6385, "garlic": 6386, "24th": 6387, "stomachache": 6388, "freezing": 6389, "implemented": 6390, "reducing": 6391, "2002": 6392, "chairs": 6393, "ining": 6394, "sharp": 6395, "conscious": 6396, "present@@": 6397, "vending": 6398, "forgetting": 6399, "Book": 6400, "ise": 6401, "ham": 6402, "lish": 6403, "ments.": 6404, "Holiday": 6405, "late.": 6406, "holiday.": 6407, "30th": 6408, "Ueno": 6409, "tension": 6410, "awareness": 6411, "robots": 6412, "radi@@": 6413, "evaluate": 6414, "proposal": 6415, "cl@@": 6416, "contained": 6417, "fare": 6418, "traditions": 6419, "tires": 6420, "reserve": 6421, "typically": 6422, "participating": 6423, "Moon": 6424, "arriving": 6425, "omi@@": 6426, "groom": 6427, "bears": 6428, "Teacher": 6429, "apologized": 6430, "E-mail": 6431, "sexy": 6432, "restart": 6433, "carrots": 6434, "encountered": 6435, "nutrition": 6436, "CEO": 6437, "human@@": 6438, "granted": 6439, "Bar@@": 6440, "records": 6441, "owned": 6442, "swa@@": 6443, "Ru@@": 6444, "AD@@": 6445, "wording": 6446, "laughter": 6447, "Ireland": 6448, "pencil": 6449, "Avatar": 6450, "Incidentally": 6451, "about@@": 6452, "yeah": 6453, "blanket": 6454, "salmon": 6455, "branches": 6456, "overslept": 6457, "IK@@": 6458, "Miyagi": 6459, "bility": 6460, "contra@@": 6461, "audi@@": 6462, "sandwich": 6463, "therapy": 6464, "fying": 6465, "CO@@": 6466, "mit@@": 6467, "coun@@": 6468, "counting": 6469, "criticized": 6470, "Fe@@": 6471, "cy": 6472, "boarding": 6473, "award": 6474, "ble@@": 6475, "intense": 6476, "absorbed": 6477, "Cu@@": 6478, "kin": 6479, "imported": 6480, "rephrase": 6481, "realistic": 6482, "HA@@": 6483, "mid@@": 6484, "logic": 6485, "attraction": 6486, "Sy@@": 6487, "smelled": 6488, "nuts": 6489, "defeated": 6490, "question.": 6491, "es,@@": 6492, "00am": 6493, "a.m": 6494, "dull": 6495, "bakery": 6496, "○": 6497, "dramatically": 6498, "manufacturing": 6499, "imply": 6500, "maximum": 6501, "Under": 6502, "pur@@": 6503, "zi@@": 6504, "DO": 6505, "ck.": 6506, "hug": 6507, "faith": 6508, "Miss": 6509, "salty": 6510, "Really": 6511, "OK.": 6512, "AG@@": 6513, "Club": 6514, "shadow": 6515, "clarify": 6516, "mosquitoes": 6517, "baggage": 6518, "no-@@": 6519, "beautiful.": 6520, "now..": 6521, "Grammar": 6522, "workshop": 6523, "liquor": 6524, "hangover": 6525, "HO@@": 6526, "smokers": 6527, "railway": 6528, "encourages": 6529, "expectation": 6530, "retire": 6531, "crossing": 6532, "ular": 6533, "5-@@": 6534, "adopted": 6535, "Same": 6536, "soci@@": 6537, "briefly": 6538, "chief": 6539, "Ci@@": 6540, "wal@@": 6541, "African": 6542, "load": 6543, "collecting": 6544, "abstract": 6545, "letting": 6546, "Professor": 6547, "ana": 6548, "AL": 6549, "luckily": 6550, "body.": 6551, "A-@@": 6552, "Alternatives": 6553, "But,I": 6554, "Bible": 6555, "sashimi": 6556, "cosmetics": 6557, "Saitama": 6558, "Generation": 6559, "employers": 6560, "discussions": 6561, "Boston": 6562, "p.": 6563, "underground": 6564, "locked": 6565, "tures": 6566, "prohibited": 6567, "marked": 6568, "photo@@": 6569, "modify": 6570, "sions": 6571, "tical": 6572, "rest@@": 6573, "owns": 6574, "ist": 6575, "Nintendo": 6576, "sections": 6577, "genre": 6578, "Anime": 6579, "costumes": 6580, "above.": 6581, "french": 6582, "orchestra": 6583, "-san": 6584, "sil@@": 6585, "lined": 6586, "vital": 6587, "hired": 6588, "thrown": 6589, "twenty-@@": 6590, "illustration": 6591, "heads": 6592, "principal": 6593, "suprised": 6594, "Chinese.": 6595, "deer": 6596, "the.": 6597, "Earthquake": 6598, "distant": 6599, "cing": 6600, "Rice": 6601, "graphics": 6602, "mer": 6603, "oni@@": 6604, "grasp": 6605, "Talking": 6606, "ct": 6607, "Plus": 6608, "bu": 6609, "bath@@": 6610, "My@@": 6611, ",they": 6612, "mistakes.": 6613, "little.": 6614, "disorder": 6615, "respected": 6616, "33": 6617, "enrolled": 6618, "eastern": 6619, "resting": 6620, "enjoys": 6621, "hard@@": 6622, "manual": 6623, "swine": 6624, "IR@@": 6625, "Yoga": 6626, "motivate": 6627, "keys": 6628, "with.": 6629, "tan": 6630, "Turkey": 6631, "NOTE": 6632, "website.": 6633, "/at": 6634, "Z": 6635, "y,I": 6636, "oo": 6637, "aftershocks": 6638, "Health": 6639, "estate": 6640, "deny": 6641, "wireless": 6642, "lowest": 6643, "instructions": 6644, "ill@@": 6645, "encouraging": 6646, "Sal@@": 6647, "George": 6648, "steady": 6649, "rolled": 6650, "vel@@": 6651, "checkup": 6652, "will@@": 6653, "was.": 6654, "e...": 6655, "animated": 6656, "at.": 6657, "decorate": 6658, "priest": 6659, "goo@@": 6660, "ting.": 6661, "time,": 6662, "si": 6663, "miracle": 6664, "edit": 6665, "restaurant.": 6666, "Obon": 6667, "micro@@": 6668, "significantly": 6669, "Information": 6670, "gin@@": 6671, "Apparently": 6672, "vast": 6673, "dness": 6674, "millions": 6675, "600": 6676, "long-term": 6677, "conclude": 6678, "zone": 6679, "Celsius": 6680, "strategies": 6681, "ance@@": 6682, "researched": 6683, "ian": 6684, "luxury": 6685, "wrapped": 6686, "Academy": 6687, "truck": 6688, "surprisingly": 6689, "dan@@": 6690, "Egypt": 6691, "impolite": 6692, "shin@@": 6693, "praying": 6694, "teach@@": 6695, "vacations": 6696, "Hon@@": 6697, "PCs": 6698, "Combine": 6699, "corrects": 6700, "lecturer": 6701, "Meiji": 6702, "YO@@": 6703, "portable": 6704, "ssed": 6705, "importantly": 6706, "Department": 6707, "tables": 6708, "direc@@": 6709, "ware": 6710, "art@@": 6711, "Gi@@": 6712, "bli@@": 6713, "arrival": 6714, "Originally": 6715, "coo@@": 6716, "wing": 6717, "association": 6718, "trading": 6719, "Los": 6720, "translations": 6721, "korea": 6722, "true.": 6723, "water.": 6724, "thought.": 6725, "NBA": 6726, "culture.": 6727, "over.": 6728, "talkative": 6729, "cherish": 6730, "often.": 6731, "Gen@@": 6732, "injury": 6733, "movements": 6734, "networking": 6735, "driven": 6736, "Las": 6737, "relevant": 6738, "lin@@": 6739, "explore": 6740, "ser": 6741, "happen@@": 6742, "pairs": 6743, "usu@@": 6744, "Wii": 6745, "Tai@@": 6746, "__": 6747, "possessive": 6748, "opinion.": 6749, "vacation.": 6750, "Buddhism": 6751, "prayed": 6752, "mild": 6753, "can.": 6754, "Question": 6755, "train.": 6756, "divorce": 6757, "Filipino": 6758, "Water": 6759, "child@@": 6760, "enable": 6761, "seeking": 6762, "intermediate": 6763, "anti-@@": 6764, "break@@": 6765, "zero": 6766, "contemporary": 6767, "ts@@": 6768, "ely": 6769, "universe": 6770, "candidates": 6771, "Ge@@": 6772, "recommendation": 6773, "aki": 6774, "kiss": 6775, "lang8": 6776, "submitted": 6777, "lear@@": 6778, "swear": 6779, "Hmm": 6780, "side@@": 6781, "store.": 6782, "mochi": 6783, "Kanagawa": 6784, "memorial": 6785, "BO@@": 6786, "stepped": 6787, "Four": 6788, "fund": 6789, "makers": 6790, "folk": 6791, "ils": 6792, "Vegas": 6793, "aims": 6794, "bonus": 6795, "Office": 6796, "boards": 6797, "hol@@": 6798, "fundamental": 6799, "bul@@": 6800, "qualification": 6801, "wri@@": 6802, "diligent": 6803, "1-@@": 6804, "op": 6805, "meaningless": 6806, "floating": 6807, "Snow": 6808, "16th": 6809, "Busan": 6810, "counter@@": 6811, "lens": 6812, "tender": 6813, "deciding": 6814, "SP@@": 6815, "resist": 6816, "statements": 6817, "gambling": 6818, "industries": 6819, "females": 6820, "root": 6821, "opponent": 6822, "gray": 6823, "thin@@": 6824, "hitting": 6825, "vivid": 6826, "der.": 6827, "skipped": 6828, "sorry.": 6829, "ginger": 6830, "quarrel": 6831, "memorable": 6832, "bathtub": 6833, "extended": 6834, "iled": 6835, "nic@@": 6836, "cks": 6837, "opens": 6838, "mushrooms": 6839, "Somehow": 6840, "mas": 6841, "18th": 6842, "tting": 6843, "signal": 6844, "year-old": 6845, "him@@": 6846, "Frankly": 6847, "cked": 6848, "seller": 6849, "guns": 6850, "charm": 6851, "from@@": 6852, "name@@": 6853, "cle@@": 6854, "strang@@": 6855, "ic.": 6856, "nail": 6857, "dresses": 6858, "photography": 6859, "Dutch": 6860, "pal": 6861, "form.": 6862, "Samurai": 6863, "waitress": 6864, "Ryoma": 6865, "typhoons": 6866, "Yen": 6867, "lled": 6868, "sixth": 6869, "tran@@": 6870, "vice": 6871, "exposure": 6872, "possibilities": 6873, "chores": 6874, "tat@@": 6875, "insi@@": 6876, "-time": 6877, "realise": 6878, "whilst": 6879, "chang@@": 6880, "ara@@": 6881, "temporarily": 6882, "29th": 6883, "consistent": 6884, "rolling": 6885, "confusion": 6886, "bla@@": 6887, "course.": 6888, "Queen": 6889, "job@@": 6890, "either.": 6891, "stud@@": 6892, "naked": 6893, "first@@": 6894, "game@@": 6895, "cha": 6896, "affair": 6897, "Sumo": 6898, "Tri@@": 6899, "bit@@": 6900, "Home": 6901, "proved": 6902, "observed": 6903, "facility": 6904, "Age": 6905, "fo@@": 6906, "Past": 6907, "mixture": 6908, "border": 6909, "stopping": 6910, "ally@@": 6911, "justice": 6912, "want.": 6913, "ter.": 6914, "interpreter": 6915, "champion": 6916, "ved.": 6917, ".or": 6918, "toast": 6919, "bitten": 6920, "animations": 6921, "led.": 6922, "Roppongi": 6923, "Kyushu": 6924, "heating": 6925, "reluctant": 6926, "Certainly": 6927, "ili@@": 6928, "comple@@": 6929, "airline": 6930, "brea@@": 6931, "athletes": 6932, "test@@": 6933, "answering": 6934, "len@@": 6935, "passionate": 6936, "horses": 6937, "thr@@": 6938, "girl.": 6939, "ner.": 6940, "QQ": 6941, "cho": 6942, "hun@@": 6943, "contributed": 6944, "less@@": 6945, "bio@@": 6946, "influences": 6947, "fle@@": 6948, "existed": 6949, "explo@@": 6950, "non": 6951, "cation": 6952, "promoted": 6953, "inj@@": 6954, "charity": 6955, "Melbourne": 6956, "facial": 6957, "cking": 6958, "elegant": 6959, "prepositions": 6960, "Friend": 6961, "help.": 6962, "ans.": 6963, "capitalized.": 6964, "experience.": 6965, "originated": 6966, "majored": 6967, "interviewed": 6968, "Shinto": 6969, "Aichi": 6970, "cheered": 6971, "Android": 6972, "shoe": 6973, "uncommon": 6974, "Obviously": 6975, "Du@@": 6976, "optimistic": 6977, "ically": 6978, "frequent": 6979, "inspiration": 6980, "som@@": 6981, "founded": 6982, "editor": 6983, "plates": 6984, "SH@@": 6985, "arri@@": 6986, "desperate": 6987, "spr@@": 6988, "nationality": 6989, "shots": 6990, "gy": 6991, "vol@@": 6992, "Fa@@": 6993, "English-@@": 6994, "Story": 6995, "eleven": 6996, "rom@@": 6997, "celebrities": 6998, "Takoyaki": 6999, "physi@@": 7000, "immigrants": 7001, "resulted": 7002, "delay": 7003, "eli@@": 7004, "secure": 7005, "define": 7006, "ranked": 7007, "make-up": 7008, "requests": 7009, "colleges": 7010, "Mor@@": 7011, "remarkable": 7012, "Above": 7013, "slide": 7014, "Je@@": 7015, "clip": 7016, "ceremonies": 7017, "monster": 7018, "lunar": 7019, "enough.": 7020, "pronunciations": 7021, "gradu@@": 7022, "fur@@": 7023, "eye@@": 7024, "watermelon": 7025, "Avoid": 7026, "printer": 7027, "adopt": 7028, "constant": 7029, "peak": 7030, "argued": 7031, "attach": 7032, "Write": 7033, "suited": 7034, "accessories": 7035, "MA@@": 7036, "delicate": 7037, "rescue": 7038, "Seeing": 7039, "hers": 7040, "escaped": 7041, "hottest": 7042, "miserable": 7043, ".......": 7044, "frightened": 7045, "Math": 7046, "mother-in-law": 7047, "T_T": 7048, "Ｉ": 7049, "Rome": 7050, "slim": 7051, "area.": 7052, "oka": 7053, "futon": 7054, "vers": 7055, "MO@@": 7056, "motor": 7057, "owing": 7058, "lied": 7059, "cy@@": 7060, "researching": 7061, "approached": 7062, "steel": 7063, "contribution": 7064, "wind@@": 7065, "Nan@@": 7066, "diverse": 7067, "relate": 7068, "AB@@": 7069, "weak@@": 7070, "cou@@": 7071, "sen": 7072, "longest": 7073, "old-fashioned": 7074, "commuting": 7075, "Don@@": 7076, "perfume": 7077, "--I": 7078, "careless": 7079, "parked": 7080, "easily.": 7081, "America.": 7082, "downloaded": 7083, "Part": 7084, "s,but": 7085, "rear": 7086, "grand@@": 7087, "tricky": 7088, "memorized": 7089, "wives": 7090, "season@@": 7091, "Japanese-@@": 7092, "sector": 7093, "fuels": 7094, "poured": 7095, "economical": 7096, "improves": 7097, "Others": 7098, "clean@@": 7099, "45@@": 7100, "ced": 7101, "victim": 7102, "thoroughly": 7103, "rivers": 7104, "Peter": 7105, "Ja@@": 7106, "Nagasaki": 7107, "correc@@": 7108, "Switzerland": 7109, "Gar@@": 7110, "easiest": 7111, "cares": 7112, "filling": 7113, "auction": 7114, "Brazilian": 7115, "exchanging": 7116, "mic": 7117, "3.": 7118, "Prince": 7119, "sau@@": 7120, "movies.": 7121, "grammer": 7122, "before@@": 7123, "usual.": 7124, "three-@@": 7125, "conversation.": 7126, "/html": 7127, "oko": 7128, "natto": 7129, "OUT": 7130, "Ginza": 7131, "workforce": 7132, "productivity": 7133, "AC@@": 7134, "substitute": 7135, "2001": 7136, "Bur@@": 7137, "managing": 7138, "unexpectedly": 7139, "drum": 7140, "custom@@": 7141, "welcomed": 7142, "thi@@": 7143, "healthier": 7144, "3.@@": 7145, "bir@@": 7146, "700": 7147, "p.@@": 7148, "responses": 7149, "chan@@": 7150, "lers": 7151, "fre@@": 7152, "Hir@@": 7153, "finals": 7154, "correction.": 7155, "poetry": 7156, "'It": 7157, "listener": 7158, "MY": 7159, "important.": 7160, "unnatural.": 7161, "17th": 7162, "internet.": 7163, "ako": 7164, "00pm": 7165, "plum": 7166, "Research": 7167, "coal": 7168, "increasingly": 7169, "recovery": 7170, "artificial": 7171, "lessly": 7172, "Singaporean": 7173, "secondary": 7174, "dered": 7175, "appliances": 7176, "unfair": 7177, "confi@@": 7178, "motion": 7179, "sing.": 7180, "reward": 7181, "leg@@": 7182, "upcoming": 7183, "sn@@": 7184, "Think": 7185, "sincere": 7186, "sandwiches": 7187, "moreover": 7188, "awa@@": 7189, "flag": 7190, "incredibly": 7191, "puzzle": 7192, "town.": 7193, "http-equiv": 7194, "oku": 7195, "disgusting": 7196, "jo": 7197, "bound": 7198, "necessity": 7199, "outstanding": 7200, "loneliness": 7201, "Computer": 7202, "profession": 7203, "You@@": 7204, "steal": 7205, "format": 7206, "arti@@": 7207, "hor@@": 7208, "specialist": 7209, "key@@": 7210, "occupation": 7211, "holi@@": 7212, "ust": 7213, "continuation": 7214, "ak": 7215, "associate": 7216, "co": 7217, "contacted": 7218, "licence": 7219, "bed.": 7220, "watches": 7221, "mber": 7222, "it,": 7223, "pronouns": 7224, "casually": 7225, "historic": 7226, "sty@@": 7227, "Hiragana": 7228, "Yama@@": 7229, "slower": 7230, "defined": 7231, "revealed": 7232, "tremendous": 7233, "minimum": 7234, "principle": 7235, "aps": 7236, "charged": 7237, "prior": 7238, "jet": 7239, "ces.": 7240, "observation": 7241, "dent": 7242, "ped": 7243, "suspect": 7244, "m-@@": 7245, "Sou@@": 7246, "documentary": 7247, "cooperate": 7248, "ple@@": 7249, "fur": 7250, "shook": 7251, "happiest": 7252, "parents.": 7253, "to...": 7254, "prince": 7255, "SO@@": 7256, "runners": 7257, "Tsu@@": 7258, "american": 7259, "----@@": 7260, "coughing": 7261, "here..": 7262, "Somebody": 7263, "flash": 7264, "trip.": 7265, "Temple": 7266, "unfortunate": 7267, "automatic": 7268, "ES": 7269, "requirement": 7270, "mag@@": 7271, "bones": 7272, "AI": 7273, "practices": 7274, "pose": 7275, "browsing": 7276, "lend": 7277, "blow": 7278, "slipped": 7279, "sheets": 7280, "versions": 7281, "condition@@": 7282, "travelers": 7283, "crops": 7284, "publish": 7285, "Kat@@": 7286, "secretly": 7287, "strawberries": 7288, "shouting": 7289, "mother.": 7290, "forests": 7291, "picture@@": 7292, "unforgettable": 7293, "undergraduate": 7294, "sucks": 7295, "Easter": 7296, "decorations": 7297, "travel@@": 7298, "scor@@": 7299, "ok.": 7300, "snake": 7301, "trick": 7302, "shu": 7303, "Claus": 7304, "cont@@": 7305, "abuse": 7306, "incidents": 7307, "wed": 7308, "priced": 7309, "profits": 7310, "channels": 7311, "lighter": 7312, "AP@@": 7313, "fra@@": 7314, "appeal": 7315, "greet": 7316, "Space": 7317, "Ya@@": 7318, "au": 7319, "lemon": 7320, "graph": 7321, "stole": 7322, "T-shirts": 7323, "Except": 7324, "wings": 7325, "Jazz": 7326, "shit": 7327, "ked.": 7328, "Surely": 7329, "Ha": 7330, "nicer": 7331, "panic": 7332, "specialty": 7333, "Bon": 7334, "Birthday": 7335, "bay": 7336, "stylish": 7337, "ero@@": 7338, "resolve": 7339, "salaries": 7340, "passenger": 7341, "Based": 7342, "estimated": 7343, "resource": 7344, "tested": 7345, "rejected": 7346, "launch": 7347, "lla": 7348, "researcher": 7349, "I-@@": 7350, "Sun": 7351, "tank": 7352, "ng@@": 7353, "ssing": 7354, "desert": 7355, "leadership": 7356, "st-@@": 7357, "darkness": 7358, "e,@@": 7359, "sk": 7360, "cow": 7361, "afternoon.": 7362, "clear.": 7363, "college.": 7364, "q@@": 7365, "edi@@": 7366, "shout": 7367, "NO": 7368, "clauses": 7369, "favorites": 7370, "/for": 7371, "snows": 7372, "season.": 7373, "conditioning": 7374, "way,@@": 7375, "middle-aged": 7376, "polish": 7377, "ary.": 7378, "rain.": 7379, "misunderstand": 7380, "homepage": 7381, "peculiar": 7382, "Cambodia": 7383, "yaki": 7384, "Kagoshima": 7385, "medium": 7386, "elders": 7387, "oriented": 7388, "timing": 7389, "unemployment": 7390, "Management": 7391, "32": 7392, "solid": 7393, "conservative": 7394, "mers": 7395, "anti@@": 7396, "swing": 7397, "cared": 7398, "cher": 7399, "updated": 7400, "App@@": 7401, "officers": 7402, "tiger": 7403, "winds": 7404, "ver.": 7405, "dream@@": 7406, "ball@@": 7407, "sophomore": 7408, "flavors": 7409, "sai@@": 7410, "playground": 7411, "opera": 7412, "crashed": 7413, "pronounciation": 7414, "URL": 7415, "athletic": 7416, "ichi": 7417, "attacks": 7418, "beaches": 7419, "question@@": 7420, "apping": 7421, "barrier": 7422, "form@@": 7423, "cuts": 7424, "impressions": 7425, "attitudes": 7426, "consult": 7427, "tho@@": 7428, "ort@@": 7429, "heal": 7430, "farmer": 7431, "ined": 7432, "'s@@": 7433, "enroll": 7434, "beautifully": 7435, "necessary.": 7436, "same.": 7437, "glance": 7438, "Sky": 7439, "Now@@": 7440, "fathers": 7441, "cooker": 7442, "albums": 7443, "song@@": 7444, "dolphins": 7445, "Junior": 7446, "bosses": 7447, "boxing": 7448, "Ken": 7449, "stew": 7450, "reunion": 7451, "Sure": 7452, "beers": 7453, "martial": 7454, "programmer": 7455, "Democratic": 7456, "hamburgers": 7457, "explosion": 7458, "strike": 7459, "Tra@@": 7460, "outcome": 7461, "iting": 7462, "Bul@@": 7463, "concentrated": 7464, "all-@@": 7465, "obey": 7466, "weekly": 7467, "virtual": 7468, ",000@@": 7469, "ben@@": 7470, "divide": 7471, "Super": 7472, "AT": 7473, "um@@": 7474, "Town": 7475, "speci@@": 7476, "everyone.": 7477, "dar@@": 7478, "OF": 7479, "Technically": 7480, "but.": 7481, "Anyone": 7482, "countable": 7483, "housewife": 7484, "wheat": 7485, ",_I": 7486, "Add": 7487, "BTW": 7488, "tasting": 7489, "e,": 7490, "Barcelona": 7491, "theaters": 7492, "emperor": 7493, "certification": 7494, "hunt": 7495, "Institute": 7496, "ambiguous": 7497, "ination": 7498, "phase": 7499, "197@@": 7500, "6.@@": 7501, "prop@@": 7502, "sla@@": 7503, "uri@@": 7504, "top@@": 7505, "entitled": 7506, "Cho@@": 7507, "purchased": 7508, "comedian": 7509, "Indonesian": 7510, "cable": 7511, "mistaken": 7512, "postponed": 7513, "libraries": 7514, "understands": 7515, "displays": 7516, "sunrise": 7517, "shir@@": 7518, "sha": 7519, "regre@@": 7520, "ん": 7521, "mosquito": 7522, "chan": 7523, "Death": 7524, "and-@@": 7525, "steamed": 7526, "gloves": 7527, "Tomoko": 7528, "blackout": 7529, "desires": 7530, "inexpensive": 7531, "expenditure": 7532, "talents": 7533, "Sweden": 7534, "produces": 7535, "amongst": 7536, "predicted": 7537, "hiding": 7538, "guarantee": 7539, "worthy": 7540, "decade": 7541, "deci@@": 7542, "On@@": 7543, "definite": 7544, "supports": 7545, "syn@@": 7546, "60@@": 7547, "clu@@": 7548, "ared": 7549, "eness": 7550, "halfway": 7551, "masks": 7552, "ske@@": 7553, ",when": 7554, "study@@": 7555, "apo@@": 7556, "blu@@": 7557, "-I": 7558, "on..": 7559, "dd@@": 7560, "then.": 7561, "Final": 7562, "later.": 7563, "TV.": 7564, "prefectures": 7565, "maintaining": 7566, "Gr@@": 7567, "Sports": 7568, "strengthen": 7569, "rank": 7570, "ena": 7571, "gn@@": 7572, "gods": 7573, "disc@@": 7574, "cel@@": 7575, "cap": 7576, "David": 7577, "Alternatively": 7578, "ra": 7579, "visits": 7580, "ere@@": 7581, "sw@@": 7582, "/11": 7583, "nuance": 7584, "formal.": 7585, "pra@@": 7586, "Win@@": 7587, "child.": 7588, "bench": 7589, "bit.": 7590, "grandpa": 7591, "fru@@": 7592, "languages.": 7593, "rolls": 7594, "amusing": 7595, "BUT": 7596, "Mt.": 7597, "restroom": 7598, "puppy": 7599, "CPF": 7600, "75": 7601, "Cap@@": 7602, "extend": 7603, "tile": 7604, "9.@@": 7605, "presence": 7606, "switched": 7607, "persuade": 7608, "magnitude": 7609, "ope": 7610, "surroundings": 7611, "mbled": 7612, "lan@@": 7613, "pouring": 7614, "endless": 7615, "chu@@": 7616, "departure": 7617, "thanked": 7618, "mang@@": 7619, "harmony": 7620, "sincerely": 7621, "beforehand": 7622, "impatient": 7623, "landlord": 7624, "ass": 7625, "Steve": 7626, "quickly.": 7627, "face.": 7628, "birthday.": 7629, "30am": 7630, "grapes": 7631, "Greece": 7632, "swee@@": 7633, "bon@@": 7634, "Culture": 7635, "recently@@": 7636, "purple": 7637, "rumor": 7638, "line.": 7639, "delicious.": 7640, "app": 7641, "sliced": 7642, "porcelain": 7643, "greenhouse": 7644, "defense": 7645, "System": 7646, "scientist": 7647, "banks": 7648, "4-@@": 7649, "enemies": 7650, "killer": 7651, "nest": 7652, "exp@@": 7653, "strongest": 7654, "category": 7655, "tted": 7656, "tto": 7657, "introduces": 7658, "gue": 7659, "call@@": 7660, "OO@@": 7661, "Thanksgiving": 7662, "Master": 7663, "weather.": 7664, "tropical": 7665, "summ@@": 7666, "octopus": 7667, "love@@": 7668, "fridge": 7669, "towel": 7670, "31st": 7671, "sof@@": 7672, "Kur@@": 7673, "pudding": 7674, "agi": 7675, "ki-@@": 7676, "Hiro@@": 7677, "interval": 7678, "cheering": 7679, "Tsunami": 7680, "ju": 7681, "neglected": 7682, "output": 7683, "apartments": 7684, "EC@@": 7685, "ums": 7686, "Sony": 7687, "specialized": 7688, "deserve": 7689, "55": 7690, "fate": 7691, "hal@@": 7692, "protected": 7693, "gen": 7694, "constructed": 7695, "Shu@@": 7696, "arrangement": 7697, "lifetime": 7698, "Mark": 7699, "ref@@": 7700, "IC": 7701, "500@@": 7702, "moto": 7703, "cans": 7704, "Heritage": 7705, "Japan,": 7706, "ED": 7707, "twins": 7708, "Were": 7709, "religions": 7710, "weird.": 7711, "love.": 7712, "dough": 7713, "attendant": 7714, "finishes": 7715, "suke": 7716, "ssion.": 7717, "theories": 7718, "James": 7719, "We@@": 7720, "debt": 7721, "8.@@": 7722, "wrap": 7723, "bow": 7724, "magnificent": 7725, "warmth": 7726, "rubber": 7727, "occasions": 7728, "behaviour": 7729, "sword": 7730, "packing": 7731, "stop@@": 7732, "painter": 7733, "gentleman": 7734, "Turkish": 7735, "princess": 7736, "Way": 7737, "style.": 7738, "day,I": 7739, "ons.": 7740, "everytime": 7741, "liver": 7742, "sunday": 7743, "content-type": 7744, "Taka@@": 7745, "recommendations": 7746, "kawa": 7747, "hydrogen": 7748, "ingredient": 7749, "inventions": 7750, "U.S": 7751, "rep@@": 7752, "tag": 7753, "El@@": 7754, "1.5": 7755, "Ser@@": 7756, "responsibilities": 7757, "As@@": 7758, "Ab@@": 7759, "lists": 7760, "vinegar": 7761, "hits": 7762, "that...": 7763, "writings": 7764, "abroad.": 7765, "ness.": 7766, "Eating": 7767, "heart.": 7768, "lunch.": 7769, "の": 7770, "compositions": 7771, "mornings": 7772, "Tree": 7773, "Gaga": 7774, "innovations": 7775, "ft": 7776, "urgent": 7777, "prevented": 7778, "innovative": 7779, "aring": 7780, "24@@": 7781, "inv@@": 7782, "°": 7783, "ty-@@": 7784, "grab": 7785, "interpretation": 7786, "outdoors": 7787, "foun@@": 7788, "warned": 7789, "Land": 7790, "2,@@": 7791, "giant": 7792, "Denmark": 7793, "isolated": 7794, "broaden": 7795, "ick": 7796, "Fall": 7797, "examined": 7798, "trivial": 7799, "follow@@": 7800, "humble": 7801, "web@@": 7802, "allergic": 7803, "credits": 7804, "hara": 7805, "atten@@": 7806, "mutual": 7807, "ie": 7808, "regrets": 7809, "expression.": 7810, "common.": 7811, "Coffee": 7812, "bothers": 7813, "regi@@": 7814, "Cantonese": 7815, "humorous": 7816, "day.@@": 7817, "abbreviation": 7818, "husbands": 7819, "seasonal": 7820, "Lord": 7821, "DA@@": 7822, "gawa": 7823, "carrot": 7824, "Hakone": 7825, "Okonomiyaki": 7826, "Guam": 7827, "expense": 7828, "eyesight": 7829, "roughly": 7830, "consist": 7831, "alist": 7832, "tragic": 7833, "gum": 7834, "AR": 7835, "han": 7836, "Middle": 7837, "soldier": 7838, "att@@": 7839, "sweating": 7840, "pe": 7841, "lim@@": 7842, "Sometime": 7843, "artwork": 7844, "works.": 7845, "artistic": 7846, "I'@@": 7847, "hand.": 7848, "tweet": 7849, "girlfriends": 7850, "knocked": 7851, "interviewer": 7852, "Boys": 7853, "Japanese-style": 7854, "hiragana": 7855, "SE@@": 7856, "text@@": 7857, "u.": 7858, "day,@@": 7859, "untill": 7860, "Word": 7861, "nabe": 7862, "shi-@@": 7863, "Kimono": 7864, "Fukui": 7865, "equally": 7866, "investigation": 7867, "consumer": 7868, "General": 7869, "forty": 7870, "luxurious": 7871, "consume": 7872, "sacrifice": 7873, "Ver@@": 7874, "selection": 7875, "probability": 7876, "flood": 7877, "7.@@": 7878, "ish": 7879, "lives.": 7880, "eg@@": 7881, "boom": 7882, "fights": 7883, "tain@@": 7884, "ID@@": 7885, "society.": 7886, "publishing": 7887, "sympathy": 7888, "lane": 7889, "fish@@": 7890, "reporter": 7891, "Jan@@": 7892, "cellular": 7893, "Gre@@": 7894, "legend": 7895, "90@@": 7896, "Game": 7897, "is...": 7898, "Tor@@": 7899, "YOU": 7900, "purse": 7901, "come.": 7902, "GO@@": 7903, "idea.": 7904, "why.": 7905, "Day.": 7906, "destiny": 7907, "greetings": 7908, "KFC": 7909, "ops": 7910, "else.": 7911, "tori@@": 7912, "Marathon": 7913, "baking": 7914, "hoo@@": 7915, "/was": 7916, "ky@@": 7917, "knitting": 7918, "iced": 7919, "pumpkin": 7920, "sea@@": 7921, "woods": 7922, "oes": 7923, "aga": 7924, "themes": 7925, "shelter": 7926, "regulations": 7927, "def@@": 7928, "tun@@": 7929, "Mil@@": 7930, "mini@@": 7931, "TS": 7932, "cent": 7933, "revise": 7934, "males": 7935, "chess": 7936, "oneself": 7937, "bugs": 7938, "vary": 7939, "assessment": 7940, "bab@@": 7941, "ng": 7942, "problems.": 7943, "preference": 7944, "scar@@": 7945, "deals": 7946, "who@@": 7947, "22nd": 7948, "owed": 7949, "USD": 7950, "Bon@@": 7951, "Ye@@": 7952, "even@@": 7953, "Fri@@": 7954, "desperately": 7955, "26th": 7956, "TR@@": 7957, "beating": 7958, "stared": 7959, "less.": 7960, "dragon": 7961, "continu@@": 7962, "didnt": 7963, "OM@@": 7964, "rope": 7965, "please.": 7966, "CM": 7967, "IG@@": 7968, "♥": 7969, "bilingual": 7970, "movi@@": 7971, "kei": 7972, "seaweed": 7973, "snowboard": 7974, "creativity": 7975, "employed": 7976, "hin@@": 7977, "procedures": 7978, "excessive": 7979, "devoted": 7980, "powers": 7981, "remote": 7982, "ue": 7983, "masters": 7984, "dy@@": 7985, "reason@@": 7986, "colon": 7987, "Bad": 7988, "xes": 7989, "devote": 7990, "Angeles": 7991, "steadily": 7992, "Jobs": 7993, "ster.": 7994, "busy.": 7995, "men.": 7996, "how@@": 7997, "Argentina": 7998, "studing": 7999, "tomorrow@@": 8000, "Guangzhou": 8001, "た": 8002, "joyful": 8003, "monkeys": 8004, "opp@@": 8005, "turtle": 8006, "■": 8007, "Super@@": 8008, "ratio": 8009, "boost": 8010, "dioxide": 8011, "wealthy": 8012, "ita": 8013, "obligation": 8014, "tch": 8015, "sett@@": 8016, "bru@@": 8017, "inci@@": 8018, "depth": 8019, "Regarding": 8020, "criticism": 8021, "expec@@": 8022, "es.@@": 8023, "containing": 8024, "War@@": 8025, "th-@@": 8026, "Feb": 8027, "28th": 8028, "dedicated": 8029, "-like": 8030, "proce@@": 8031, "Often": 8032, "admired": 8033, "However@@": 8034, "plu@@": 8035, "か": 8036, "land.": 8037, "cuz": 8038, "子": 8039, "fucking": 8040, "outside.": 8041, "McDonalds": 8042, "red.": 8043, "own.": 8044, "string": 8045, "angel": 8046, "ura": 8047, "company@@": 8048, "ambulance": 8049, "cooks": 8050, "Doraemon": 8051, "Singaporeans": 8052, "aimed": 8053, "scheme": 8054, "Cal@@": 8055, "personnel": 8056, "floors": 8057, "broad": 8058, "Dis@@": 8059, "accurately": 8060, "melted": 8061, "clear@@": 8062, "rings": 8063, "lab@@": 8064, "spiritual": 8065, "ude": 8066, "engaged": 8067, "interact": 8068, "realizing": 8069, "deleted": 8070, "travelled": 8071, "sad.": 8072, "Welcome": 8073, "speakers.": 8074, "Irish": 8075, "flowing": 8076, "revenge": 8077, "again@@": 8078, "anda": 8079, "me.@@": 8080, "craft": 8081, "cicadas": 8082, "23rd": 8083, "mayonnaise": 8084, "live.": 8085, "Law": 8086, "dra@@": 8087, "CE@@": 8088, "equipped": 8089, "programme": 8090, "alternatives": 8091, "ands": 8092, "consciousness": 8093, "collapse": 8094, "tory": 8095, "pul@@": 8096, "behaviors": 8097, "delete": 8098, "evaluation": 8099, "concer@@": 8100, "unhealthy": 8101, "vy": 8102, "attracts": 8103, "balanced": 8104, "mechanical": 8105, "equ@@": 8106, "sky@@": 8107, "conditioners": 8108, "es...": 8109, "stea@@": 8110, "capitali@@": 8111, "taller": 8112, "happened.": 8113, "studying.": 8114, "sent@@": 8115, "eclipse": 8116, "read.": 8117, "highschool": 8118, "money@@": 8119, "Ocean": 8120, "the-@@": 8121, "bathing": 8122, "podcast": 8123, "resolutions": 8124, "actresses": 8125, "ly..": 8126, "Kendo": 8127, "very@@": 8128, "closet": 8129, "crab": 8130, "care@@": 8131, "70@@": 8132, "inevitable": 8133, "analy@@": 8134, "operations": 8135, "newly": 8136, "que@@": 8137, "pin@@": 8138, "globalization": 8139, "unstable": 8140, "mono@@": 8141, "breast": 8142, "settle": 8143, "cer@@": 8144, "fir@@": 8145, "curriculum": 8146, "thier": 8147, "example@@": 8148, "mins": 8149, "red@@": 8150, "lly": 8151, "outline": 8152, "Playing": 8153, "SO": 8154, "tis@@": 8155, "envious": 8156, "ano@@": 8157, "future@@": 8158, "aroma": 8159, "squid": 8160, "sleeps": 8161, "forming": 8162, "ry@@": 8163, "cooling": 8164, "oring": 8165, "obstacles": 8166, "Union": 8167, "urge": 8168, "accommodation": 8169, "influenza": 8170, "pped": 8171, "ws": 8172, "glo@@": 8173, "bel@@": 8174, "sely": 8175, "entertaining": 8176, "mou@@": 8177, "twin": 8178, "phrasing": 8179, "Gra@@": 8180, "tou@@": 8181, "lid": 8182, "Dar@@": 8183, "it.@@": 8184, "awhile": 8185, "screaming": 8186, "struggled": 8187, "news.": 8188, "/on": 8189, "poetic": 8190, "funny.": 8191, "saturday": 8192, "Boy": 8193, "Teachers": 8194, "ever@@": 8195, "/with": 8196, "sorrow": 8197, "impre@@": 8198, "JAPAN": 8199, "saki": 8200, "radish": 8201, "Asakusa": 8202, "gases": 8203, "spar@@": 8204, "conver@@": 8205, "where@@": 8206, "accompanied": 8207, "linked": 8208, "Mama": 8209, "obtained": 8210, "adver@@": 8211, "els": 8212, "Considering": 8213, "Eastern": 8214, "survived": 8215, "Pla@@": 8216, "wage": 8217, "positively": 8218, "Honda": 8219, "links": 8220, "Wor@@": 8221, "applicants": 8222, "cit@@": 8223, "vic@@": 8224, "nation@@": 8225, "butterfly": 8226, "moment.": 8227, "omitted": 8228, "tidy": 8229, "Lots": 8230, "grammar.": 8231, "worship": 8232, "ly,": 8233, "dream.": 8234, "counted": 8235, "literal": 8236, "bag@@": 8237, "laziness": 8238, "Say": 8239, "flav@@": 8240, "romance": 8241, "ted@@": 8242, "lent": 8243, "boyfriends": 8244, "Fuku@@": 8245, "year-end": 8246, "Natto": 8247, "genes": 8248, "estimate": 8249, "developments": 8250, "officially": 8251, "heated": 8252, "Electric": 8253, "UM@@": 8254, "Rather": 8255, "keeper": 8256, "zer": 8257, "generous": 8258, "drives": 8259, "applies": 8260, "Cold": 8261, "decides": 8262, "mented": 8263, "competitions": 8264, "tations": 8265, "300@@": 8266, "divorced": 8267, "Class": 8268, "pun@@": 8269, "shipping": 8270, "shore": 8271, "Pri@@": 8272, "Picture": 8273, "donation": 8274, "sticky": 8275, "zi": 8276, "computer@@": 8277, "mid": 8278, "ABC": 8279, "prayer": 8280, "eds": 8281, "jin": 8282, "heroes": 8283, "donated": 8284, "because@@": 8285, "emoticons": 8286, "disappointing": 8287, "ped@@": 8288, "kit@@": 8289, "kimonos": 8290, "Ry@@": 8291, "opponents": 8292, "consequence": 8293, "adds": 8294, "possess": 8295, "import": 8296, "interface": 8297, "Money": 8298, "blocks": 8299, "ve-@@": 8300, "Communication": 8301, "duties": 8302, "rises": 8303, "Few": 8304, "able@@": 8305, "responded": 8306, "mere": 8307, "conflicts": 8308, "loan": 8309, "Jun@@": 8310, "earning": 8311, "exi@@": 8312, "challenged": 8313, "reviews": 8314, "sessions": 8315, "declared": 8316, "din@@": 8317, "Morning": 8318, "tab@@": 8319, "1,000": 8320, "apostrophe": 8321, "Dad": 8322, "of.": 8323, "confusing.": 8324, "handmade": 8325, "Saturdays": 8326, "League": 8327, "did@@": 8328, "song.": 8329, "4.": 8330, "mistake@@": 8331, "buffet": 8332, "aches": 8333, "pretended": 8334, "cousins": 8335, "aired": 8336, "er..": 8337, "hip": 8338, "underwear": 8339, "bow@@": 8340, "sights": 8341, "comedians": 8342, "compulsory": 8343, "origin@@": 8344, "wider": 8345, "differ": 8346, "respon@@": 8347, "coincidence": 8348, "DA": 8349, "viol@@": 8350, "supplies": 8351, "respectively": 8352, "declining": 8353, "ves.": 8354, "worthwhile": 8355, "NE@@": 8356, "pad": 8357, "hesitation": 8358, "Republic": 8359, "stra@@": 8360, "Cy@@": 8361, "lec@@": 8362, "Mat@@": 8363, "Road": 8364, "cal": 8365, "Ten": 8366, "ners": 8367, "weeks.": 8368, "Ca": 8369, "temper": 8370, "ze.": 8371, "Rom@@": 8372, "holes": 8373, "yourself.": 8374, "Roman": 8375, "hugged": 8376, "Recently,I": 8377, "incorrect.": 8378, "knit": 8379, "cashier": 8380, "worm": 8381, "irregular": 8382, "frustrating": 8383, "letter.": 8384, "well..": 8385, "sin": 8386, ".My": 8387, "Introducing": 8388, "freshmen": 8389, "arguments": 8390, "improvements": 8391, "gas@@": 8392, "officials": 8393, "5.@@": 8394, "Sub@@": 8395, "units": 8396, "cement": 8397, "reaching": 8398, "mm": 8399, "ach": 8400, "racing": 8401, "unconsciously": 8402, "criticize": 8403, "St": 8404, "reali@@": 8405, "vain": 8406, "policeman": 8407, "weekend@@": 8408, "'my": 8409, "obsessed": 8410, "↓": 8411, "groceries": 8412, "woken": 8413, "etc...": 8414, "but..": 8415, "Piece": 8416, "the&nbsp": 8417, "ll.": 8418, "minded": 8419, "vacuum": 8420, "vet": 8421, "/It": 8422, "amateur": 8423, "slides": 8424, "bloomed": 8425, "JICA": 8426, "adequate": 8427, "slow@@": 8428, "rubbish": 8429, "modified": 8430, "proven": 8431, "bly": 8432, "hurried": 8433, "ized": 8434, "unlikely": 8435, "Ke@@": 8436, "claims": 8437, "damages": 8438, "nurses": 8439, "focuses": 8440, "shell": 8441, "absolute": 8442, "Fr@@": 8443, "famili@@": 8444, "UN": 8445, "bold": 8446, "precisely": 8447, "reflected": 8448, "pillow": 8449, "mmed": 8450, "gat@@": 8451, "New@@": 8452, "theirs": 8453, "Typhoon": 8454, "commented": 8455, "May@@": 8456, "expensive.": 8457, "Dou@@": 8458, "indoor": 8459, "Days": 8460, "whoever": 8461, "Tur@@": 8462, "learn@@": 8463, "Wh@@": 8464, "laz@@": 8465, "fast@@": 8466, "et.": 8467, "日": 8468, "around.": 8469, "sorts": 8470, "BE@@": 8471, "Yesterday,I": 8472, "ake": 8473, "jams": 8474, "station.": 8475, "tic.": 8476, "Izakaya": 8477, "Soba": 8478, "resolved": 8479, "edition": 8480, "examine": 8481, "civilization": 8482, "react": 8483, "insufficient": 8484, "protecting": 8485, "politician": 8486, "encouragement": 8487, "80@@": 8488, "dressing": 8489, "angle": 8490, "conductor": 8491, "bug": 8492, "Mag@@": 8493, ",if": 8494, "medicines": 8495, "effec@@": 8496, "fli@@": 8497, "pointing": 8498, "ele@@": 8499, "health.": 8500, "astonished": 8501, "pho@@": 8502, "marine": 8503, "berry": 8504, "ink@@": 8505, "Live": 8506, "/that": 8507, "consisted": 8508, "tent": 8509, "u-@@": 8510, "motorbike": 8511, "'but": 8512, "Trip": 8513, "Ok@@": 8514, "countr@@": 8515, "ray": 8516, "period.": 8517, "Show": 8518, "hearted": 8519, "roasted": 8520, "soon@@": 8521, "Ton@@": 8522, "tales": 8523, "hot.": 8524, "DJ": 8525, "Yamagata": 8526, "Tokyo@@": 8527, "U.": 8528, "acquaintances": 8529, "Ukraine": 8530, "bacteria": 8531, "financially": 8532, "Robert": 8533, "absorb": 8534, "outlet": 8535, "apped": 8536, "organs": 8537, "stages": 8538, "vari@@": 8539, "intellectual": 8540, "cheapest": 8541, "hurting": 8542, "Global": 8543, "pit@@": 8544, "derived": 8545, "Tru@@": 8546, "Drinking": 8547, "38": 8548, "37": 8549, "abnormal": 8550, "chin@@": 8551, "-8": 8552, "curr@@": 8553, "er,@@": 8554, "Expo": 8555, "fresh@@": 8556, "Five": 8557, "quo@@": 8558, "present.": 8559, "bed@@": 8560, "Dan@@": 8561, "canned": 8562, "sion.": 8563, "vocalist": 8564, "situated": 8565, "increa@@": 8566, "Cafe": 8567, "petals": 8568, "site@@": 8569, "frying": 8570, "viewers": 8571, "Pokemon": 8572, "Mixi": 8573, "restricted": 8574, "storage": 8575, "allowing": 8576, "designers": 8577, "theatre": 8578, "kai@@": 8579, "layer": 8580, "candidate": 8581, "radioactivity": 8582, "pounds": 8583, "qualifications": 8584, "stimulate": 8585, "dialects": 8586, "repetitive": 8587, "exc@@": 8588, "shortened": 8589, "bin": 8590, "corporation": 8591, "Wall": 8592, "soli@@": 8593, "visitor": 8594, "imitate": 8595, "tering": 8596, "interpret": 8597, "sport@@": 8598, "tiv@@": 8599, "ly-@@": 8600, "not@@": 8601, "kimchi": 8602, "mbling": 8603, "dent@@": 8604, "event.": 8605, "kitten": 8606, "kan": 8607, "quiz": 8608, "pharmacy": 8609, "nice.": 8610, "mble": 8611, "goverment": 8612, "Ei@@": 8613, "evening.": 8614, "Words": 8615, "maid": 8616, "lon@@": 8617, "mixing": 8618, "/it": 8619, "ps.": 8620, "ggy": 8621, "Tar@@": 8622, "clerks": 8623, "soak": 8624, "tempura": 8625, "Naga@@": 8626, "Doctor": 8627, "120": 8628, "4.@@": 8629, "centers": 8630, "organ": 8631, "permanent": 8632, "prevents": 8633, "900": 8634, "Society": 8635, "ess@@": 8636, "disp@@": 8637, "ence@@": 8638, "uring": 8639, "mai@@": 8640, "ell@@": 8641, "brains": 8642, "Pen@@": 8643, "logically": 8644, "exceptions": 8645, "Naturally": 8646, "stand@@": 8647, "stro@@": 8648, "captain": 8649, "elec@@": 8650, "connections": 8651, "sure@@": 8652, "Network": 8653, "bat@@": 8654, "Sadly": 8655, "eng": 8656, "mp3": 8657, "secrets": 8658, "buried": 8659, "pile": 8660, "mud": 8661, "complaint": 8662, "prote@@": 8663, "Rain": 8664, "tow@@": 8665, "have.": 8666, "tsu": 8667, "'t": 8668, "ves@@": 8669, "Present": 8670, "language@@": 8671, "ene@@": 8672, "fic@@": 8673, "music@@": 8674, "hey": 8675, "though...": 8676, "sigh": 8677, "fry": 8678, "shaved": 8679, "soooo": 8680, "Star@@": 8681, "subordinates": 8682, "Otaku": 8683, "Kan": 8684, "Fuji@@": 8685, "Development": 8686, "iling": 8687, "multi@@": 8688, "fixing": 8689, "initial": 8690, "regional": 8691, "puri@@": 8692, "currency": 8693, "roots": 8694, "ol": 8695, "Bra@@": 8696, "ture@@": 8697, "poorly": 8698, "lightly": 8699, "sy": 8700, "lier": 8701, "excuses": 8702, "law@@": 8703, "ght": 8704, "Washington": 8705, "celebrity": 8706, "browse": 8707, "export": 8708, "palace": 8709, "ages.": 8710, "drama@@": 8711, "course@@": 8712, "learns": 8713, "system.": 8714, "hang@@": 8715, "aku@@": 8716, "ferry": 8717, "elephant": 8718, "slices": 8719, "yukata": 8720, "KO@@": 8721, "s....": 8722, "good-bye": 8723, ",000yen": 8724, "imm@@": 8725, "j": 8726, "best@@": 8727, "fastest": 8728, "inten@@": 8729, "cleared": 8730, "sec@@": 8731, "fold": 8732, "measured": 8733, "dawn": 8734, "bas@@": 8735, "Den@@": 8736, "ick@@": 8737, "oro": 8738, "photographer": 8739, "Florida": 8740, "ala": 8741, "copies": 8742, "muscular": 8743, "cosmetic": 8744, "reason.": 8745, "laugh@@": 8746, "Jan": 8747, "ney": 8748, "themselves.": 8749, "Bali": 8750, "did.": 8751, "UT@@": 8752, "Lang": 8753, "x.": 8754, "Church": 8755, "bi": 8756, "appear@@": 8757, "Russians": 8758, "Northern": 8759, "stalls": 8760, "Eiken": 8761, "Betty": 8762, "Project": 8763, "networks": 8764, "slip": 8765, "rays": 8766, "eth@@": 8767, "capture": 8768, "PE": 8769, "indispensable": 8770, "frequency": 8771, "beliefs": 8772, "reflects": 8773, "Tr@@": 8774, "desktop": 8775, "Sur@@": 8776, "pays": 8777, "burnt": 8778, "foot@@": 8779, "alize": 8780, "Ari@@": 8781, "gging": 8782, "iro": 8783, "long-@@": 8784, "newest": 8785, "27th": 8786, "Bill": 8787, "lag": 8788, "ets": 8789, "um.": 8790, "affection": 8791, "knees": 8792, "weddings": 8793, "firework": 8794, "change.": 8795, ".But": 8796, "jewelry": 8797, "live@@": 8798, "DO@@": 8799, "gently": 8800, "crane": 8801, "English...": 8802, "sandals": 8803, "It@@": 8804, "Chin@@": 8805, "Westerners": 8806, "full-@@": 8807, "illustrations": 8808, "processing": 8809, "affordable": 8810, "99": 8811, "Fun@@": 8812, "preparations": 8813, "nevertheless": 8814, "Ms": 8815, "cured": 8816, "ey@@": 8817, "Service": 8818, "exercised": 8819, "HI@@": 8820, "dig@@": 8821, "hunger": 8822, "thats": 8823, "mming": 8824, "fec@@": 8825, "Mur@@": 8826, "featured": 8827, "occupied": 8828, "blamed": 8829, "lin": 8830, "gran@@": 8831, "Ky@@": 8832, "discipline": 8833, "folding": 8834, "english@@": 8835, "clothes.": 8836, "perfec@@": 8837, "kidding": 8838, "both.": 8839, "bus.": 8840, "fami@@": 8841, "aku": 8842, "hid": 8843, "AD": 8844, "symbols": 8845, "fabulous": 8846, "る": 8847, "nostalgic": 8848, "Sundays": 8849, "Czech": 8850, "Sunday.": 8851, "Wish": 8852, "candies": 8853, "pain.": 8854, "because.": 8855, "liking": 8856, "SCWR": 8857, "neighboring": 8858, "deaths": 8859, "promising": 8860, "em@@": 8861, "limits": 8862, "T-@@": 8863, "agricultural": 8864, "unk": 8865, "magical": 8866, "handling": 8867, "arr@@": 8868, "Kar@@": 8869, "separately": 8870, "ong-@@": 8871, "residential": 8872, "ssion": 8873, "revolution": 8874, "cer": 8875, "sup@@": 8876, "ater": 8877, "tex@@": 8878, "line@@": 8879, "warm@@": 8880, "business@@": 8881, "cell-phone": 8882, "enjoyment": 8883, "colours": 8884, "issued": 8885, "mode@@": 8886, "ations.": 8887, "grabbed": 8888, "tation.": 8889, "ep": 8890, "roller": 8891, "Sake": 8892, "sad@@": 8893, "beaten": 8894, "see.": 8895, "restaurant@@": 8896, "point.": 8897, "roo@@": 8898, "flow@@": 8899, "free.": 8900, "rugby": 8901, ",,,": 8902, "podcasts": 8903, "resigned": 8904, "jima": 8905, "bento": 8906, "Opera": 8907, "ki.": 8908, "scissors": 8909, "uki": 8910, "leaning": 8911, "Baseball": 8912, "Ikebukuro": 8913, "ー": 8914, "kotatsu": 8915, "honorific": 8916, "Free": 8917, "ound": 8918, "undergo": 8919, "reac@@": 8920, "preventing": 8921, "world@@": 8922, "depressing": 8923, "immigration": 8924, "23@@": 8925, "Hy@@": 8926, "professionals": 8927, "a,@@": 8928, "experi@@": 8929, "deposit": 8930, "steep": 8931, "defend": 8932, "lling": 8933, "cep@@": 8934, "visu@@": 8935, "firmly": 8936, "Early": 8937, "pushing": 8938, "pilot": 8939, "net@@": 8940, "Mao": 8941, "Auckland": 8942, "dictionary.": 8943, "Square": 8944, "hour.": 8945, "Beautiful": 8946, "el.": 8947, "repetition": 8948, "fence": 8949, "monday": 8950, "sho": 8951, "ant.": 8952, "basics": 8953, ".Or": 8954, "odd.": 8955, "pale": 8956, "friday": 8957, "Ai@@": 8958, "fish.": 8959, "est.": 8960, "write.": 8961, "Rec@@": 8962, "dye": 8963, "kilograms": 8964, "rabbits": 8965, "journal.": 8966, "say...": 8967, "①": 8968, "Rainy": 8969, "games.": 8970, "membership": 8971, "lighting": 8972, "disabled": 8973, "illnesses": 8974, "48": 8975, "drink@@": 8976, "objec@@": 8977, "Different": 8978, "acid": 8979, "resulting": 8980, "denied": 8981, "fortunate": 8982, "fulness": 8983, "sty": 8984, "tape": 8985, "communities": 8986, "indicated": 8987, "Design": 8988, "Oxford": 8989, "ised": 8990, "right@@": 8991, "stretch": 8992, "reviewed": 8993, "C.": 8994, "Coming": 8995, "producer": 8996, "rocks": 8997, "temper@@": 8998, "ose": 8999, "bre@@": 9000, "believing": 9001, "loses": 9002, "26@@": 9003, "bb@@": 9004, "treats": 9005, "forum": 9006, "Hor@@": 9007, "ried": 9008, "Correction": 9009, "for.": 9010, "kicked": 9011, "Kawa@@": 9012, "winter.": 9013, "subject.": 9014, "literary": 9015, "Half": 9016, "confess": 9017, "Season": 9018, "woo@@": 9019, "dge": 9020, "TV@@": 9021, "ｓ": 9022, "ま": 9023, "fries": 9024, "●": 9025, "Tiger": 9026, "ω": 9027, "blackouts": 9028, "diarrhea": 9029, "club.": 9030, "taro": 9031, "Yakiniku": 9032, "28@@": 9033, "Kingdom": 9034, "boun@@": 9035, "failing": 9036, "Coo@@": 9037, "ethical": 9038, "lap@@": 9039, "ruined": 9040, "universal": 9041, "cotton": 9042, "ising": 9043, "shameful": 9044, "outs": 9045, "institution": 9046, "pati@@": 9047, "reli@@": 9048, "equals": 9049, "pick@@": 9050, ".We": 9051, "Mal@@": 9052, "arrives": 9053, "Att@@": 9054, "working.": 9055, "contraction": 9056, "icon": 9057, "king@@": 9058, "ship.": 9059, "staring": 9060, "weight.": 9061, "ned.": 9062, "cookie": 9063, "mushroom": 9064, "upstairs": 9065, "jelly": 9066, "diar@@": 9067, "rides": 9068, "pole": 9069, "kne@@": 9070, "origami": 9071, "chin": 9072, "/this": 9073, "coke": 9074, "elected": 9075, "food@@": 9076, "five-@@": 9077, "make@@": 9078, "crash": 9079, "threat": 9080, "external": 9081, "consulting": 9082, "tracking": 9083, "considerable": 9084, "immediate": 9085, "uncertain": 9086, "alternate": 9087, "10-@@": 9088, "emphasi@@": 9089, "abandon": 9090, "concentrating": 9091, "phone@@": 9092, "Engineering": 9093, "stove": 9094, "actu@@": 9095, "browser": 9096, "careers": 9097, "Nu@@": 9098, "Fin@@": 9099, "J-@@": 9100, "disappointment": 9101, "ST": 9102, "BC": 9103, "34": 9104, "their@@": 9105, "vel": 9106, "cave": 9107, "Ken@@": 9108, "needed.": 9109, "h.": 9110, "conditional": 9111, "pm.": 9112, "Spe@@": 9113, "sand@@": 9114, ",too": 9115, "easy.": 9116, "Han": 9117, "eat.": 9118, "umbrellas": 9119, "cute.": 9120, "Dream": 9121, "/have": 9122, "lightning": 9123, "bananas": 9124, "strong@@": 9125, "feelings.": 9126, "yen.": 9127, "However,I": 9128, "Zac": 9129, "1998": 9130, "businessman": 9131, "terrorist": 9132, "electri@@": 9133, "modest": 9134, "survival": 9135, "institutions": 9136, "mal": 9137, "materi@@": 9138, "reduction": 9139, "thermal": 9140, "reactions": 9141, "neglect": 9142, "listing": 9143, "deck": 9144, "humanity": 9145, "particles": 9146, "las": 9147, "nowhere": 9148, "discouraged": 9149, "ssive": 9150, "dropping": 9151, "multi-@@": 9152, "tains": 9153, "dles": 9154, "studi@@": 9155, "stru@@": 9156, "VERY": 9157, "tap@@": 9158, "disliked": 9159, "designated": 9160, "una": 9161, "pains": 9162, "pop@@": 9163, "collec@@": 9164, "Real": 9165, "ada": 9166, "ke-@@": 9167, "head.": 9168, "choice.": 9169, "punished": 9170, "suitcase": 9171, "hills": 9172, "sakura": 9173, "replies": 9174, "connects": 9175, "difficul@@": 9176, "skill@@": 9177, ",please": 9178, "lunch@@": 9179, "Open": 9180, "skirts": 9181, "subtle": 9182, "bubble": 9183, "sight@@": 9184, "②": 9185, "earthquake.": 9186, "Nabe": 9187, "marri@@": 9188, "cozy": 9189, "sauna": 9190, "Yamada": 9191, "collapsed": 9192, "Association": 9193, "thy": 9194, "sizes": 9195, "mandatory": 9196, "founder": 9197, "beds": 9198, "achieving": 9199, "sation": 9200, "locations": 9201, "jun@@": 9202, "weaker": 9203, "rational": 9204, "accepting": 9205, "Kei@@": 9206, "ethnic": 9207, "diagnosed": 9208, "visible": 9209, "ld": 9210, "Journal": 9211, "Chile": 9212, "Ball": 9213, "valu@@": 9214, "Tim": 9215, "thief": 9216, "gardens": 9217, "label": 9218, "ami": 9219, "liter@@": 9220, "Break": 9221, "flights": 9222, "eagerly": 9223, "piled": 9224, "Traditional": 9225, "info": 9226, "screamed": 9227, "honeymoon": 9228, "Exam": 9229, "sends": 9230, "Lost": 9231, "BA": 9232, "rela@@": 9233, "PO@@": 9234, "today..": 9235, "lawn": 9236, "today,": 9237, "n't@@": 9238, "scal@@": 9239, "sweater": 9240, "人": 9241, "or...": 9242, "scattered": 9243, "teammates": 9244, "speaker.": 9245, "moms": 9246, "kat@@": 9247, "past@@": 9248, "sadly": 9249, "Mari@@": 9250, "Lang-8@@": 9251, "dancer": 9252, "okonomiyaki": 9253, "Oh@@": 9254, "Toyama": 9255, "UNIQLO": 9256, "independence": 9257, "mindset": 9258, "slope": 9259, "malls": 9260, "post-@@": 9261, "planed": 9262, "opposition": 9263, "ab": 9264, "convince": 9265, "Full": 9266, "liv@@": 9267, "rat": 9268, "Stone": 9269, "ome@@": 9270, "Agency": 9271, "adapted": 9272, "ess": 9273, "expanding": 9274, "principles": 9275, "cted": 9276, "oper@@": 9277, "duc@@": 9278, "fitting": 9279, "soybeans": 9280, "Ber@@": 9281, "scratch": 9282, "cheating": 9283, "slu@@": 9284, "Europeans": 9285, "bankrupt": 9286, "...and": 9287, "redundant.": 9288, "tive@@": 9289, "hooked": 9290, "midterm": 9291, "Ty@@": 9292, "information.": 9293, "spring.": 9294, "shade": 9295, "gossip": 9296, "EX@@": 9297, "Dec": 9298, "orientation": 9299, "wonder@@": 9300, "common@@": 9301, "XXX": 9302, "that..": 9303, "cross@@": 9304, "X-@@": 9305, "Market": 9306, "nor@@": 9307, "PR@@": 9308, "subordinate": 9309, "dong": 9310, "voice.": 9311, "Kumamoto": 9312, "bat": 9313, "cockroach": 9314, "stating": 9315, "blin@@": 9316, "considerably": 9317, "businessmen": 9318, "tissue": 9319, "airplanes": 9320, "participation": 9321, "headquarters": 9322, "noises": 9323, "defeat": 9324, "dynamic": 9325, "E.": 9326, "faculty": 9327, "approval": 9328, "enjoy@@": 9329, "committee": 9330, "backs": 9331, "blown": 9332, "Cre@@": 9333, "kon@@": 9334, "ast@@": 9335, "frank": 9336, "me-@@": 9337, "mun@@": 9338, "Hit@@": 9339, "pping": 9340, "full-time": 9341, "blo@@": 9342, "pause": 9343, "yelled": 9344, "program.": 9345, "wow": 9346, "example.": 9347, "Anne": 9348, "renew": 9349, "katakana": 9350, "Merry": 9351, "se..": 9352, "acquainted": 9353, "politely": 9354, "GOOD": 9355, "Lunch": 9356, "shin": 9357, "Seven": 9358, "inch": 9359, "sewing": 9360, "doughnuts": 9361, "bookstores": 9362, "spinach": 9363, "GPS": 9364, "creation": 9365, "3000": 9366, "planes": 9367, "determin@@": 9368, "Energy": 9369, "doubts": 9370, "communications": 9371, "exit": 9372, "arguing": 9373, "Bank": 9374, "educate": 9375, "inf@@": 9376, "CG": 9377, "Michigan": 9378, "preserved": 9379, "owe": 9380, "tual": 9381, "acquired": 9382, "thri@@": 9383, "compli@@": 9384, "sick@@": 9385, "Ex": 9386, "way@@": 9387, "viewpoint": 9388, ".In": 9389, "tit@@": 9390, "is..": 9391, "someone.": 9392, "ball.": 9393, "Shir@@": 9394, "term.": 9395, "young@@": 9396, "ed..": 9397, "jail": 9398, "so-so": 9399, "Holland": 9400, "poor.": 9401, "sai": 9402, "Today@@": 9403, "pitch": 9404, "were@@": 9405, "trouble@@": 9406, "ally,@@": 9407, "black@@": 9408, "bea@@": 9409, "pictures.": 9410, "disk": 9411, "naughty": 9412, "schedules": 9413, "Hama@@": 9414, "cia": 9415, "ankle": 9416, "shampoo": 9417, "笑": 9418, "chestnuts": 9419, "uku@@": 9420, "Tokugawa": 9421, "recalled": 9422, "GDP": 9423, "dated": 9424, "returns": 9425, "sav@@": 9426, "obstacle": 9427, "gadgets": 9428, "Hol@@": 9429, "implement": 9430, "avoiding": 9431, "summarize": 9432, "meaning@@": 9433, "departments": 9434, "offensive": 9435, ".If": 9436, "moderate": 9437, "tal": 9438, "cage": 9439, "acy": 9440, "eu@@": 9441, "refresh@@": 9442, "fragrance": 9443, "samples": 9444, "crush": 9445, "gged": 9446, "typed": 9447, "tire@@": 9448, "dre@@": 9449, "Take@@": 9450, "chasing": 9451, "starring": 9452, "Congratulations": 9453, "bachelor": 9454, "receptionist": 9455, "se...": 9456, "wait@@": 9457, "roast": 9458, "time...": 9459, "'because": 9460, "conjunctions": 9461, "Ben": 9462, "hu": 9463, "Saturday.": 9464, "...but": 9465, "apologi@@": 9466, "architect": 9467, "fro@@": 9468, "speech.": 9469, "Student": 9470, ".&nbsp": 9471, "Yoshi@@": 9472, "pupils": 9473, "day...": 9474, ",,": 9475, "Gal@@": 9476, "dyed": 9477, "Masa@@": 9478, "bun": 9479, "frustration": 9480, "flute": 9481, "senses": 9482, "ome": 9483, "Ger@@": 9484, "cele@@": 9485, "satisfying": 9486, "lacks": 9487, "reviewing": 9488, "tivity": 9489, "necklace": 9490, "desired": 9491, "mankind": 9492, "CO2": 9493, "Pol@@": 9494, "Sei@@": 9495, "loads": 9496, "differ@@": 9497, "mat": 9498, "seed": 9499, "Hea@@": 9500, "PSP": 9501, "residence": 9502, "overwhelmed": 9503, "nonsense": 9504, "sink": 9505, "queue": 9506, "territory": 9507, "Asians": 9508, "chase": 9509, "Economics": 9510, "accomplished": 9511, "candles": 9512, "'an": 9513, "pills": 9514, "Jane": 9515, "son.": 9516, "Chicken": 9517, "coffee.": 9518, "bloody": 9519, "cows": 9520, "Ghibli": 9521, "VE": 9522, "/will": 9523, "nie": 9524, "cool.": 9525, "monsters": 9526, "Grand": 9527, "hairdresser": 9528, "☺": 9529, "waterfall": 9530, "une": 9531, "whales": 9532, "would@@": 9533, "tunes": 9534, "thumb": 9535, "phrased": 9536, "joking": 9537, "iTunes": 9538, "ō": 9539, "hospitalized": 9540, "Yukata": 9541, "Ishi@@": 9542, "hectic": 9543, "Bhutanese": 9544, "door@@": 9545, "Ang@@": 9546, "Canadians": 9547, "gun@@": 9548, "abundant": 9549, "H1N1": 9550, "sor@@": 9551, "creature": 9552, "categories": 9553, "dering": 9554, "Soviet": 9555, "lions": 9556, "scope": 9557, "longing": 9558, "appliance": 9559, "fies": 9560, "HR": 9561, "Port@@": 9562, "exaggerated": 9563, "favorable": 9564, "250": 9565, "cries": 9566, "tte": 9567, "nationalities": 9568, "zy": 9569, "exhibit": 9570, "bee": 9571, "once.": 9572, "reading.": 9573, "wont": 9574, "done.": 9575, "handwriting": 9576, "outgoing": 9577, "calmly": 9578, "hosted": 9579, "wee@@": 9580, "lips": 9581, "perfect.": 9582, "business.": 9583, "below.": 9584, "sta": 9585, "intern": 9586, "damn": 9587, "oranges": 9588, "devil": 9589, "succe@@": 9590, "Australians": 9591, "permitted": 9592, "anyways": 9593, "title.": 9594, "pottery": 9595, "cucumbers": 9596, "oning": 9597, "crew": 9598, "Li": 9599, "cting": 9600, "treating": 9601, "1990": 9602, "trends": 9603, "mice": 9604, "achievements": 9605, "beloved": 9606, "blocked": 9607, "modi@@": 9608, "MP3": 9609, "clue": 9610, "posse@@": 9611, "buys": 9612, "corporate": 9613, "captured": 9614, "registration": 9615, "histor@@": 9616, "health@@": 9617, "ored": 9618, "Studio": 9619, "regulation": 9620, "Meeting": 9621, "ways.": 9622, "contradic@@": 9623, "mic@@": 9624, "circumstance": 9625, "ek": 9626, "database": 9627, "calorie": 9628, "mid-term": 9629, "arrogant": 9630, "bou@@": 9631, "conju@@": 9632, "fast.": 9633, "scarf": 9634, "ken@@": 9635, "Sai@@": 9636, "Teaching": 9637, "lawyer": 9638, "/he": 9639, "peach": 9640, "Now,I": 9641, "whole@@": 9642, "myself@@": 9643, "now,": 9644, "Naruto": 9645, "kes.": 9646, "ambi@@": 9647, "anxi@@": 9648, "Walking": 9649, "songs.": 9650, "as.": 9651, "english.": 9652, "vi": 9653, "announce": 9654, "logist": 9655, "University.": 9656, "pound": 9657, "university@@": 9658, "p-@@": 9659, "recieved": 9660, "chili": 9661, "pickled": 9662, "ocarina": 9663, "fatal": 9664, "she@@": 9665, "advancement": 9666, "tackle": 9667, "capability": 9668, "/an": 9669, "auth@@": 9670, "joint": 9671, "poly@@": 9672, "needless": 9673, "involving": 9674, "42": 9675, "tured": 9676, "oned": 9677, "inspire": 9678, "level@@": 9679, "tones": 9680, "lasting": 9681, "weigh@@": 9682, "consu@@": 9683, "span": 9684, "inde@@": 9685, "laying": 9686, "spoiled": 9687, "problem@@": 9688, "signals": 9689, "sia": 9690, "insert": 9691, "7-@@": 9692, "skin@@": 9693, "atu@@": 9694, "biting": 9695, "Tre@@": 9696, "extraordinary": 9697, "a.@@": 9698, "Br@@": 9699, "tac@@": 9700, "sweaty": 9701, "suit@@": 9702, "sits": 9703, "everything.": 9704, "bless": 9705, "friendships": 9706, "comment@@": 9707, "bothering": 9708, "semicolon": 9709, "nal": 9710, "tai@@": 9711, "g-@@": 9712, "merits": 9713, "again..": 9714, "staffs": 9715, "wr@@": 9716, "chill": 9717, "ALL": 9718, "Harajuku": 9719, "Aikido": 9720, "omi": 9721, "SF": 9722, "Onsen": 9723, "second-@@": 9724, "wrestlers": 9725, "Texas": 9726, "Okayama": 9727, "Apart": 9728, "expectancy": 9729, "ino@@": 9730, "terrorists": 9731, "authority": 9732, "furthermore": 9733, "destruction": 9734, "accompany": 9735, "bott@@": 9736, "cultivate": 9737, "mel@@": 9738, "tro@@": 9739, "pleas@@": 9740, "broad@@": 9741, "reporting": 9742, "specified": 9743, "Practice": 9744, "smoother": 9745, "pipe": 9746, "infection": 9747, "classified": 9748, "Ob@@": 9749, "tely": 9750, "lip": 9751, "tened": 9752, "comprehend": 9753, "ruin": 9754, "sto@@": 9755, "password": 9756, "progressive": 9757, "achi": 9758, "ones.": 9759, "Believe": 9760, "great@@": 9761, "ving.": 9762, "Victoria": 9763, "balloon": 9764, "f.": 9765, "gh": 9766, "Neither": 9767, "gro@@": 9768, "Zoo": 9769, "already.": 9770, "ma.": 9771, "Tea": 9772, "m..": 9773, "spiri@@": 9774, "remarks": 9775, "shoots": 9776, "dancers": 9777, "Yor@@": 9778, "Hak@@": 9779, "choir": 9780, "neat": 9781, "pancakes": 9782, "correctly.": 9783, "frog": 9784, "TED": 9785, "Tanabata": 9786, "quitting": 9787, "tatami": 9788, "proceed": 9789, "unity": 9790, "reduces": 9791, "cool@@": 9792, "intentionally": 9793, "employ": 9794, "cro@@": 9795, "inge": 9796, "fulfilled": 9797, "declined": 9798, "practically": 9799, "intensive": 9800, "essence": 9801, "societies": 9802, "shorten": 9803, "countless": 9804, "ading": 9805, "Diego": 9806, "container": 9807, "vable": 9808, "color@@": 9809, "27@@": 9810, "000@@": 9811, "Change": 9812, "Finland": 9813, "diversity": 9814, "ora": 9815, "Gy@@": 9816, "servant": 9817, "hesitant": 9818, "begin@@": 9819, "za@@": 9820, "stic@@": 9821, "___": 9822, "None": 9823, "nerve": 9824, "more..": 9825, "exclamation": 9826, ",this": 9827, "fragment": 9828, "feeling.": 9829, "spices": 9830, "comfortable.": 9831, "light.": 9832, "aliens": 9833, "lamb": 9834, "__@@": 9835, "-_-": 9836, "homework.": 9837, "insect": 9838, "ex-boyfriend": 9839, "JO@@": 9840, ",It": 9841, "Afterward": 9842, "tricks": 9843, "fai@@": 9844, "good-looking": 9845, "Bud@@": 9846, "detective": 9847, "solo": 9848, "US.": 9849, "commuter": 9850, "-or-": 9851, "Kimchi": 9852, "PIECE": 9853, "Hanami": 9854, "powered": 9855, "allowance": 9856, "ani": 9857, "tism": 9858, "alike": 9859, "DNA": 9860, "instantly": 9861, "clari@@": 9862, "paragraphs": 9863, "sustainable": 9864, "carries": 9865, "CA": 9866, "cents": 9867, "marvelous": 9868, "devi@@": 9869, "guidance": 9870, "gadget": 9871, "consultant": 9872, "four-@@": 9873, "drastically": 9874, "silently": 9875, "voc@@": 9876, "Chu@@": 9877, "cook@@": 9878, "lap": 9879, "tor.": 9880, "free@@": 9881, "feeding": 9882, "Small": 9883, "Air@@": 9884, "suspected": 9885, "Ice": 9886, "Brown": 9887, "propose": 9888, "Changing": 9889, "EM@@": 9890, "log@@": 9891, "ily": 9892, "preschool": 9893, "stray": 9894, "attendance": 9895, "-D": 9896, "soda": 9897, "father.": 9898, "stan@@": 9899, "poet": 9900, "great.": 9901, "med@@": 9902, "m,": 9903, "something@@": 9904, "festival.": 9905, "history.": 9906, "spanish": 9907, "No.1": 9908, "rap": 9909, "desi@@": 9910, "converse": 9911, "changed.": 9912, "this..": 9913, "fluency": 9914, "cell@@": 9915, "busier": 9916, "misunderstandings": 9917, "fox": 9918, "party@@": 9919, "but...": 9920, "fireflies": 9921, ".--": 9922, "00AM": 9923, "AKB48": 9924, "element": 9925, "specially": 9926, "involve": 9927, "interaction": 9928, "distribution": 9929, "ups": 9930, "stored": 9931, "enrich": 9932, "Trans@@": 9933, "covering": 9934, "Adding": 9935, "demo@@": 9936, "spends": 9937, "rating": 9938, "pon@@": 9939, "profound": 9940, "polluted": 9941, "lls": 9942, "aiming": 9943, "buttons": 9944, "copied": 9945, "greedy": 9946, "organizing": 9947, "bing": 9948, "Modern": 9949, "wom@@": 9950, "easi@@": 9951, "seventh": 9952, "sne@@": 9953, "order.": 9954, "worded": 9955, "egg@@": 9956, "invisible": 9957, "note@@": 9958, "Below": 9959, "respectful": 9960, "also.": 9961, "fs": 9962, ",,@@": 9963, "adjective.": 9964, "women.": 9965, "Movies": 9966, "puzzled": 9967, "self-introduction": 9968, "journalist": 9969, "ines.": 9970, "nervous.": 9971, "MBA": 9972, "cabinet": 9973, "Everytime": 9974, "No.@@": 9975, "b.": 9976, "gu": 9977, "haha.": 9978, "beverage": 9979, "pc": 9980, "varieties": 9981, "Tat@@": 9982, "smar@@": 9983, "trail": 9984, "apps": 9985, "Toy": 9986, "Tanzania": 9987, "♡": 9988, "stability": 9989, "circulation": 9990, "360": 9991, "flooded": 9992, "Ter@@": 9993, ",who": 9994, "utilize": 9995, "SE": 9996, "bol@@": 9997, "preserve": 9998, "idi@@": 9999, "formation": 10000, "extra@@": 10001, "Excel": 10002, "marke@@": 10003, "Overall": 10004, "donations": 10005, "secre@@": 10006, "minority": 10007, "reflection": 10008, "kets": 10009, "dish@@": 10010, "ood": 10011, "secretary": 10012, "'is": 10013, "29@@": 10014, "wound": 10015, "stat@@": 10016, "set@@": 10017, "tters": 10018, "transition": 10019, "Tan@@": 10020, "PS@@": 10021, "close@@": 10022, "logo": 10023, "vegetarian": 10024, "nom@@": 10025, "places.": 10026, "hood": 10027, "Want": 10028, "questions.": 10029, "resembles": 10030, "souls": 10031, "daughter.": 10032, "Twilight": 10033, "hints": 10034, "sea.": 10035, "abi": 10036, "texture": 10037, "Doing": 10038, "swollen": 10039, "taste@@": 10040, "zhou": 10041, "shi.": 10042, "novel@@": 10043, "pad@@": 10044, "mine.": 10045, "m...": 10046, "agre@@": 10047, "End": 10048, "｀": 10049, "ability.": 10050, "vocal": 10051, "atsu@@": 10052, "bashi": 10053, "commerce": 10054, "relating": 10055, "Butler": 10056, "Had": 10057, "investigate": 10058, "sively": 10059, "largely": 10060, "renewable": 10061, "home-@@": 10062, "pressing": 10063, "eliminate": 10064, "on-line": 10065, "thread": 10066, "ee@@": 10067, "reaches": 10068, "grated": 10069, "strive": 10070, "Sing@@": 10071, "nap@@": 10072, "exhausting": 10073, "open@@": 10074, "Smith": 10075, "wages": 10076, "reasonably": 10077, "Nature": 10078, "stle": 10079, "adjusted": 10080, "satellite": 10081, "trea@@": 10082, "skillful": 10083, "ruins": 10084, "arian": 10085, ",that": 10086, "near@@": 10087, "reci@@": 10088, "shine": 10089, "gang": 10090, "ids": 10091, "ere": 10092, "cky": 10093, "Yes.": 10094, "had@@": 10095, "Place": 10096, "speaking.": 10097, "planing": 10098, "Grand@@": 10099, "ambition": 10100, "Sud@@": 10101, "classes.": 10102, "royal": 10103, "stuffs": 10104, "ttering": 10105, "frankly": 10106, "guess.": 10107, "cucumber": 10108, "runner": 10109, "不": 10110, "t-shirt": 10111, "afterward": 10112, "8.": 10113, "Travel": 10114, "practice.": 10115, "sooo": 10116, "early.": 10117, "sequel": 10118, "tattoo": 10119, "お": 10120, "ancestor": 10121, "cockroaches": 10122, "duck": 10123, "strain": 10124, "promoting": 10125, "substantial": 10126, "emission": 10127, "dignity": 10128, "AS": 10129, "Nonetheless": 10130, "lifestyles": 10131, "years-old": 10132, "ami@@": 10133, "weapon": 10134, "components": 10135, "36": 10136, "ultimate": 10137, "compose": 10138, "bombs": 10139, "selecting": 10140, "44": 10141, "authorities": 10142, "tightly": 10143, "terminal": 10144, "checks": 10145, "faults": 10146, "Dr": 10147, "Ap@@": 10148, "ological": 10149, "siblings": 10150, "competent": 10151, "fierce": 10152, "ade": 10153, "charges": 10154, "jec@@": 10155, "pay@@": 10156, "butt@@": 10157, "5000": 10158, "quick@@": 10159, "expe@@": 10160, "printing": 10161, "umb@@": 10162, "agriculture": 10163, "mus@@": 10164, "appe@@": 10165, "depre@@": 10166, "Bel@@": 10167, "adorable": 10168, "clay": 10169, "embarra@@": 10170, "eyes.": 10171, "idiomatic": 10172, "landscapes": 10173, "wakes": 10174, "snow.": 10175, "She@@": 10176, "maths": 10177, "Wan": 10178, "sick.": 10179, "athlete": 10180, "stylist": 10181, "Bridge": 10182, "Grammatically": 10183, "er...": 10184, "bargain": 10185, "video@@": 10186, "three-day": 10187, "computer.": 10188, "consonant": 10189, "dog.": 10190, "Woo@@": 10191, "Chinatown": 10192, "Check": 10193, "Song": 10194, "ago,": 10195, "3,@@": 10196, "team.": 10197, "Gundam": 10198, "identification": 10199, "engines": 10200, "over-@@": 10201, "sequence": 10202, "flo@@": 10203, "promises": 10204, "unemployed": 10205, "indoors": 10206, "severely": 10207, "Cambridge": 10208, "differs": 10209, "attain": 10210, "suspicious": 10211, "dangers": 10212, "approaches": 10213, "grow@@": 10214, "calculate": 10215, "coinci@@": 10216, "gor@@": 10217, "95": 10218, "Watch": 10219, "farms": 10220, "eing": 10221, "seal": 10222, "rob@@": 10223, "lo": 10224, "Tha@@": 10225, "pod": 10226, "relay": 10227, "Gold": 10228, "list@@": 10229, "Excuse": 10230, "dol@@": 10231, "idiot": 10232, "mastering": 10233, "paper.": 10234, "Got": 10235, "this...": 10236, ",especially": 10237, "one..": 10238, "rehearsal": 10239, "design@@": 10240, "microphone": 10241, "Self": 10242, "apology": 10243, "curtain": 10244, "audiences": 10245, "entertain": 10246, "way,I": 10247, "Kon@@": 10248, "zen": 10249, "Joe": 10250, "/The": 10251, "Oops": 10252, "chopped": 10253, "prefer@@": 10254, "tommorow": 10255, "cola": 10256, "kendo": 10257, "karate": 10258, "rested": 10259, "･": 10260, "frogs": 10261, "Weather": 10262, "tattoos": 10263, "1986": 10264, "weigh": 10265, "proportion": 10266, "spoil": 10267, "41": 10268, "matic": 10269, "manufacturers": 10270, "zo@@": 10271, "saves": 10272, "195@@": 10273, "Eng@@": 10274, "inherited": 10275, "verbal": 10276, "reverse": 10277, "permit": 10278, "communi@@": 10279, "disadvantage": 10280, "accessible": 10281, "toll": 10282, "intentions": 10283, "ongoing": 10284, "crafts": 10285, "tended": 10286, "ables": 10287, "sign@@": 10288, "exchanges": 10289, "inappropriate": 10290, "un-@@": 10291, "trapped": 10292, "asi@@": 10293, "allow@@": 10294, "Stop": 10295, "construct": 10296, "se-@@": 10297, "inserted": 10298, "guided": 10299, "ple": 10300, "semi-@@": 10301, "ane": 10302, "instruction": 10303, "ordering": 10304, "spec@@": 10305, "wiped": 10306, "short-@@": 10307, "volunteering": 10308, "neutral": 10309, "wel@@": 10310, "onwards": 10311, "¥": 10312, "LE": 10313, "huh": 10314, "pretending": 10315, "teenage": 10316, "dislikes": 10317, "smoker": 10318, "hair.": 10319, "cation.": 10320, "ed,": 10321, "OMG": 10322, "No.": 10323, "takoyaki": 10324, "minute@@": 10325, "ker@@": 10326, "BL@@": 10327, "bacon": 10328, "Kai@@": 10329, "-----": 10330, "greeted": 10331, "ture.": 10332, "short.": 10333, "interpreted": 10334, "Yours": 10335, "chart": 10336, "reservations": 10337, "host@@": 10338, "neighbor@@": 10339, "merit": 10340, "Matsu@@": 10341, "UK@@": 10342, "Bicycle": 10343, "arise": 10344, "etc@@": 10345, "subsidies": 10346, "guards": 10347, "analyzing": 10348, "cons": 10349, "belonging": 10350, "distributed": 10351, "first-@@": 10352, "neg@@": 10353, "emotionally": 10354, "cker": 10355, "crow@@": 10356, "inferior": 10357, "injection": 10358, "revenue": 10359, "clinical": 10360, "lations": 10361, "real@@": 10362, "threatened": 10363, "lands": 10364, "relates": 10365, "Op@@": 10366, "196@@": 10367, "nicely": 10368, "tant": 10369, "elaborate": 10370, "better@@": 10371, "homemade": 10372, "Kate": 10373, "ch-@@": 10374, "emb@@": 10375, "fron@@": 10376, "zo": 10377, "deserves": 10378, "Sex": 10379, "Hall": 10380, "ly,@@": 10381, "unpredictable": 10382, "Bay": 10383, "Prize": 10384, "combining": 10385, "main@@": 10386, "Ir@@": 10387, "bare": 10388, "addiction": 10389, "alien": 10390, "van": 10391, "dir@@": 10392, "far.": 10393, "humili@@": 10394, "ousness": 10395, "adverbs": 10396, "toes": 10397, "appealing": 10398, "cellphones": 10399, "Feel": 10400, "talk@@": 10401, "seasoning": 10402, "christmas": 10403, "UG@@": 10404, "Coast": 10405, "beautiful@@": 10406, "colds": 10407, "genuine": 10408, "shopp@@": 10409, "though..": 10410, "picture.": 10411, "Niagara": 10412, "tours": 10413, "bookshelf": 10414, "Kom@@": 10415, "a&nbsp": 10416, "mu": 10417, "Team": 10418, "trumpet": 10419, "zai": 10420, "jogged": 10421, "tiredness": 10422, "Harvard": 10423, "Dynasty": 10424, "pres@@": 10425, "instruc@@": 10426, "hardware": 10427, "employer": 10428, "simultaneously": 10429, "asse@@": 10430, "evolution": 10431, "gene": 10432, "six@@": 10433, "operated": 10434, "ald": 10435, "preliminary": 10436, "posture": 10437, "abo@@": 10438, "supporters": 10439, "ards": 10440, "O-@@": 10441, "gation": 10442, "parent@@": 10443, "meantime": 10444, "accumulated": 10445, "-in-@@": 10446, "AI@@": 10447, "Mountain": 10448, "vitamin": 10449, "Library": 10450, "blessed": 10451, "farming": 10452, "RMB": 10453, "addresses": 10454, "convention": 10455, "ms@@": 10456, "antly": 10457, "Coun@@": 10458, "ly...": 10459, "exotic": 10460, "grey": 10461, "lic": 10462, "behaved": 10463, "Out@@": 10464, "Bob": 10465, "ania": 10466, "Beach": 10467, "shou@@": 10468, "DI@@": 10469, "scare": 10470, "side.": 10471, "/is": 10472, "gin": 10473, "shima@@": 10474, "Son": 10475, "drawings": 10476, "-ing": 10477, "THIS": 10478, "weather@@": 10479, "uro": 10480, "Future": 10481, "jin@@": 10482, "slice": 10483, "confu@@": 10484, "brushing": 10485, "saying.": 10486, "guess@@": 10487, "nasty": 10488, "postcard": 10489, "thirsty": 10490, "editing": 10491, "fabric": 10492, "blah": 10493, "c.": 10494, "thir@@": 10495, "high-school": 10496, "panda": 10497, "second-hand": 10498, "order@@": 10499, "/get": 10500, "intersection": 10501, "expected.": 10502, "hospitality": 10503, "Katakana": 10504, "ashi": 10505, "Sakamoto": 10506, "could@@": 10507, "nuances": 10508, "raccoon": 10509, "vulnerable": 10510, "diverted": 10511, "brain@@": 10512, "emissions": 10513, "criteria": 10514, "effectiveness": 10515, "organi@@": 10516, "gn": 10517, "distinct": 10518, "Pas@@": 10519, "wastes": 10520, "tioned": 10521, "alizing": 10522, "1995": 10523, "39": 10524, "Natural": 10525, "alert": 10526, "manufacturer": 10527, "Madrid": 10528, "rap@@": 10529, "messed": 10530, "ship@@": 10531, "failures": 10532, "laun@@": 10533, "stance": 10534, "illu@@": 10535, "Bor@@": 10536, "syste@@": 10537, "FC": 10538, "Running": 10539, "Saudi": 10540, "check@@": 10541, "or-@@": 10542, "dose": 10543, "Cla@@": 10544, "process@@": 10545, "relaxation": 10546, "Examination": 10547, "P.@@": 10548, "Police": 10549, "Hard": 10550, "mail.": 10551, "IL@@": 10552, "carpet": 10553, "lamp": 10554, "mastered": 10555, "Norwegian": 10556, "ached": 10557, "null,nul": 10558, "mainland": 10559, "vampire": 10560, "happen.": 10561, "cour@@": 10562, "Saint": 10563, "genres": 10564, "been@@": 10565, "grader": 10566, "'You": 10567, "flesh": 10568, "pianist": 10569, "BE": 10570, "atic": 10571, "begining": 10572, "が": 10573, "monk": 10574, "birthdays": 10575, "Edward": 10576, "April.": 10577, "air-conditioner": 10578, "crowds": 10579, "Hakodate": 10580, "PS3": 10581, "chir@@": 10582, "exploded": 10583, "commerci@@": 10584, "ency": 10585, "thre@@": 10586, "Ben@@": 10587, "competing": 10588, "injuries": 10589, "Medi@@": 10590, "poorer": 10591, "mani@@": 10592, "hybrid": 10593, "fails": 10594, "adv@@": 10595, "versa": 10596, "Humans": 10597, "versus": 10598, "nerves": 10599, "Given": 10600, "high.": 10601, "voting": 10602, "Rob@@": 10603, "self@@": 10604, "alling": 10605, "Rose": 10606, "loc@@": 10607, "environments": 10608, "evi@@": 10609, "prone": 10610, "inspection": 10611, "considerate": 10612, "retail": 10613, "oki": 10614, "disturb": 10615, "tel": 10616, "kk@@": 10617, "Peace": 10618, "anonymous": 10619, "judged": 10620, "tty": 10621, "suspended": 10622, "straw": 10623, "Following": 10624, "followers": 10625, "cop@@": 10626, "Stu@@": 10627, "Books": 10628, "'S": 10629, "wandering": 10630, "pronoun@@": 10631, "woman.": 10632, "forehead": 10633, "ysi@@": 10634, "coats": 10635, "coldest": 10636, "rice.": 10637, "together@@": 10638, "herbs": 10639, "n'@@": 10640, "ji.": 10641, "days..": 10642, "them..": 10643, "Cra@@": 10644, "Shopping": 10645, "exhibitions": 10646, "butterflies": 10647, "downstairs": 10648, "ima@@": 10649, "ding.": 10650, "holidays.": 10651, "Friday.": 10652, "while@@": 10653, "Scotland": 10654, "pass@@": 10655, "diligently": 10656, "ble.": 10657, "imag@@": 10658, "healing": 10659, "Pal@@": 10660, "pics": 10661, "Caribbean": 10662, "judges": 10663, "Korean.": 10664, "shortly": 10665, "itself.": 10666, "dive": 10667, "offic@@": 10668, "soaking": 10669, "Yu": 10670, "Movie": 10671, "scuba": 10672, "Okinawan": 10673, "Hatoyama": 10674, "grad": 10675, "Jeju": 10676, "R&D": 10677, "controlling": 10678, "Silver": 10679, "ough@@": 10680, "dealt": 10681, "shares": 10682, "vaccine": 10683, "reform": 10684, "removing": 10685, "prevention": 10686, "TA": 10687, "off-@@": 10688, "stocks": 10689, "substances": 10690, "constructing": 10691, "Over@@": 10692, "demanding": 10693, "walk@@": 10694, "AC": 10695, "fruitful": 10696, "distrac@@": 10697, "shar@@": 10698, "geography": 10699, "nit@@": 10700, "observing": 10701, "heavier": 10702, "willingly": 10703, "fears": 10704, "unusually": 10705, "appearing": 10706, "resident": 10707, "prejudice": 10708, "panel": 10709, "Award": 10710, "scenario": 10711, "dity": 10712, "corresponding": 10713, "straigh@@": 10714, "gear": 10715, "ATM": 10716, "appro@@": 10717, "merchandise": 10718, "gent": 10719, "vir@@": 10720, "so-@@": 10721, "Swedish": 10722, "weighed": 10723, "mix@@": 10724, "Entry": 10725, "obesity": 10726, "cheated": 10727, "road@@": 10728, "practising": 10729, "N'T": 10730, "s'.": 10731, "conquer": 10732, "nothing.": 10733, "Kit@@": 10734, "ress": 10735, "gang@@": 10736, "Christianity": 10737, "phoned": 10738, "ket.": 10739, "lang-8.": 10740, "wrong@@": 10741, "window@@": 10742, "pancake": 10743, "incorrectly": 10744, "m.@@": 10745, "olive": 10746, "majors": 10747, "a,": 10748, "Sta@@": 10749, "unclear.": 10750, "IKEA": 10751, "fic": 10752, "cheers": 10753, "natural@@": 10754, "seki": 10755, "lang@@": 10756, "ica": 10757, "toe": 10758, "writ@@": 10759, "hilarious": 10760, "edited": 10761, "suburbs": 10762, "excited.": 10763, "Sam@@": 10764, "00.": 10765, "antique": 10766, "zodiac": 10767, "Pirates": 10768, "peacefully": 10769, "Japan,@@": 10770, "brow@@": 10771, "buckwheat": 10772, "Curry": 10773, "FIFA": 10774, "Aussie": 10775, "ists": 10776, "accoun@@": 10777, "influential": 10778, "SD": 10779, "engage": 10780, "econom@@": 10781, "retain": 10782, "Group": 10783, "generating": 10784, "pin": 10785, "Throughout": 10786, "approved": 10787, "ironic": 10788, "itation": 10789, "tang@@": 10790, "valued": 10791, "auto@@": 10792, "oli@@": 10793, "mber@@": 10794, "agencies": 10795, "judgment": 10796, "Cri@@": 10797, "gan": 10798, "Imagine": 10799, "Contin@@": 10800, "Roc@@": 10801, "pregnancy": 10802, "layout": 10803, "Internet.": 10804, "variation": 10805, "alists": 10806, "palm": 10807, "Far@@": 10808, "prece@@": 10809, "indi@@": 10810, "AF@@": 10811, "torn": 10812, "Jim": 10813, "Samsung": 10814, "year-@@": 10815, "itch": 10816, "imagining": 10817, "anyway.": 10818, "scripts": 10819, "packages": 10820, "rumors": 10821, "cious": 10822, "smoked": 10823, "lang": 10824, "cheek": 10825, "queen": 10826, "Christians": 10827, "trainer": 10828, "Cel@@": 10829, "console": 10830, "mock": 10831, "meet@@": 10832, "pper": 10833, "left.": 10834, "which@@": 10835, "daughter@@": 10836, "'so": 10837, "frea@@": 10838, "pigs": 10839, "bits": 10840, "Mir@@": 10841, "pud@@": 10842, "'on": 10843, "lesson.": 10844, "Bang": 10845, "placement": 10846, "salesman": 10847, "sidewalk": 10848, "decoration": 10849, "resign": 10850, "onsen": 10851, "skill.": 10852, "tablet": 10853, "packs": 10854, "Gifu": 10855, "whale": 10856, "kyu": 10857, "seasoned": 10858, "da.": 10859, "expressway": 10860, "brass": 10861, "poses": 10862, "discipl@@": 10863, "stricken": 10864, "chip": 10865, "cooled": 10866, "similarities": 10867, "kills": 10868, "oph@@": 10869, "remo@@": 10870, "ice@@": 10871, "satisfactory": 10872, "replacement": 10873, "grams": 10874, "poison": 10875, "Asi@@": 10876, "adap@@": 10877, "leak": 10878, "Much": 10879, "bers": 10880, "suc@@": 10881, "glory": 10882, "Manhattan": 10883, "tail@@": 10884, "adul@@": 10885, "compound": 10886, "Phone": 10887, "wishing": 10888, "worri@@": 10889, "holder": 10890, "Iraq": 10891, "'that": 10892, "protein": 10893, "HP": 10894, "Hom@@": 10895, "Training": 10896, "ringing": 10897, "parallel": 10898, "road.": 10899, "crystal": 10900, "bouquet": 10901, "holy": 10902, "sound.": 10903, "Translation": 10904, "cart": 10905, "shorts": 10906, "Indians": 10907, "fal@@": 10908, "offended": 10909, "listen@@": 10910, "Tube": 10911, "UC@@": 10912, "tobacco": 10913, "Shall": 10914, "desks": 10915, "thinner": 10916, "ther.": 10917, "pubs": 10918, "strangely": 10919, "Jap@@": 10920, "Dol@@": 10921, "'...@@": 10922, "warmed": 10923, "graceful": 10924, "vs.": 10925, "awa": 10926, "irrit@@": 10927, "article.": 10928, "hint": 10929, "But,@@": 10930, "feminine": 10931, "breed": 10932, "dumpling": 10933, "refund": 10934, "ook": 10935, "captions": 10936, "Giants": 10937, "Taiwan.": 10938, "suggestion.": 10939, "viruses": 10940, "treatments": 10941, "folks": 10942, "1999": 10943, "exten@@": 10944, "inst@@": 10945, "conce@@": 10946, "initi@@": 10947, "pedestrians": 10948, "forcing": 10949, "initially": 10950, "extensive": 10951, "tens": 10952, "ati@@": 10953, "Studies": 10954, "firms": 10955, "wipe": 10956, "Titanic": 10957, "respective": 10958, "eighteen": 10959, "sequ@@": 10960, "shr@@": 10961, "maj@@": 10962, "Jones": 10963, "2,000": 10964, "enters": 10965, "theat@@": 10966, "examin@@": 10967, "developer": 10968, "ET": 10969, "touches": 10970, "drill": 10971, "ows": 10972, "knock": 10973, "shiny": 10974, "tter@@": 10975, "........@@": 10976, "kun": 10977, "headaches": 10978, "whit@@": 10979, "clicked": 10980, "wasabi": 10981, "time.@@": 10982, "hike": 10983, "ors.": 10984, "inn": 10985, "scold": 10986, "boats": 10987, "earrings": 10988, "phrasal": 10989, "Period": 10990, "retur@@": 10991, "30pm": 10992, "little@@": 10993, "lings": 10994, "gru@@": 10995, "colloqui@@": 10996, "goldfish": 10997, "sni@@": 10998, "formally": 10999, "patri@@": 11000, "yelling": 11001, "heels": 11002, "beer.": 11003, "disappoin@@": 11004, "Karate": 11005, "surfed": 11006, "tea.": 11007, "Japanese-English": 11008, "park.": 11009, "Kyusyu": 11010, "GW": 11011, "ANA": 11012, "whiskey": 11013, "DPJ": 11014, "TEPCO": 11015, "ang-@@": 11016, "limitation": 11017, "tax@@": 11018, "functional": 11019, "concluded": 11020, "properties": 11021, "itting": 11022, "substance": 11023, "devastating": 11024, "continent": 11025, "refer@@": 11026, "economically": 11027, "thirteen": 11028, "ctor": 11029, "controversy": 11030, "dation": 11031, "Hospital": 11032, "versi@@": 11033, "grounds": 11034, "objectives": 11035, "strea@@": 11036, "Nobel": 11037, "hen@@": 11038, "awards": 11039, "ement": 11040, "400@@": 11041, "toilets": 11042, "starving": 11043, "prizes": 11044, "inconvenience": 11045, "La": 11046, "ran@@": 11047, "ath@@": 11048, "sketch": 11049, "sleeves": 11050, "sted.": 11051, "ature": 11052, "answer.": 11053, "ct@@": 11054, "teen@@": 11055, "Talk": 11056, "view.": 11057, "pap@@": 11058, "ature.": 11059, "stickers": 11060, "clothe@@": 11061, "gal@@": 11062, "photograph@@": 11063, "Johnny": 11064, "Recently@@": 11065, "ENT": 11066, "d,I": 11067, "bees": 11068, "complains": 11069, "Traveling": 11070, "Because@@": 11071, "day-@@": 11072, "town@@": 11073, "days,@@": 11074, "Dra@@": 11075, "twenties": 11076, "n-@@": 11077, "gar": 11078, "work..": 11079, "teenth": 11080, "sentimental": 11081, "scen@@": 11082, "centimeters": 11083, "Bun@@": 11084, "sentence...": 11085, "choo@@": 11086, "timer": 11087, "on...": 11088, "action.": 11089, "Start": 11090, "performers": 11091, "roe": 11092, "only.": 11093, "pandas": 11094, "maple": 11095, "syrup": 11096, "ssions": 11097, "hiring": 11098, "chemicals": 11099, "discoveries": 11100, "inevitably": 11101, "leng@@": 11102, "seemingly": 11103, "preci@@": 11104, "lung": 11105, "painters": 11106, "centuries": 11107, "rail": 11108, "landed": 11109, "Previously": 11110, "take@@": 11111, "Val@@": 11112, "ug@@": 11113, "sever@@": 11114, "attrac@@": 11115, "Country": 11116, "bin@@": 11117, "tain": 11118, "alternatively": 11119, "tered": 11120, "ttered": 11121, "fer": 11122, "dic": 11123, "6-@@": 11124, "bullied": 11125, "singular.": 11126, "hugging": 11127, "answ@@": 11128, "helmet": 11129, "Favorite": 11130, "rab@@": 11131, "excursion": 11132, "prin@@": 11133, "come@@": 11134, "一": 11135, "moo@@": 11136, "sometimes.": 11137, "teller": 11138, "team@@": 11139, "seated": 11140, "5.": 11141, "suck": 11142, "Dark": 11143, "horri@@": 11144, "when@@": 11145, "ENGLISH": 11146, "SN@@": 11147, "Xmas": 11148, "vowels": 11149, "ona": 11150, "healed": 11151, "Kitty": 11152, "meats": 11153, "pine": 11154, "ye": 11155, "imaginary": 11156, "imagin@@": 11157, "xi": 11158, "gallery": 11159, "Kara@@": 11160, "cy.": 11161, "Enjoy": 11162, "linguistic": 11163, "booth": 11164, "pes": 11165, "library.": 11166, "yoshi": 11167, "Taro": 11168, "brushed": 11169, "yers": 11170, "resistance": 11171, "produc@@": 11172, "opposing": 11173, "tus": 11174, "corporations": 11175, "compe@@": 11176, "pros": 11177, "simul@@": 11178, "firstly": 11179, "foremost": 11180, "publi@@": 11181, "invested": 11182, "Ev@@": 11183, "func@@": 11184, "EU": 11185, "accuracy": 11186, "evaluated": 11187, "birth@@": 11188, "inclined": 11189, "tear": 11190, "wash@@": 11191, "county": 11192, "servic@@": 11193, "villa@@": 11194, "Ed@@": 11195, "predic@@": 11196, "ro": 11197, "Tigers": 11198, "milli@@": 11199, "tually": 11200, "Anyhow": 11201, "mom@@": 11202, "evacuation": 11203, "Cro@@": 11204, "sers": 11205, "trusted": 11206, "oxygen": 11207, "hardships": 11208, "dos": 11209, "idle": 11210, "gur@@": 11211, "unreasonable": 11212, "ice-@@": 11213, "tracks": 11214, "Thomas": 11215, "However,@@": 11216, "moment@@": 11217, "self-confidence": 11218, "skinny": 11219, "exam@@": 11220, "ARE": 11221, "pens": 11222, "show.": 11223, "volcano": 11224, "power.": 11225, "ily.": 11226, "last.": 11227, "Americ@@": 11228, "disagre@@": 11229, "friends,@@": 11230, "intonation": 11231, "Dance": 11232, "shopping.": 11233, "swept": 11234, "English.@@": 11235, "died.": 11236, "dubbed": 11237, "Andy": 11238, "liar": 11239, "hit@@": 11240, "missions": 11241, "/had": 11242, "renting": 11243, "statues": 11244, "Monday.": 11245, "descriptions": 11246, "Haneda": 11247, "stall": 11248, "paperbacks": 11249, "shave": 11250, "mori": 11251, "Toeic": 11252, "AV@@": 11253, "costly": 11254, "risen": 11255, "benef@@": 11256, "advances": 11257, "programmes": 11258, "combat": 11259, "independently": 11260, "wheels": 11261, "reject": 11262, "ority": 11263, "visions": 11264, "portrait": 11265, "villages": 11266, "emphasizes": 11267, "belongings": 11268, "pro": 11269, "mentality": 11270, "transparent": 11271, "Bla@@": 11272, "cations": 11273, "proves": 11274, "dur@@": 11275, "Self-@@": 11276, "Regardless": 11277, "After@@": 11278, "Martin": 11279, "simp@@": 11280, "Media": 11281, "'A": 11282, "alle@@": 11283, "fif@@": 11284, "ental": 11285, "dal": 11286, "clumsy": 11287, ".There": 11288, "Char@@": 11289, "dest": 11290, "ary@@": 11291, "sion@@": 11292, "leather": 11293, "experimental": 11294, "Ori@@": 11295, "conversa@@": 11296, "trouble.": 11297, "smarter": 11298, "messenger": 11299, "street@@": 11300, "stubborn": 11301, "your@@": 11302, "sque": 11303, "two.": 11304, "advice.": 11305, "latte": 11306, "mean...": 11307, "mmer": 11308, "poor@@": 11309, "aching": 11310, "/about": 11311, "Kong@@": 11312, "shelves": 11313, "grape": 11314, "consulted": 11315, "yesterday,": 11316, "ex-girlfriend": 11317, "ls.": 11318, "feel@@": 11319, "な": 11320, "ners.": 11321, "Goodbye": 11322, "lean": 11323, "So,@@": 11324, "Fantasy": 11325, "Theory": 11326, "thinking.": 11327, "bucket": 11328, "apt": 11329, "pals": 11330, "Gri@@": 11331, "trailer": 11332, "rice@@": 11333, "mi-@@": 11334, "uta": 11335, "club@@": 11336, "hai": 11337, "outfits": 11338, "what@@": 11339, "couch": 11340, "eggplant": 11341, "mistake.": 11342, "kyo": 11343, "fountain": 11344, "Hide@@": 11345, "lunches": 11346, "discounted": 11347, "toothache": 11348, "Jin@@": 11349, "contributions": 11350, "optimi@@": 11351, "fat@@": 11352, "Reactor": 11353, "intensity": 11354, "limiting": 11355, "settings": 11356, "dings": 11357, "labour": 11358, "logists": 11359, "represented": 11360, "prosperity": 11361, "seminars": 11362, "eas@@": 11363, "limitations": 11364, "consuming": 11365, "environment@@": 11366, "spee@@": 11367, "power@@": 11368, "noted": 11369, "stair@@": 11370, "industri@@": 11371, "tags": 11372, "dete@@": 11373, "circuit": 11374, "-and-@@": 11375, "20,000": 11376, "spouse": 11377, "safe@@": 11378, "labor@@": 11379, "seaside": 11380, "impro@@": 11381, "circles": 11382, "acceler@@": 11383, "shoul@@": 11384, "notion": 11385, "fts": 11386, "pulling": 11387, "inviting": 11388, "orr@@": 11389, "Special": 11390, "fluid": 11391, "Particularly": 11392, "crushed": 11393, "sper@@": 11394, ",000,000": 11395, "lated": 11396, "igh@@": 11397, "repe@@": 11398, "noticing": 11399, "determination": 11400, "compensation": 11401, "arranging": 11402, "scre@@": 11403, "rid@@": 11404, "infinite": 11405, "gie": 11406, "allergies": 11407, "contaminated": 11408, "blows": 11409, "torture": 11410, "tenth": 11411, "chickens": 11412, "metaphor": 11413, "Mrs": 11414, "recite": 11415, "kno@@": 11416, "low.": 11417, "YA": 11418, ".He": 11419, "sensation": 11420, "'have": 11421, "newcomer": 11422, "Chinese@@": 11423, "Between": 11424, "Satur@@": 11425, "united": 11426, "yesterday@@": 11427, "horizons": 11428, "oily": 11429, "story@@": 11430, "turkey": 11431, "Lisa": 11432, "s&nbsp": 11433, "Prison": 11434, "often@@": 11435, "postcards": 11436, "brother@@": 11437, "picky": 11438, "fashioned": 11439, "gestures": 11440, "sitcom": 11441, "swallow": 11442, "Cross": 11443, "band@@": 11444, "situation@@": 11445, "ad.": 11446, "sal": 11447, "/'@@": 11448, "￥": 11449, "softball": 11450, "ya.": 11451, "mango": 11452, "dama@@": 11453, "Shiga": 11454, "00PM": 11455, "Aomori": 11456, "snail": 11457, "Ak@@": 11458, "Xi@@": 11459, "yang": 11460, "Rie": 11461, "Grade": 11462, "batteries": 11463, "sectors": 11464, "K.": 11465, "dents": 11466, "ort": 11467, "abused": 11468, "widespread": 11469, "ally-@@": 11470, "tion-@@": 11471, "obe@@": 11472, "invent": 11473, "weaknesses": 11474, "mile": 11475, "teri@@": 11476, "revolutionary": 11477, "pockets": 11478, "revised": 11479, "Smart": 11480, "dirt": 11481, "biological": 11482, "requ@@": 11483, "distinctive": 11484, "continually": 11485, "workout": 11486, "L.": 11487, "double-@@": 11488, "stroll": 11489, "5,000": 11490, "own@@": 11491, "caps": 11492, "announ@@": 11493, "psycho@@": 11494, "face@@": 11495, "ron": 11496, "commu@@": 11497, "Belgium": 11498, "Daily": 11499, "harvested": 11500, "mineral": 11501, "melt": 11502, "chu": 11503, "psy@@": 11504, "type@@": 11505, "Option": 11506, "ket": 11507, "Guess": 11508, "sticking": 11509, "Heaven": 11510, "service.": 11511, "curse": 11512, "tweets": 11513, "congratulate": 11514, "wool": 11515, ".....@@": 11516, "sts.": 11517, "ast": 11518, "tolerance": 11519, "feast": 11520, "spider": 11521, "sm.": 11522, "Wonderland": 11523, "porridge": 11524, "/10": 11525, "JLPT": 11526, "Inception": 11527, "ET@@": 11528, "good-@@": 11529, "disgusted": 11530, "tian": 11531, "ack": 11532, "sei": 11533, "aka@@": 11534, "listens": 11535, "enough@@": 11536, "fanta@@": 11537, "friends,": 11538, "stoc@@": 11539, "hospital.": 11540, "Tou@@": 11541, "castles": 11542, "swe@@": 11543, "Joy": 11544, "melon": 11545, "level.": 11546, "Sep": 11547, "ants.": 11548, "ank": 11549, "Feeling": 11550, "culture@@": 11551, "occur@@": 11552, "Heian": 11553, "weeds": 11554, "hesitating": 11555, "Russi@@": 11556, "yama@@": 11557, "LDP": 11558, "Himeji": 11559, "sesame": 11560, "ㅜ": 11561, "Baby": 11562, "-to-@@": 11563, "terrorism": 11564, "processed": 11565, "propo@@": 11566, "automobile": 11567, "operator": 11568, "dilemma": 11569, "Wil@@": 11570, "denti@@": 11571, "recycling": 11572, "revol@@": 11573, "insomnia": 11574, "sixty": 11575, "convert": 11576, "demonstrate": 11577, "stal@@": 11578, "yer": 11579, "horizon": 11580, "mul@@": 11581, "attendants": 11582, "ize": 11583, "develop@@": 11584, "communicated": 11585, "grou@@": 11586, "fulfilling": 11587, "s--@@": 11588, "du": 11589, "recorder": 11590, "melting": 11591, "poll@@": 11592, "bree@@": 11593, "despair": 11594, "after-@@": 11595, "CE": 11596, "Went": 11597, "connotation": 11598, "sky.": 11599, "Cat": 11600, "ating.": 11601, "possible@@": 11602, "corrections.": 11603, "balloons": 11604, "eyebrows": 11605, "Myself": 11606, "boring.": 11607, "Lat@@": 11608, "sacred": 11609, "exerci@@": 11610, "Boo@@": 11611, "Austria": 11612, "surpri@@": 11613, "garage": 11614, "coz": 11615, "Nar@@": 11616, "Ming": 11617, "rest.": 11618, "school,": 11619, "relax@@": 11620, "Catholic": 11621, "locker": 11622, "stuff.": 11623, "guitarist": 11624, "Pop": 11625, "dynasty": 11626, "particle": 11627, "bod@@": 11628, "haha@@": 11629, "Must": 11630, "flash@@": 11631, "stretching": 11632, "carto@@": 11633, "earnest": 11634, "sudden@@": 11635, "servers": 11636, "ov@@": 11637, "futsal": 11638, "break.": 11639, "now...": 11640, "dai": 11641, "refrain": 11642, "WBC": 11643, "Rakugo": 11644, "wrapping": 11645, "Nak@@": 11646, "K-@@": 11647, "Miso": 11648, "CR@@": 11649, "JR": 11650, "po": 11651, "DE@@": 11652, "se,": 11653, "sustain": 11654, "upgrade": 11655, "withdraw": 11656, "B.": 11657, "accumulate": 11658, "solely": 11659, "ase": 11660, "ac": 11661, "Examples": 11662, "corners": 11663, "recei@@": 11664, "decreases": 11665, "consumed": 11666, "maternity": 11667, "translates": 11668, "bank@@": 11669, "contributes": 11670, "ghts": 11671, "addressed": 11672, "yo-@@": 11673, "character@@": 11674, "Physics": 11675, "West@@": 11676, "policemen": 11677, "Naka@@": 11678, "amazingly": 11679, "respects": 11680, "Arizona": 11681, "Inside": 11682, "communic@@": 11683, "dant": 11684, "1980": 11685, "varies": 11686, "executive": 11687, "four@@": 11688, "presenting": 11689, "dinner@@": 11690, "Valley": 11691, "declare": 11692, "bury": 11693, "freeze": 11694, "drop@@": 11695, "collar": 11696, "awoke": 11697, "Dog": 11698, "rescued": 11699, "tives.": 11700, "Arts": 11701, "Meaning": 11702, "moon@@": 11703, "ssy": 11704, "insul@@": 11705, "they@@": 11706, "rese@@": 11707, "hhh": 11708, "/...@@": 11709, "kar@@": 11710, "ni": 11711, "passages": 11712, "grammar@@": 11713, "froze": 11714, "lish@@": 11715, "spoon": 11716, "finished.": 11717, "sex@@": 11718, "picks": 11719, "ao": 11720, "randomly": 11721, "box@@": 11722, "Fran@@": 11723, "self.": 11724, "otaku": 11725, "grain": 11726, "signature": 11727, "condition.": 11728, "も": 11729, "posters": 11730, "weir@@": 11731, "......@@": 11732, "paint@@": 11733, "japan@@": 11734, "by.": 11735, "Justin": 11736, "Sherlock": 11737, "Vienna": 11738, "Fireworks": 11739, "girlfriend.": 11740, "x-@@": 11741, "Java": 11742, "sneakers": 11743, "'was": 11744, "ffs": 11745, "mistook": 11746, "AZ@@": 11747, "＊": 11748, "Restaurant": 11749, "/as": 11750, "Dr@@": 11751, "dieting": 11752, "Jay": 11753, "delight": 11754, "ural": 11755, "Gion": 11756, "recognition": 11757, "outweigh": 11758, "lesser": 11759, "revealing": 11760, "devastated": 11761, "discrimin@@": 11762, "mps": 11763, "voluntary": 11764, "bac@@": 11765, "ues": 11766, "usi@@": 11767, "consisting": 11768, "lia": 11769, "immune": 11770, "mation": 11771, "Speech": 11772, "yc@@": 11773, "heat@@": 11774, "wards": 11775, "foreign@@": 11776, "Putting": 11777, "sole": 11778, ".1": 11779, "fail@@": 11780, "8-@@": 11781, "'at": 11782, "stamp": 11783, "viewed": 11784, "varied": 11785, "appointed": 11786, "bonds": 11787, "irritating": 11788, "impulse": 11789, "WW@@": 11790, "Depending": 11791, "Cat@@": 11792, "venue": 11793, "Pr@@": 11794, "Top": 11795, "scan": 11796, "ped.": 11797, "Play": 11798, "scream": 11799, "restarted": 11800, "........": 11801, "naive": 11802, "table@@": 11803, "me,@@": 11804, "evenings": 11805, "ME": 11806, "Finding": 11807, "surprises": 11808, "entries.": 11809, "lol.": 11810, "learning.": 11811, "William": 11812, "envelope": 11813, "dig": 11814, "sei@@": 11815, "learn.": 11816, "dumb": 11817, "First@@": 11818, "語": 11819, "view@@": 11820, "patiently": 11821, "married.": 11822, "draws": 11823, "mayor": 11824, "At@@": 11825, "neck@@": 11826, "Am@@": 11827, "Chinese-@@": 11828, "hats": 11829, "Japanese,": 11830, "companion": 11831, "GO": 11832, "alo@@": 11833, "isa": 11834, "spray": 11835, "menus": 11836, "boyfriend.": 11837, "JI": 11838, "pots": 11839, "knowledge.": 11840, "zushi": 11841, "muggy": 11842, "Tochigi": 11843, "Cameron": 11844, "pitcher": 11845, "featuring": 11846, "Charlie": 11847, "_____": 11848, "ung@@": 11849, "environmentally": 11850, "Labor": 11851, "medication": 11852, "implementation": 11853, "investing": 11854, "traits": 11855, "veri@@": 11856, "Similarly": 11857, "architectural": 11858, "Ur@@": 11859, "performs": 11860, "disorders": 11861, "identified": 11862, "assa@@": 11863, "nine@@": 11864, "desk@@": 11865, "judgement": 11866, "nan": 11867, "kie": 11868, "backpack": 11869, "ured": 11870, "titude": 11871, "argu@@": 11872, "chewing": 11873, "indirect": 11874, "farther": 11875, "improper": 11876, "cab@@": 11877, ",or": 11878, "licen@@": 11879, "fog": 11880, "shuttle": 11881, "fiel@@": 11882, "phi@@": 11883, "ice-cream": 11884, "deb@@": 11885, "id@@": 11886, "opport@@": 11887, "narr@@": 11888, "judging": 11889, "ously.": 11890, "compliment": 11891, "Ph@@": 11892, "hardship": 11893, "frightening": 11894, "tomat@@": 11895, "twice.": 11896, "Learn": 11897, "kingdom": 11898, "geni@@": 11899, "Princess": 11900, "'My": 11901, "foods.": 11902, "slogan": 11903, "days,": 11904, "novelist": 11905, "tomb": 11906, "vat@@": 11907, ",even": 11908, "emo@@": 11909, "memori@@": 11910, "stre@@": 11911, "poo@@": 11912, "liqu@@": 11913, "bumped": 11914, "USB": 11915, "to&nbsp": 11916, "ó": 11917, ".-": 11918, "diplom@@": 11919, "laughs": 11920, "won@@": 11921, "hockey": 11922, "Ura@@": 11923, "UL@@": 11924, "Football": 11925, ".A": 11926, "motto": 11927, "swim@@": 11928, "Dor@@": 11929, "Titles": 11930, "tutoring": 11931, "position.": 11932, "horn": 11933, "zawa": 11934, "③": 11935, "snowfall": 11936, "ely.": 11937, "gyoza": 11938, "cake.": 11939, "Woman": 11940, "guy.": 11941, "Capital": 11942, "Gossip": 11943, "MacBook": 11944, "ener@@": 11945, "dence": 11946, "develops": 11947, "harmonious": 11948, "1997": 11949, "MRT": 11950, "achiev@@": 11951, "berg": 11952, "proficient": 11953, "ING@@": 11954, "handicapped": 11955, "headset": 11956, "housewives": 11957, "hou@@": 11958, "mentioning": 11959, "cers": 11960, "pic": 11961, "Bal@@": 11962, "20s": 11963, "brighter": 11964, "Fre@@": 11965, "grant": 11966, "ases": 11967, "nick@@": 11968, "poisoning": 11969, "partic@@": 11970, "glob@@": 11971, "Cooking": 11972, "look@@": 11973, "Keeping": 11974, "migr@@": 11975, "motiva@@": 11976, "Upon": 11977, "ef": 11978, "pursuing": 11979, "prepar@@": 11980, "Ali@@": 11981, "environment.": 11982, "union": 11983, "floods": 11984, "responsi@@": 11985, "assembly": 11986, "PE@@": 11987, "Entrance": 11988, "paper@@": 11989, "Six": 11990, "jungle": 11991, "welcoming": 11992, "death.": 11993, "sister-in-law": 11994, "Som@@": 11995, "hero@@": 11996, "write@@": 11997, "sunglasses": 11998, "Poor": 11999, "pil@@": 12000, "medals": 12001, "Near": 12002, "/wiki": 12003, "protagonist": 12004, "goodness": 12005, "Kind": 12006, "大": 12007, "THAT": 12008, "VOA": 12009, "者": 12010, "debut": 12011, "bites": 12012, "plur@@": 12013, "time,I": 12014, "college@@": 12015, "strings": 12016, "Simple": 12017, "chased": 12018, "avocado": 12019, "dictation": 12020, "backache": 12021, "lanes": 12022, "forbidden": 12023, "colleagu@@": 12024, "Dome": 12025, "price.": 12026, "phra@@": 12027, "Sentence": 12028, "pee": 12029, "card.": 12030, "de-@@": 12031, "ined.": 12032, "confuses": 12033, "Train": 12034, "achi@@": 12035, "on,": 12036, "X-ray": 12037, "Iwate": 12038, "zuka": 12039, "ground.": 12040, "earlier.": 12041, "bei": 12042, "worthless": 12043, "alities": 12044, "coolant": 12045, "dependency": 12046, "mination": 12047, "initiative": 12048, "namely": 12049, "Medical": 12050, "impacts": 12051, "immature": 12052, "necessities": 12053, "flouri@@": 12054, "shor@@": 12055, "Building": 12056, "ator@@": 12057, "obliged": 12058, "leaked": 12059, "teamwork": 12060, "22@@": 12061, "rup@@": 12062, "illustrate": 12063, "sponge": 12064, "integrated": 12065, "Wat@@": 12066, "locals": 12067, "oke": 12068, "mentation": 12069, "Ban@@": 12070, "presu@@": 12071, "exclusive": 12072, "credi@@": 12073, "Army": 12074, "biased": 12075, "thor@@": 12076, "rival": 12077, "q": 12078, "nut": 12079, "tionally": 12080, "ander": 12081, "pac@@": 12082, "disturbed": 12083, "Mit@@": 12084, "cin@@": 12085, "bra": 12086, "cord": 12087, "lessness": 12088, "beverages": 12089, "Uni@@": 12090, "EE@@": 12091, "cabin": 12092, "RI@@": 12093, "Express": 12094, "hypothesis": 12095, "Short": 12096, "Exchange": 12097, "Swiss": 12098, "contacts": 12099, "youngsters": 12100, "parcel": 12101, "oid": 12102, "peel": 12103, "catches": 12104, "tes.": 12105, "loser": 12106, "made.": 12107, "drawer": 12108, "desserts": 12109, "wife.": 12110, "gesture": 12111, "dog@@": 12112, "mint": 12113, "table.": 12114, "try.": 12115, "sausages": 12116, "be...": 12117, "Fire": 12118, "す": 12119, "yed.": 12120, "craz@@": 12121, "topped": 12122, "Lunar": 12123, "kind@@": 12124, "aning": 12125, "Jin": 12126, "softer": 12127, "wire": 12128, "coming.": 12129, "dots": 12130, "postgraduate": 12131, "hop": 12132, "fourteen": 12133, "Fine": 12134, "pack@@": 12135, "aff@@": 12136, "comedies": 12137, "strong.": 12138, "Kids": 12139, "AY": 12140, "LOVE": 12141, "az@@": 12142, "calmed": 12143, "harmon@@": 12144, "illa": 12145, "istic": 12146, "awkwar@@": 12147, "heav@@": 12148, "nouns.": 12149, "summers": 12150, "Ref@@": 12151, "skate": 12152, "ed...": 12153, "attendees": 12154, "browsed": 12155, "job-hunting": 12156, "Kyoto.": 12157, "enter@@": 12158, "oku@@": 12159, "accomplishment": 12160, "Avril": 12161, "cian": 12162, "ji-@@": 12163, "beli@@": 12164, "questionnaire": 12165, "graders": 12166, "outlook": 12167, "obligated": 12168, "old-@@": 12169, "SFR": 12170, "perception": 12171, "commun@@": 12172, "warn": 12173, "IF@@": 12174, "detected": 12175, "aids": 12176, "Radio": 12177, "sensi@@": 12178, "contributing": 12179, "scholarships": 12180, "101": 12181, "graph@@": 12182, "trigger": 12183, "richer": 12184, "Mom@@": 12185, "BS": 12186, "layers": 12187, "motor@@": 12188, "feared": 12189, "sub-@@": 12190, "led@@": 12191, "patent": 12192, "venture": 12193, "crack": 12194, "parenthesis": 12195, "gates": 12196, ",then": 12197, "fist": 12198, "installing": 12199, "diff@@": 12200, "guilt": 12201, "racial": 12202, "appointments": 12203, "awarded": 12204, "seni@@": 12205, "amp@@": 12206, "contracted": 12207, "alu@@": 12208, "spectacular": 12209, "cheat": 12210, "2-3": 12211, "sher": 12212, "teen": 12213, "mind@@": 12214, "Wind": 12215, "gardening": 12216, "tched": 12217, "dim": 12218, "negotiate": 12219, "bond": 12220, "pt": 12221, "wrinkles": 12222, "progre@@": 12223, "inspiring": 12224, "mol@@": 12225, "teens": 12226, "matched": 12227, "ming@@": 12228, "languag@@": 12229, "stare": 12230, "oka@@": 12231, "wrestler": 12232, "German@@": 12233, "blond": 12234, "sixteen": 12235, "od": 12236, "cup@@": 12237, "Yuki": 12238, "poe@@": 12239, "especi@@": 12240, "IB@@": 12241, "dreamt": 12242, "busiest": 12243, "excep@@": 12244, "Ghost": 12245, "notebooks": 12246, "coaster": 12247, "bowls": 12248, "perm": 12249, "recor@@": 12250, "Christ": 12251, "sigh@@": 12252, "googled": 12253, "____": 12254, "governor": 12255, "Hayao": 12256, "filmed": 12257, "walk.": 12258, "spectators": 12259, "Hei@@": 12260, "PP@@": 12261, "lately.": 12262, "resu@@": 12263, "wit@@": 12264, "peppers": 12265, "gol@@": 12266, "no.": 12267, "Outside": 12268, "started.": 12269, "faint": 12270, "bullying": 12271, "ently@@": 12272, "web-@@": 12273, "so...": 12274, "Soccer": 12275, "Yoko@@": 12276, "transfered": 12277, "katsu": 12278, "Hanshin": 12279, "Mike": 12280, "Aki@@": 12281, "BB@@": 12282, "詞": 12283, "frames": 12284, "smartphone": 12285, "oppose": 12286, "Hearing": 12287, "operators": 12288, "enterprises": 12289, "xed": 12290, "Companies": 12291, "wheel@@": 12292, "Cab@@": 12293, "fearful": 12294, "tiles": 12295, "IA": 12296, "fragile": 12297, "acceptance": 12298, "ultimately": 12299, "68": 12300, "MS@@": 12301, "bon": 12302, "placing": 12303, "ler@@": 12304, "Chang@@": 12305, "tunnel": 12306, "yak@@": 12307, "tized": 12308, "grandchildren": 12309, "ight": 12310, "bom@@": 12311, "attempted": 12312, "ents.": 12313, "advi@@": 12314, "transpor@@": 12315, "demonstration": 12316, "associates": 12317, "Hun@@": 12318, "0,000": 12319, "Vol@@": 12320, "sci@@": 12321, "spla@@": 12322, "Sch@@": 12323, "thers": 12324, "loaded": 12325, "Cur@@": 12326, "spice": 12327, "Mel@@": 12328, "awaiting": 12329, "Er@@": 12330, "pow@@": 12331, "vent": 12332, "assistants": 12333, "internationally": 12334, "oce@@": 12335, "Sin@@": 12336, "lar": 12337, "sneezing": 12338, "dash": 12339, "proverbs": 12340, "Stre@@": 12341, "winter@@": 12342, "hypothetical": 12343, "exaggeration": 12344, "Made": 12345, "confused.": 12346, "draw@@": 12347, "annoys": 12348, "inger": 12349, "preferences": 12350, "msn": 12351, "means...": 12352, "XX": 12353, "eternal": 12354, "Wars": 12355, "experience@@": 12356, "ough": 12357, "basement": 12358, "ggle": 12359, "stuff@@": 12360, "plat@@": 12361, "happiness.": 12362, "drink.": 12363, "earphones": 12364, "cess@@": 12365, "crap": 12366, "lettuce": 12367, "FOR": 12368, "bang": 12369, "payed": 12370, "tradi@@": 12371, "silk": 12372, "fel@@": 12373, "character.": 12374, "arcade": 12375, "Coke": 12376, "Cle@@": 12377, "from.": 12378, "Southern": 12379, "confessed": 12380, "witch": 12381, "valley": 12382, "baby.": 12383, "sister@@": 12384, "Ryu@@": 12385, "foreigners.": 12386, "X'mas": 12387, "Nag@@": 12388, "raining.": 12389, "Osechi": 12390, "date.": 12391, "yakiniku": 12392, "Kanazawa": 12393, "one,": 12394, "Anpanman": 12395, "station@@": 12396, "Hawaiian": 12397, "coupon": 12398, "ffy": 12399, "tokyo": 12400,
[...]
